#version: 0.2
Ġ t
h e
Ġ a
i n
e r
Ġt he
o n
r e
Ġ o
a n
a t
e n
e d
Ġ s
Ġ w
o r
i s
e s
Ġo f
i t
a l
Ġ c
a r
n d
Ġ in
Ġ f
Ġ p
i c
Ġ b
Ġa nd
a s
in g
i on
o u
Ġ m
Ġt o
o m
l e
Ġ d
Ġ h
i l
en t
Ġ T
Ġ S
Ġ C
Ġ 1
Ġ A
o l
s t
Ġ re
r o
e l
Ġ l
c t
a m
Ġ n
Ġ M
Ġ (
Ġ e
a d
Ġt h
u s
i v
e t
at ion
Ġ B
u r
c h
Ġw as
i d
l y
Ġ P
c e
i m
i g
Ġf or
Ġ I
Ġ is
ĠT he
o t
er s
Ġ H
i r
u t
r a
Ġ on
o w
Ġ 2
Ġ g
Ġa s
is t
u l
Ġb e
Ġ R
it h
e m
v er
he r
Ġ L
u n
g e
Ġ F
t er
Ġ D
Ġw ith
a y
Ġs t
an d
Ġ G
Ġ1 9
t h
Ġ W
o p
Ġb y
o s
Ġa l
Ġ N
Ġw h
Ġ E
r om
Ġc on
Ġa n
' s
u m
i es
it y
Ġth at
0 0
es t
Ġ J
i an
Ġo r
â Ģ
a c
Ġf rom
Ġ v
o d
er e
Ġa t
re s
Ġ "
Ġp ro
i f
Ġd e
Ġw ere
s e
a v
a in
o c
Ġc om
at e
a b
Ġ it
r i
âĢ ĵ
Ġa re
n t
il l
Ġ O
ic h
or t
u d
Ġ he
p e
q u
ar t
Ġ r
Ġ U
Ġs u
l d
e w
at ed
o re
Ġs e
b er
Ġe x
ig h
al l
a k
i al
an t
ar d
m ent
i a
i p
es s
ĠS t
a p
iv e
Ġ K
Ġh is
o g
a g
T he
ar y
ic al
e ar
m er
ĠI n
Ġwh ich
Ġc h
is h
en d
Ġin c
g h
u re
as t
ou r
in e
or d
om e
ct ion
o v
t her
ou nt
Ġ1 8
r ou
el l
Ġp l
o st
on g
Ġh ad
1 9
a ge
Ġ u
ĠC h
p p
Ġ2 0
en s
r an
) ,
am e
Ġ V
p t
Ġ y
Ġ us
s o
Ġ le
p er
d u
i re
i z
ou s
u b
Ġ un
c c
r it
Ġ âĢĵ
ol d
igh t
Ġn ot
Ġs h
ic an
av e
Ġ k
Ġcom p
k s
a re
r y
u st
Ġal so
f f
i e
e ct
Ġ 3
c es
it ion
ow n
as s
ĠU n
ou t
ig n
p l
w n
Ġa r
p h
at es
Ġh as
Ġcon t
f er
) .
Ġin t
m an
r u
ul t
Ġp er
ation s
Ġ2 00
Ġre s
at er
or y
ter n
id e
ir st
i b
en ce
u e
Ġy ear
Ġa d
Ġit s
l ud
Ġc l
Ġ Ċ
o ver
Ġw he
l and
u al
Ġp art
ĠT h
w o
Ġwh o
ic e
Ġh ave
Ġ 4
Ġal l
ou se
nd er
on d
er v
Ġthe ir
or k
Ġ20 1
ac k
it ed
I n
op ul
Ġa b
re e
Ġf irst
Ġo ther
ic t
i le
Ġ ra
Ġb ut
he d
n g
im e
ou ld
a ct
an g
ol l
Ġ 6
Ġinc lud
mer ican
o k
on e
it e
e p
f ter
res s
Ġon e
os e
ĠI t
Ġm an
a ch
ou nd
e c
Ġp opul
ation al
Ġth is
p ort
Ġ im
Ġbe c
ub l
el y
Ġd is
ĠA l
t e
Ġa ge
ar k
ent s
a ce
n e
am il
ad e
Ġ en
ab le
s h
Ġu nder
Ġt wo
Ġre c
ou gh
Ġbe en
ĠH e
k e
Ġcom m
Ġ Y
or m
il d
Ġo ver
Ġt e
v el
Ġ j
ount y
a w
Ġs p
ĠA merican
o ol
Ġc an
w e
ur ing
Ġp e
or s
c ed
l es
Ġh ouse
Ġa g
Ġo ut
ion s
in t
Ġyear s
re n
at h
am p
Ġm ore
op le
on s
Ġthe re
Ġd es
ic s
Ġp re
i ed
ak e
or n
ĠA r
Ġs c
h old
is s
as e
Ġ Ġ
Ġp r
o b
2 0
Ġ ro
Ġ 5
ol og
a il
ĠN ew
o od
Â ł
al es
Ġ19 9
Ġc ent
Ġhouse hold
Ġs y
Ġint o
an ce
as ed
o y
in al
Ġe v
ch ool
Ġpopul ation
Ġa fter
Ġc ity
iv ers
il m
Ġn e
Ġu p
ing s
re at
Ġthe y
er al
Ġf amil
ur y
it ies
an s
Ġs pe
rou gh
in d
al e
Ġm ed
re d
ĠUn ited
Ġus ed
f t
Ġa ct
ĠM ar
Ġl oc
Ġe le
Ġfor m
Ġpl ay
Ġcon s
Ġto wn
a u
ran s
Ġb et
Ġm ost
Ġ her
Ġof f
Ġsu ch
ri b
Ġn ew
o h
Ġm e
Ġpe ople
Ġat t
Ġs ome
a us
ĠC om
or ld
or th
i o
Ġ $
c ial
Ġp res
g an
at ive
iv ing
w ard
on t
ĠA s
Ġre g
is m
Ġre l
Ġpro du
i ous
ou th
Ġt ime
Ġk n
em ber
we en
w ay
c k
ic k
Ġp ol
is hed
Ġa pp
ot h
t s
ar ly
ĠC ounty
Ġw ould
if ic
Ġthe m
1 8
ver y
ĠSt ates
ur n
ĠR e
over n
t on
r am
Ġth an
Ġ19 8
ra ph
Ġg en
u g
Ġin d
Ġbet ween
id ent
Ġsu b
Ġwhe n
Ġs erv
Ġw e
er m
ĠD e
ĠL e
Ġ 9
f orm
Ġon ly
rou nd
ĠS e
er ed
Ġa cc
Ġf ilm
in ce
r ad
v e
Ġp ubl
" .
Ġt ra
Ġl ar
r al
st em
Ġf l
ct ed
u p
ĠTh is
i et
Ġn o
Ġ19 7
Ġin ter
Ġh im
Ġde c
Ġ 7
Ġw ork
ĠE ng
t en
Ġs o
Ġth rough
Ġn um
it s
in es
ist s
Ġm ade
Ġ 8
in s
a h
Ġ est
en ces
l ish
Ġd uring
Ġp h
Ġb u
ĠF or
Ġ qu
Ġc ol
ou n
c he
Ġp o
el d
sh ip
ut ion
ens us
i x
at t
y s
Ġf em
Ġt rans
" ,
Ġs et
Ġse c
er n
if e
Ġ1 7
og raph
Ġa m
Ġc o
Ġ19 6
oll ow
Ġas s
at ing
Ġre m
Ġinclud ing
j ect
er man
ow er
Ġb o
Ġman y
Ġm ay
vel op
a j
oh n
00 0
e ver
Ġm us
Ġab out
oc k
Ġc all
ar s
t ed
iv er
p r
Ġare a
Ġm od
Ġpro v
an n
r ic
Ġa c
ĠA n
Ġ 0
rou p
Ġwhe re
Ġd ist
Ġin v
i er
ĠS h
al s
ar l
is ion
Ġkn own
. "
he n
p an
ĠI s
am es
Ġl iving
ro s
Ġsu pp
t y
Ġde f
Ġsy stem
Ġa ver
e x
os s
u res
ivers ity
a z
ar ri
Ġf e
t ain
em b
Ġan y
Ġf ound
Ġst ud
Ġch ar
is e
Ġe m
ist ory
Ġg overn
Ġc ap
c y
at ure
in n
Ġb l
f ore
i am
Ġw rit
ĠI nd
Ġo ld
ĠJ ohn
r on
Ġaver age
Ã ©
Ġl ater
le y
iz e
i k
Ġd o
Ġm et
u c
ĠW ar
en n
a ir
em ent
iv ed
Ġd if
Ġm ov
Ġ1 0
Ġf ollow
ĠF ran
i eld
Ġbec ame
Ġfamil y
Ġc ount
ment s
ĠW h
at her
Ġde velop
ĠC l
Ġ end
ĠB rit
Ġ Z
c ent
Ġa p
Ġag ain
Ġth ree
iz ed
ĠS c
i ent
i ke
ĠG erman
Ġb el
Ġ ent
Ġin st
ĠC ol
ur al
Ġs ur
Ġ1 6
ow ever
Ġus e
Ġinc ome
ce pt
aus e
Ġw ell
Ġmed ian
Ġthe n
ers on
f l
ual ly
Ġ ed
Ġbe ing
ord ing
Ġs he
Ġh igh
Ġ .
Ġad d
ĠC on
Ġs er
Ġex p
in ed
ot her
Ġar t
a x
Ġl and
ction s
o ber
Ġd ire
ion al
Ġo per
Ġ1 5
Ġo b
Ġm ain
u ro
Ċ Ċ
Ġth ose
Ġv ar
Ġ19 4
el f
r ist
olog y
ro w
g et
us s
Ġre t
Ġg roup
s on
Ġcall ed
R e
l ed
Ġle ad
Ġor ig
Ġa ut
p en
ist or
t he
ĠP ro
Ġ -
aj or
Ġwh ile
Ġ19 5
Ġb oth
c on
i ew
ical ly
as h
Ġs ing
Ġthe se
Ġhousehold s
Ġnum ber
in c
Ġst ate
Ġre p
d er
Ġest ab
fer ences
Ġs ign
r ict
Ġm on
ian s
Ġex t
im es
in ist
in a
u nd
ĠB l
e b
v ed
u ch
Ġs m
Ġse ver
l l
ib le
Ġch ild
ay s
il ity
ĠS chool
Ġo wn
Ġn ame
Ġim p
Ġe arly
Ġs chool
ag es
ur ch
Ġe ff
Ġ6 5
Ġcent ury
i um
r id
e e
ĠUn iversity
Ġre le
Ġap pe
Ġc re
v en
Ġe very
iv es
e y
Ġpol it
om an
Ġ Q
t il
am ed
an k
m y
Ġpres ent
ĠA t
1 0
el s
u es
Ġde p
Ġl in
Ġa ir
ĠP h
iv id
ro p
Ġcon st
Ġsec ond
an y
Ġc ensus
ren ch
f ul
ĠCom m
g est
a id
os ed
uro pe
p or
Ġt erm
âĢ Ķ
1 7
ant s
Ġs im
ĠEng lish
ar m
Ġcomm un
Ġf our
ra ct
Ġl ong
Ġgovern ment
are d
ire d
ĠY ork
v ent
Ġ2 5
Ġn on
ros s
ĠK ing
c l
Ġv ers
Ġmus ic
o ot
Ġ1 2
Ġ ,
ĠA f
ang u
ul ar
al ly
Ġs ame
Ġcont in
Ġpubl ic
g er
ĠP r
Ġsh ow
Ġoff ic
Ġbe fore
Ġun til
ĠW orld
y p
f or
ar ch
Ġcomp le
Ġs ize
ĠO n
Ġrec ord
Ġdes ign
he s
en e
Ġsever al
as on
Ġo cc
un e
Ġ19 3
ĠBrit ish
b all
ĠI I
ĠThe re
ul l
il le
c er
t ing
Ġdis c
it al
an ge
ĠC an
Ġspe c
Ġm ajor
Ġw orld
r ing
Ġm ake
ĠE urope
Ġgen eral
Ġsupp ort
ĠH is
Ġ1 00
ct or
g ram
b um
tern al
Ġw ill
ĠO r
Ġser ies
Ġb ro
Ġn ear
in o
Ġl ine
Ġres ult
ĠA d
ĠP l
cc ess
Ġdif fer
Ġchar act
t o
os ition
Re ferences
ĠN ational
y l
ĠF rench
ar n
Ġm il
ĠG e
ĠM ay
Ġagain st
ak ing
Ġsm all
2 00
ic a
Ġs ince
Ġfem ales
ir d
ĠN orth
Ġ2 4
re t
th ough
is ed
y n
ĠCh rist
Ġpart ic
ĠB e
ĠC ent
1 6
g ed
Ġ1 4
Ġc ould
ĠW ill
t le
Ġdes c
x t
Ġof ten
Ġrem ain
he m
at or
ch n
h or
u ed
tern ational
Ġold er
Ġloc ated
ĠJ an
ill ion
ic es
ut e
i od
ograph y
et s
g y
ens ity
ĠA b
Ġ1 3
Ċ Ġ
Ġs l
r and
res ent
1 5
ĠE m
Ġe ach
Ġorig inal
c ess
iss ion
r is
at ic
b y
Ġcont r
Ġb ack
Ġw ater
con om
oc i
b le
ĠA ust
Ġo pen
Ġchild ren
arri ed
il t
Ġcons id
Ġor gan
Ġal bum
emb ers
ĠC ity
ĠS p
re ad
Ġg u
Ġfamil ies
Ġinc re
on y
E x
k m
ov e
is c
19 9
ĠM us
om et
Ġl aw
ĠS outh
re nt
Ġde ath
ĠE d
ĠU S
h ip
Ġ '
t al
1 2
Ġd ensity
Ġan n
Ġbec ause
i ence
o ok
Ġlar ge
Ġle g
Ġinclud e
qu are
Ġd id
Ġm in
Ġp ass
Ġcl ass
u ary
a i
ĠR ep
Ġal ong
Ġin s
Ġc ur
Ġl angu
Ġ if
Ġfor mer
ro du
ĠJ u
Ġsu ccess
Ġe qu
Ġ201 0
Ġpo int
Ġre ce
Ġs oc
l ished
o int
Ġbu ild
iv al
. .
et er
Ġt r
Ġbe gan
Ġl ife
re en
Ġp erson
Ġre v
A s
Ġa round
Ġre f
ac es
ug ust
Ġp ower
Ġt rad
end ed
Ġw ar
i us
cc ording
ĠC ar
Ġcol le
n er
Ġcomm on
ru ct
al ity
le v
it ary
ivid ual
ight s
iv ely
a im
Ġre qu
i qu
e g
om en
pe ct
Ġh um
ĠM an
Ġwith in
Ġpro gram
if ied
ĠR iver
amp le
ĠH owever
Ġdiffer ent
Ġn amed
id es
ap an
2 1
Ġr un
at s
Ġc ar
c om
iet y
ĠThe y
Ġlin ks
o x
Ġ1 1
ĠN ov
am b
Ġn orth
Ġb ased
Ġen g
Ġc ounty
ot t
Ġper iod
Ġind ividual
m ber
iz ation
Ġall ow
r ies
Ġd et
Ġ200 0
od e
Ġb and
or ks
ĠP ol
Ġh ome
ra ft
om in
ĠWill iam
ĠW est
ĠGe or
Ġestab lished
Ġn ow
at ely
Ġp ar
p le
Ġres id
Ġc or
st er
Ġm embers
ĠH ar
Ġd r
ĠA ir
Ġc ult
id d
es tern
5 0
il y
Ġapp ro
Ġre st
ond on
pt ember
iv en
ĠA ugust
Ġ &
ĠA m
Ġv ill
ĠC al
Ġfollow ing
ct ober
ol ution
Ġl it
1 4
en g
Ġm at
ur g
Ġre fer
Ġte am
ĠĠ ĠĠ
ent ly
ĠB ro
r ation
Ġpl ace
Ġm ark
Ġret urn
ĠG u
Ġhe ad
av ing
Ġeff ect
as es
att le
es e
Ġb us
ce mber
f ord
Ġf un
ĠL at
Ġto tal
Ġs ong
Ġloc al
Ġim port
Ġin fl
id ed
get her
m ed
Ġto gether
ĠAl l
ĠH igh
Ġst art
Ġth ough
Ġa v
Ġy ou
Ex ternal
c il
g en
pr il
Ġp rom
Ġv al
ur ther
pl es
Ġs outh
ĠS he
a f
Ġh ous
op h
Ġst and
o le
a e
ĠJan uary
ĠSt ate
l ine
ubl ic
Ġd em
r ican
i or
ĠP ark
in ess
ĠĊ ĠĊ
Ġh istor
ĠMar ch
1 3
ac ed
ĠL ondon
v ille
b orn
19 8
p ar
ĠJ apan
ĠJ une
ĠCan ad
v ers
Ġex ample
Ġ X
Ġd ue
Ġra ces
Ġin du
re w
ĠF l
Ġev en
d ay
ing ton
ĠJu ly
Ġc our
Ġaut hor
Ġp oss
ial ly
ak es
Ġo pp
Ġcharact er
an e
ward s
Ġm uch
Ġst r
Ġpro cess
ĠSe ptember
h am
Ġl ast
Ġrele ased
Ġp ort
at a
Ġst ill
Ġdesc rib
ĠO ctober
Ġg o
le t
ain s
Ġe conom
Ġc rit
Ġr ad
Ġbu ilt
ĠWh ite
ĠP ar
as ter
Ġs quare
Ġex pl
ĠS w
al th
Ġh istory
n ess
Ġl ike
Ġam ong
ĠE l
Ġre port
Ġm arried
Ġele ct
ĠDe cember
is on
ep end
in k
Ġfem ale
Ġs aid
Ġf act
m e
Ġm ales
Ġv ot
od y
ĠIs land
v es
ree k
ĠR oman
Ġ very
Ġad v
oun cil
ĠA pril
Ġpopul ar
m s
ord s
e k
Ġpro p
Ġcount ry
Ġex per
ĠG en
b s
Ġf re
Ġc amp
Ġres p
i ber
ĠNov ember
lev ision
Ġsh ort
Ġ19 2
Ġc ou
ĠT own
th s
ie f
Ġus ing
ĠIt al
ĠM c
iv il
le ct
au gh
ri pt
rid ge
Ġte chn
Ġ3 0
ĠE x
un ic
Ġt it
Ġwh at
The re
Ġpubl ished
um ent
ĠR uss
ard s
l er
ne y
g es
Ġhe l
Ġt em
ĠB ar
Ġre ad
Ġadd ition
Ġf in
Ġtrad ition
a ul
or ies
Ġn ational
ĠT e
Ġh and
19 7
Ġun its
ip p
Ġpro f
Ġd own
ĠAf rican
O n
Ġinfl u
Ġst at
Ġv is
b and
eb ru
Ġp ost
Ġl ed
ebru ary
er t
Ġj ust
Ġhe ld
Ġinclud ed
ir c
on es
Ġto ok
Ġ es
o ad
ĠA fter
ĠS y
d om
en se
ĠB y
Ġrep resent
et h
ĠP res
Ġvill age
C h
Ġt yp
Ġp at
Ġb as
e ad
ra y
un g
3 0
ĠCh ar
al d
ĠAs s
Ġpro t
che s
Ġl ate
Ġd ay
Ġg ame
Ġan other
ĠA nd
Ġle ft
ĠB o
S t
Ġpolit ical
Ġre pl
ag ue
s c
Ġg reat
c ing
l ing
ĠThe se
Ġev ent
rib ut
z e
st it
Ġc r
Ġm ag
ĠS u
ĠC o
ad em
ĠCol le
Ġf inal
Ġbe g
ĠD av
ĠPh il
1 1
Ġl ist
in ing
Ġad m
ĠAust ral
im ate
Ġs k
pl oy
Ġsing le
ib r
Ġe p
ĠP art
Ġn ov
. ,
em pt
b or
Ġmil itary
Ġis s
olog ical
Ġh ig
her n
re et
or por
ff ic
Ġ19 0
Ġmod ern
Ġcl aim
s ide
il ar
Ġa ff
Ġor der
A merican
S ee
ĠF ebruary
Ġconsid ered
ĠCh urch
Ġl a
p s
Ġbec ome
ro te
ore d
ĠB r
Ġt er
Ġra ce
Ġle vel
ĠH ouse
y le
Ġindu st
ur s
ĠEng land
ru ction
Ġc are
Ġm ile
Ġf ive
Ġf oot
ĠA mer
Ġlangu age
ot s
Ã ¡
Ġbel ow
ure d
ort hern
ĠS ec
as tern
19 6
Ġf ew
al f
our n
o ks
Ġ4 5
Ġs ix
Ġan t
er y
Ġch ang
Ġg iven
Ġdevelop ment
Ġl im
Ġplay er
Ġbo ok
Ġint rodu
Ġpre v
al k
Ġl ess
Ġcon f
Ġg l
Ġcontr ol
Ġserv ice
ĠH er
Ġse ason
Ġ18 9
Ġf ore
Ġk ill
Ġper form
T h
ĠA ng
4 0
ĠFran ce
ĠL a
Ġcur rent
Ġv ol
Ġdire ct
Ġcon c
Ġcommun ity
Ġar ch
l in
it a
os p
er ing
Ġt urn
out e
t t
Ġf ield
Ġs old
Ġimport ant
a pe
Ġrece ived
Ġin f
op e
ĠN or
op s
Ġro le
form ation
ther n
ol ic
Ġ2 3
it her
Ġcomp any
Ġ6 4
Ġvar ious
Ġpr im
Ġare as
Ġs on
inn ing
ain t
Ġwith out
ĠE ast
pe cial
Ġinv ol
Ġw ay
Ġm en
Ġd el
Ġ4 4
us band
Ġ2 2
in ation
cent ury
um b
ĠRe g
ĠM ed
Ġed uc
Ġp osition
Ġindividual s
e um
idd le
Ġact iv
re g
Ġt ri
Ġcom b
l ess
Ġto p
Ġprodu ction
ou thern
Ġ ident
ĠE n
e an
f ield
ĠG l
ĠD ist
ĠH ol
Ġc aus
av y
ir on
Ġst ar
ar th
Ġ er
Ġ18 8
o on
en cy
Ġh usband
he re
Ġp ract
ĠS oc
ition s
Ġm ult
Ġw rote
ĠJ ames
ict ion
Ġ2 6
Ġs ol
Ġsim ilar
Ġlar gest
w ork
Ġplay ed
Ġhous ing
ĠGeor ge
og n
it es
Ġne ed
Ġ2 1
at ural
ab ly
b o
Ġm illion
Ġbus iness
way s
Ġte levision
s elf
Ġ ide
r ont
c raft
Ġs omet
Ġh owever
Ġreg ion
u ck
Ġin it
o f
Ġw on
ĠH en
al t
ĠEurope an
Ġv iew
Ġsu g
et t
c o
Ġph ys
y pe
Ġ2 7
ap p
ĠL ou
Ġoffic ial
Ġl ow
Ġm ar
Ġs um
ri end
ĠAmer ica
Ġhum an
le ment
Ġc ame
Ġvers ion
ĠInd ian
Ġm y
Ġw omen
ĠR ober
Ġman ag
Ġ2 8
u el
Ġpro per
ĠS ch
ac ks
c hed
d e
Ġdevelop ed
Ġb re
ĠM ich
le x
Ġs our
ĠR ich
m ost
oy al
ow s
Ġatt empt
unic ip
Ġsoc ial
2 5
ĠV al
ĠB er
Ġc er
Ġcre ated
Ġappe ar
ain ed
Ġg row
v an
Ġst ruct
h od
Ġmake up
ĠUn ion
ent al
ĠT r
ĠP e
b an
Ġapp l
Ġex ist
ab or
n ect
Ġal though
Ġrel ig
for man
le ar
Ġcon d
Ġass oci
Ġra il
se qu
ĠR es
Ġprodu ced
G e
land s
Ġ el
Ġd est
Ġst ates
ĠP er
Ġre al
er ation
p ut
Ġhel p
Ġserv ed
A l
ra g
if orn
ist ic
ĠS an
Ġsy m
ĠR ec
Ġsh ip
ent ion
Ġpro ject
om b
Ġm ale
Ġg r
Ġhousehold er
Ġre du
Ġt imes
ac y
at ures
ĠM on
ĠA c
Ġh aving
ak en
r ated
Ġspe cial
i ation
Ġbe h
Ġf ac
Ġpres ident
Ġ18 7
n a
Ġd ied
ĠP ort
ĠIn ternational
Ġra cial
Ġal one
H istory
Ġth ird
us h
iforn ia
Ġw orks
Ġeng ine
ĠL ake
and er
Ġs w
ific ation
Ġde v
ĠPres ident
ol it
ĠC ensus
Ġm ater
p ire
Ġbel ie
Ġm ember
Ġtown ship
ĠQ u
Ġspec ies
as k
Ġus ually
ĠDist rict
Ġ18 6
Ġe ast
Ġc irc
A ccording
wo od
ent ial
ĠColle ge
ĠO ne
ific ant
Ġr ul
Ġk ing
ĠA nt
Ġd iv
inist er
Ġt ake
D P
Ġw est
s p
y r
ĠP al
ĠChrist ian
Ġwrit ten
ĠTh om
Ġrel ations
Ġs ent
Ġc ase
2 2
ĠN e
Ġc over
ĠG reat
e le
y m
ĠN o
w h
ĠS m
ĠChar les
Ġfilm s
Ġs ide
ĠGen eral
Ġt w
it ive
ar a
w est
Ġt est
v al
Ġh ost
Ġf ather
u le
Ġse par
Ġind epend
ibr ary
ĠA ct
i ol
Ġ z
art ment
oc r
ber t
ab ility
Ġdist rict
Ġgroup s
ĠCal ifornia
ines e
Ġestab lish
Ġre se
ic ian
u f
Ġsh ould
b urg
Ġl ight
Ġpl aces
it ar
Ġb est
Ġfe ature
B C
Ġr ight
Ġinter est
ĠGerman y
Ġprof ess
Ġt our
ĠW hen
y d
Ġsp ace
Ġprev ious
oun ced
Ġm er
A n
Ġ2 9
an a
Ġdo es
Ġb orn
ill s
us ed
u k
Ġsign ificant
Ġar g
ĠJ ew
Ġcontin ued
Ġbuild ing
m it
ĠAr my
N ot
a ff
Ġs ite
Ġprodu ct
Ġme an
Ġf urther
ĠD em
Ġyou ng
Ġnov el
ĠM or
Ġ200 8
re am
f amil
w are
Ġdescrib ed
Ġ200 7
om m
ist er
Ġother s
Ġcou ples
Ġb ody
Ġm ot
n ow
ĠC ath
ap er
ra in
% )
ĠN ative
end ing
re st
Ġsug gest
ic o
an c
Ġatt ack
Ġde b
Ġn et
Ġmater ial
ap t
Ġan im
an ces
Ġcount ries
he l
ĠBl ack
Ġm ust
a el
Ġsome one
Ã ¶
g o
ra w
Ġb ir
g in
ĠSt e
Ġj o
at ter
Ġcomp et
ĠP aul
Ġmet hod
Ġb i
Ġav ail
ĠHis pan
Ġsp read
Ġfor ces
ra p
v iew
Ġpr iv
Ġpro ble
Ġ20 20
Ġcomp ut
ĠRober t
ac hed
at ors
Ġ200 6
ĠC ouncil
ar ies
ĠP ress
Ġd er
Ġper forman
Ġne xt
Ġsystem s
ic le
Ġd ays
Ġne ver
a ut
pan ish
ĠS ome
ĠDav id
ĠCh ina
Ġfun ction
port s
Ġ201 1
Ġst ation
ĠHen ry
Ġstr ong
Ġfoot ball
y ing
Ġst ory
I I
Ġt reat
ro ad
c ast
ĠTown ship
Ġem ploy
s y
ĠB el
Ġ200 9
ĠCh inese
e h
Ġe arl
Ġf ail
ĠC or
Ġin ternational
Ġp ress
et ic
are nt
id s
Ġm ass
Ġc al
ĠKing dom
ĠD uring
Ġdec l
ĠH all
i en
Ġro ck
ĠLou is
ud e
am a
Ġf ull
Ġg ood
ĠPart y
Ġh alf
ĠB C
Ġmov ed
Ġ [
Ġk e
Ġ201 2
ure au
ĠC our
Ġstud ents
is ing
ĠSt reet
iqu e
Ġme as
as ing
Ġbro ad
her s
Ġform ed
Ġ |
ĠAs ian
Ġw ife
Ġhim self
Ġschool s
Ġe ither
ide o
ĠG reek
Ġoff ice
Ġ199 0
ĠAr t
ri e
2 3
Ġrec ogn
im ately
Ġfre qu
Ġan c
o ff
inc ip
id ence
m ing
Ġof fer
ic ation
ĠH istor
Ġg ames
Ġh old
famil ies
ash ington
ĠCanad a
ĠS er
Ġan al
8 0
ov iet
ĠM iss
over ty
Ġm aking
2 6
s erv
ant ed
Ġor d
ĠJapan ese
ed eral
ĠHispan ic
our s
Ġpart y
Ġob ject
Ã ¼
ru g
U n
2 4
ĠD ep
m p
Ġfound ed
2 7
Ġst yle
Ġb ase
Ġavail able
ra b
Ġ198 0
o e
m a
h ib
Ġc ivil
ĠA ward
19 5
Ġph il
3 5
ĠD es
k y
ĠG od
f ace
Ġtit le
ord er
ĠQ ue
Ġf ree
amp ion
Ġf ire
w rit
Ġthe ory
ro wn
Ġsu per
ĠM ount
pl ay
Ġt re
Ġw id
Ġocc ur
ul arly
Ġn atural
ens ive
Ġac ross
i ers
Ġmark et
Ġp overty
ĠD an
A r
Ġ5 0
3 7
3 6
pecial ly
in ter
ĠT ex
ĠG overn
Ġ201 3
Ġr ather
Ġf riend
ot a
ĠCom pan
Ġh ow
Ġc ell
Ġ197 0
if f
c le
ap s
Ġs ound
Ġinv est
ĠCent er
Ġse en
Ġro ad
19 4
er gy
ĠLat ino
g ress
D em
it or
Ġsing er
ĠB ureau
b e
2 9
ĠS panish
ĠA ccording
Ġsomet imes
all s
ĠM il
ĠV ir
it u
Ġ200 5
n ot
Ġd ata
Ġact or
om s
Ġc oll
ĠW ashington
Ġ4 0
Ġele ction
em ents
Ġ Ã
Ġ( "
it z
Ġm unicip
ĠI r
Ġab ove
ĠR oyal
Ġopen ed
ĠP ac
Ġbl ack
um e
Ġtem per
Ġgeneral ly
p ite
Ġimp ro
2 8
ĠT ra
' t
v iron
om es
he st
at ives
Ġag re
Ġtrans l
ĠM e
ĠR oad
is l
Ġpol ic
3 8
Ġpl an
Ġd oc
ĠEm pire
Ġc ost
Ġm id
ourn al
Ge ography
Ġg rad
ĠW ith
Ġmod el
Ġen c
Ġter rit
n ing
Ġt ype
Ġserv ices
a ign
mer cial
Ġc ross
ĠY ou
Ġadm inist
Ġle ast
6 0
c ul
Ã Ń
Ġc ast
ĠS oviet
Ġar r
Ġstud y
ĠO ther
Ġev ents
m ar
ĠM ary
ĠItal ian
Ġg round
ce ed
ĠA g
ĠD u
Ġdef e
ec ut
it ect
ch ie
Ġsub ject
Ġcult ure
y ear
Ġep is
Ġw ent
Ġ201 4
ĠW e
Ġexp ress
Ġthrough out
Ġrecord ed
ĠThom as
ĠW estern
Ġair craft
Ġann ounced
ĠCath olic
Ġfollow ed
ĠLe ague
Ã ³
ĠRich ard
ĠM ex
Ġin formation
Ġset t
ĠAb out
3 9
one y
Ġfor ce
ĠC ong
Ġent ire
D e
Ġrese arch
Ġf ind
Ġf und
re m
Ġposs ible
b it
Ġw ord
Ġme et
Ġcent er
Ġinclud es
er ous
Ġacc ess
Ġappe ared
ate g
Ġp ain
Ġcap ital
Ġcon du
Ġp ot
Ġ201 5
ag o
Ġwh ite
Ġintrodu ced
Ġpart s
ĠM art
Ġcap ita
Ġcare er
ĠR ed
ri al
ough t
Ġreport ed
uf act
ad es
Ġterm s
arl iam
Ġstand ard
ĠFran k
Ġch ange
ograph ics
ber g
on st
at ory
Ġcent ral
ĠG r
ud d
Ġ201 6
Ġp ur
ri a
re l
Ġsuccess ful
Ġc ities
Ġm em
st on
Ġob serv
ish ing
Ġl ive
Ġac cept
Ġvers us
Ġpre d
Ġs ch
Ġes pecially
Ġr ange
3 4
Ġ200 4
qu e
ĠM ont
o id
ul a
ut ch
Ġcon nect
Ġne g
Ġrad io
n own
ĠCompan y
ke y
Ġlit er
ĠU K
Ġh on
ar ily
av es
ĠR ail
Ġg e
Ġ196 0
Ġ18 5
and ing
ies t
ĠS l
Ġdisc over
Ġdif f
Ġresid ents
Ġt aken
pp er
a ur
he ast
ĠAc adem
ell ing
arliam ent
Ġse e
ĠP at
it ing
Ġst e
Ġ3 1
um n
ro y
ĠM et
el t
ĠPac ific
ĠG reen
Ġbro ther
Ġde g
Ġele cted
or ough
ĠH istory
Ġpo et
Dem ographics
v ing
Ġcons ist
ĠRep ublic
Ġla un
Ġon ce
ra el
ĠM er
orpor ated
augh ter
Ġacc ount
Ġcomp os
3 3
Ġphil os
Ġapp oint
Ġup on
ĠA lex
ĠM ac
Ġ201 8
ĠB ay
b ers
ĠP enn
ran ch
Ġprov ided
du c
Ġeconom ic
Ġwh ose
Ġe ight
ĠRe v
ers hip
Ġhig her
ĠB ra
Ġl ost
Ġmon ths
ic ated
r ight
il ities
ĠS im
Ġ20 19
Ġcrit ic
ĠR oute
9 0
ĠS en
Ġcour t
Ġremain ed
viron ment
ĠCour t
Ġ201 7
ĠM ag
Ġf ood
em s
Ġreg ard
le g
ĠM al
ot e
Ġeduc ation
Ġreturn ed
m en
Ġ200 3
o ice
ĠT rans
Ġstart ed
o res
ĠF irst
Ġmov ement
ak er
Ġv iol
Ġpr incip
ĠS am
it ch
ar ian
Ġits elf
ĠCent ral
Ġ ill
um p
Ġlead ing
Ġm other
o or
Ġf ig
Ġf ar
ec ess
Ġh ard
Ġf av
ĠIn ter
s el
Ġis land
Ġme ans
Ġcer tain
Ġcl os
ĠMus eum
Ġr ights
7 0
Ġcom mercial
r or
ĠS al
Ġmain tain
sy ch
re y
ĠL aw
Ġres pect
ĠM ales
ĠInd ia
ĠRuss ian
Ġse x
u x
Ġcl ub
. )
ch an
ĠAustral ia
" )
Ġn orthern
ĠM y
Ġal most
âĢ Ļ
Ġt en
Ġinst ead
ĠB attle
Ġch urch
Ġre d
ĠD ay
per or
Ġg ave
Ġp ers
fer ence
Ġmult ip
ric a
Ġc y
ol f
Ġar my
ĠSc ott
at ch
, "
ect ed
Ġd en
rough t
ĠT o
Ġc op
Ġcon cept
h ood
ic les
ou l
Ġa ud
ĠFran c
Ġfe atures
ĠW il
he ad
ĠTex as
ed y
Ġcap t
k ed
Ġkn ow
Ġp ut
pt ion
Ġim m
g round
Ġr ate
Ġd am
c ript
Ġm ount
Ġl ower
Ġcomple x
Ġcamp aign
ĠSw ed
Ġf oc
Ġsur v
Ġcomp an
Ġ ver
ĠDem ocr
ĠT ur
Ġman ufact
ol k
i j
Ġco ast
Ġv ict
Ġgen er
Ġdet erm
Ġcont ain
A fter
Ġb ar
Ġ200 1
ĠAss oci
Ġl ik
ĠCanad ian
Ġoriginal ly
ĠAcadem y
r ian
Ġevent ually
ol s
l ike
ĠSoc iety
rib ution
um ents
ĠG old
Ġkill ed
av al
Ġacc ording
ĠP eter
Ġpolit ician
Ġ200 2
med i
Ġrele ase
Ġocc up
ĠB u
ĠH ill
Ġth us
Ġs outhern
Ġph ot
Ġst ri
ĠI m
Ġre n
ĠPar is
Ġe t
Ġindust ry
ĠVir gin
ĠSt ud
ĠD on
ic ult
olit an
Ġperforman ce
and s
Ġtradition al
Ġdesign ed
3 1
ĠG rand
ĠAr ch
Ġt ax
Ġre b
ur ity
3 2
Ġsu ff
Ġconst ruction
C l
ĠO ld
ĠR ock
ar i
end s
Ġk ey
Ġpriv ate
Ġresp ons
Ġad op
end er
Ġs aw
yl van
Ġen ergy
ĠL ist
Ġ18 4
ut ure
he t
Ġcl ose
ant ic
Ġappro x
ec k
Ġtra vel
Ġsch ol
Ġact ress
Ġcol on
Ġte xt
im ent
Ġab le
Ġincre ased
est ival
a ction
ĠA re
ĠJ ose
Ġf ront
ĠT er
il es
om ing
Ġprov ide
Ġcharact ers
Ġt ro
ĠN et
ĠL ibrary
ing u
Ġv ideo
Ġlangu ages
ĠComm un
or ial
Ġrelations hip
ĠB ur
un k
ubl ican
ĠAl though
Ġa ward
en ed
Ġl ab
Ġassoci ated
ele b
ĠZ e
ĠIn stit
Ġsc ient
) ;
ri or
Ġpro b
ol es
Ġs at
ĠAf rica
Ġab s
i res
h a
ĠWh ile
it er
Ġf ight
ĠIs rael
ĠC ap
ul ation
Ġthough t
Ġpro te
Ġl og
Ġtr ade
Ġinflu ence
Ġorig in
Ġarch itect
ylvan ia
ĠĊ Ċ
Ġwork ing
Ġdire cted
oun ter
Ġform s
am ous
Ġp ast
Ġnet work
Ġout side
Ġdire ctor
ĠC DP
ĠBrit ain
.. .
id a
e ction
t ime
Ġa chie
Ġrelig ious
ic ations
id ing
Ġr iver
Ġr ank
Ġrefer red
ag ed
it te
Ġwrit er
Ġallow ed
ĠMich ael
Ġrequ ired
Ġresid ing
ĠC he
Ġpartic ip
ĠC ont
Ġhe alth
if t
r ig
st e
Ġrepl aced
Ġex cept
Ġperform ed
at re
Ġne igh
l am
Ġeff ort
Ġf all
Ġtrans port
Ġset tle
ĠLat in
o ch
Ġus es
ribut ed
Ġ ur
Ġn orm
F or
in i
eng th
ĠB ut
ĠSm ith
Ġpartic ular
Ġnum bers
en ced
ir l
Ġsub sequ
Ġb rought
v in
ĠB est
Ġst ated
Ġper cent
rop olitan
ĠD r
ell ow
Ġ âĢ
ĠVal ley
Ġac qu
op p
duc ation
ĠAng el
Ġm ix
b on
Ġt ru
k i
ĠV ol
r im
Ġf arm
H e
un s
us ion
in ct
se e
Ġstruct ure
ĠE arth
ĠCar ol
ĠM inister
w ell
Ġlit tle
Ġs ay
c ks
Ġle t
od es
Ġ199 9
Ġn ames
un n
Ġadd ed
ly mp
k nown
un t
Ġread ing
Ġa way
Ġinst it
gy pt
Ġc reat
s ylvania
re land
Ġs elf
all ed
ĠS erv
ĠM iddle
A t
Ġst re
ĠM ad
an ks
ib ility
Ġpartic ularly
Ġgu itar
) :
Ġsc ience
ign ed
Ġd ou
Ġbo oks
er o
ĠCong ress
oc al
W h
Ġb attle
l o
as c
m on
Ġun ivers
air s
Ġmean ing
ish op
Ġconc ern
Ġl ived
st ate
Ġwe bs
az ine
Ġex am
Ġval ue
Ġmajor ity
Ġc ases
Ġa ction
Ġe th
ĠM ark
7 5
Ġev idence
ĠA p
en a
Ġp ay
Ġ3 5
ĠD utch
os es
Ġc hem
l or
Ġt rib
Ġb ound
ĠII I
Ġwe ek
Ġex ecut
Ġcompan ies
ĠM any
and ed
Ġcaus ed
Ġg et
Ġbeg inning
ĠF ore
Ġdiff icult
re ater
ĠM ass
Ġrel ated
ens ion
i os
at ively
Ġg ra
Ġst age
ys is
Ġv ia
ĠF rom
Ġest im
Ġshow s
Ġ â
Ġl oss
Ġse ven
Ġso ft
g l
Ġs il
Ġlar ger
Ä ģ
ut h
Ġpl ant
ly ing
ow ers
h ab
is es
Ġw estern
i ences
ĠIr ish
b ased
Ġm ach
Ġloc ation
ĠV ict
Ġto o
Ġam ount
4 5
Ġele ments
Ġsour ce
Ġm iss
ĠPenn sylvania
T own
Ġn uc
Ġsur round
ĠDep artment
Ġrem ov
Ġc eleb
ĠAssoci ation
re me
Ġse qu
Ġl o
Ġbelie ved
i el
Ġs itu
Ġc ut
Ġhig hest
Ġprofess ional
ult ure
Ġb ur
ĠC ons
P e
m ark
Ġr ule
ĠSu per
Ġd aughter
ad o
Ġearl ier
p ro
Ġse at
l im
c ies
ul f
ĠItal y
Ġincre ase
h ing
| -
Ġmus ical
Å į
ĠT V
st ant
d es
on ic
u it
Ġpoint s
Ġp ark
ĠC ast
at al
ok e
ĠI f
ĠI reland
ĠO lymp
Ġdoc ument
Ġle arn
Ġinst r
Ġcomple ted
ĠM ost
Ġ199 8
Ġl ines
I t
Ġw ind
an cial
Ġw ords
Ġe mer
ers ey
vent ion
ĠAustral ian
ĠB ill
Ġsong s
Ġ =
Ġincre asing
Ġqu est
b ury
ach ing
Ġlead er
r ate
ĠE gypt
it t
Ġwrit ing
Ġinvol ved
Ġj ud
Ġwork ed
ĠM o
por ary
Ġindepend ent
m i
ic ro
Ġ195 0
Ġplay ers
Ġprim ary
r ick
Ġfeature d
ell ed
N A
ĠCh ic
Ġfore ign
ĠM od
ist ics
ist ance
Ġmed ia
it iz
Ġem b
19 0
Ġpl ann
Ġf uture
2 000
Ġsym b
ĠK h
Ġsur face
D uring
t ies
ĠD iv
ĠA rab
ampion ship
Ġc and
ĠS aint
ĠF ort
Ġg old
Ġl ay
ĠIt s
is ions
Ġal tern
Ġm ight
Ġex c
S A
Ã ¤
ĠRep ublican
Ġd omin
Ġconst it
k a
ĠK e
9 5
Ġ| |
Ġchang es
Ġbir th
d en
ĠC ount
i ography
arri age
ĠJose ph
Ġwebs ite
am ent
ĠP ublic
er a
ĠMus ic
ist an
g ian
Ġme chan
ve y
ĠAt l
ĠVirgin ia
Ġb all
Ġ âĢĶ
Ġint eg
ĠE r
4 7
Ġrev iew
ĠR ad
Ġ199 6
ot ed
Ġc ause
pe cted
Ġtyp ically
Ġdest roy
Ġwh om
ĠSt ar
Ġs em
ĠS pr
Ġanc ient
ĠW ood
itte e
ĠA pp
Ġto day
Ġo pt
Ġ ess
ĠI ll
ĠG ra
if y
Ġjo ined
Ġperson al
Ġre ached
Ġpur p
Ġspe ed
Ġent er
Ġn ar
read y
it ation
ĠT om
Ġd ivid
Ġen vironment
Ġc he
Ġbuild ings
g n
on a
ĠF red
Ġchang ed
Ġleg al
s pe
8 6
Ġpract ice
Ġlong er
Ġgrow th
in ary
Ġ199 7
Ġlim ited
ans as
ĠC amp
p art
i ated
Ġleg isl
Ġcomput er
Ġmil es
ĠJew ish
ut es
Ġant i
ut ions
Ġh or
O ther
ĠY ear
Ġcontin u
Ġd om
ĠEd ward
ĊĊ Ġ
sel ves
Ġthem selves
led ge
Ġd ram
Ġv ir
Ġt ar
ĠInstit ute
Ġe ver
Ġd ig
Ġremain s
it ude
Ġd ate
Ġdis e
Ġb ene
N ew
Ġd yn
Ġapprox imately
Ġmag n
Ġspec ific
Ġart ists
8 5
w ide
se c
Ġconsid er
ĠP et
Ġcon fl
ur ies
w in
Ġc ouncil
ĠK ore
ĠC ivil
our ces
Ġpolic y
writ er
ĠB en
Ġunder st
Ġcont ains
Ġn ight
Ġtyp es
Ġpre c
Ġse a
ar ing
Ġf amous
Ġso on
9 9
o o
Ġp ie
Ġtro ops
il s
Ġsum mer
oph y
Ġcl imate
Ġl ack
ĠM ill
ĠFor ce
Ġar m
Ġal ways
6 5
g ing
e ff
Ġ ens
on se
Ġmost ly
ĠSy stem
ĠChic ago
ĠR ob
as ons
ĠO x
iz ing
ĠBro wn
Ġhistor ical
is k
ĠVict or
ad a
it ted
ab les
Ġb order
y a
Ġprop osed
le cted
Ġbroad cast
Ġ20 21
sh ire
in et
res p
ĠN avy
c her
ress ion
ĠL u
Ġcom e
Ġpr int
Ġbo ard
Th is
Ġmin or
ig an
Ġp sych
ĠI nt
ĠĠĠĠ ĠĠĠĠ
ĠD el
Ġappoint ed
Ġoper ations
p re
ĠJ ersey
Ġcon ver
Ġg od
Ġto wards
Ġn ecess
r oll
ĠRec ords
ĠC amb
Ġnum erous
Ġn ature
Ġ199 5
Ġal ready
b ack
i ents
Ġr ound
am m
Ġsepar ate
b our
Ġbre ak
Ġun iversity
ant a
Ġ199 4
Ġpl aced
Ġmat hem
Ġepis ode
Ġd u
Ġdirect ly
Ġ3 2
C A
ain e
ĠMex ico
ĠD o
Ġf le
um an
Ġ199 2
erv e
Ġproper ty
Ġp urch
ĠL os
ĠSc ot
Ġrequ ire
ir it
us e
4 4
ol a
ĠFl or
bo ard
Ġc ode
Ġcommon ly
ĠA ut
ult ural
Pe ople
m in
ĠAre a
ĠSp ain
Ġstar ring
Ã ¨
ĠN orthern
r d
pp ed
8 8
Ġprodu ce
Ġe astern
Ġsc reen
in ent
ce an
ĠL iber
Ġb ank
Ġwrit ers
r as
Ġse ction
ĠK n
Ġp en
Ġdisc uss
Ġtra ck
Ġclaim ed
ĠP ri
ĠC arl
ĠO ff
Ġe as
a ult
Ġpre vent
ĠSec ond
ĠR ome
ib l
Ġer a
Ġcand id
Ġnew sp
ann el
Ġc red
Ġd i
Ġdec ided
Ġcomple te
Ġind ic
Ġcommun ities
om a
osp ital
Ġj ournal
Ġeffect s
r ich
ĠC reek
ĠMart in
ĠRev olution
ax im
Ġv eh
ĠM in
Ġann ual
t ra
6 4
Ġc ust
ĠCol umb
ĠF re
ĠO l
al ed
ian a
ch ange
Ġsour ces
Ġh it
Ġele ment
Ġtrans fer
Ġbet ter
c an
ian ce
Ġl ength
Ġsupport ed
Ġcolle ction
ĠG roup
ĠQue en
Ġaddition al
Ġ( )
ĠPr ince
C ities
it tle
ip l
Ġdef ined
Ġpol ice
Ġra p
u ation
Ġlaw s
Ġo p
Ġth reat
Ġ6 0
Ġac adem
Ġth r
ĠL ord
Ġvar iety
az z
Ġprodu cer
Ġcont ract
Ġprov ides
Ġim medi
Ġf ederal
Ġcomm and
ĠW al
Ġh ot
Ġresult s
Ġwid ely
ĠS ir
ĠCl ass
Ġw ood
ĠJ er
Ġcond itions
9 7
Ġcre ate
Ġm oney
ĠS ince
Ġcl osed
et te
augh t
Ġes c
Ġde al
ar ter
ĠO h
ven ue
ĠD en
ĠLe g
g ely
20 10
Ġl ook
ĠAn n
Ġwhe ther
ob al
Ġadd ress
Ġh yd
Ġm ur
per ial
ous ly
Ġ /
at o
Ġmultip le
Ġn omin
Ġrec ent
um mer
Ġpass ed
Ġ3 6
on n
b ur
ĠR o
ĠL and
Ġcompos er
Ġmov e
Ġstat us
Ġlik ely
p ir
ĠE v
ru cted
Ġke ep
Ġmon th
g le
Ġed ition
Ġtown s
Ġ199 1
Ġsmall er
w ith
Ġdef in
ĠP ers
al and
Ġcent re
Ġresp onse
Ġ18 0
Ġtemper ature
Ġ199 3
b re
Ġtra ining
Ġproble m
Ġp arent
Ġeconom y
Ġs us
Ġcult ural
Ġg as
Ġfin ancial
Ġsoc iety
ĠM em
Ġocc as
ĠM inn
Ġqu ick
ip s
Ġtechn ology
ry ing
Ġvot e
am s
ĠSe a
resp ond
Ġg ive
emb ly
Ġp rior
Ġm or
ĠG o
w here
a ud
9 6
Ġh om
Ġproble ms
ĠF er
A d
ret ary
Ġfor ced
ĠAs ia
ĠRuss ia
Ġsign ed
ĠHistor ic
Ġnear ly
ac hes
Ġp os
ste in
Ġc itiz
ĠT or
ĠD ou
Ġbl ood
Ġo il
ĠAir port
Ġdist ribution
Ġconfl ict
Ġin j
b l
it ors
Ġplay ing
Ġact ive
9 4
Ġlar gely
a o
ĠT wo
Ġterrit ory
Ġappe ars
iv ity
Ġl atter
ĠJ ust
ĠTh at
ĠĊĠĊ ĠĊĠĊ
r ative
Ġ3 4
ĠJ ul
Ġprevious ly
Ġdeath s
ĠH ow
ĠS ur
Ġbas is
ollow ing
Ġpress ure
Ġart ist
n ic
Ġphys ical
Ġr at
7 6
ĠF ilm
Ġstud ies
ell s
Ġre ason
Ġt aking
Ġnot ed
Ġbo x
ing er
ent h
Ġbeh av
ĠP arliament
9 8
i as
a res
ian t
P opul
iz ations
Ġiss ue
Ġide a
rie f
y e
ear ch
is ation
ast ic
ĠOx ford
Ġiss ues
Ġdis play
Ġc le
ĠJ ud
Ġ198 9
st ra
ron ic
ĠCl ub
z a
e ch
Ġend ed
ĠIs lam
ĠB ook
Ġbeh ind
Ġm ention
ĠS outhern
ell ig
Ġdet ail
ĠS un
ro vers
c el
es ota
Ġob tain
Ġhe avy
stit ution
Ġm iddle
ĠAngel es
Ġpr ison
Ġship s
ict ed
C om
Ġproduct s
Ġcomple t
ig r
an ced
Ġprogram s
Ċ ĠĊ
Ġs af
ino is
Ġm ission
Ġwe ap
ĠL ife
F urther
5 5
ri ed
Ġdis s
Ġad j
il ed
ur t
Ġfoc us
Ġestablish ments
ĠP re
Ġw ide
om er
ir m
m illion
oy s
ast y
Ġvar i
ou ri
Ġbene f
Ġen ough
ĠE astern
Ġtar get
Ġacc om
Ġmet al
Ġlevel s
ĠC up
E ng
id er
ĠV ill
Ġw in
m et
Ġimp lement
al le
ĠH aw
ĠComm ission
Ġg reater
ess ion
Ġdeg ree
ĠM ore
Ġr oute
Ġb orough
Ġwho le
ĠW ind
Ġd on
ĠN ot
Ġsh own
u ge
Ġ i
os ing
Ġdis p
Ġlet ter
Ġdivid ed
7 7
ĠF in
ĠM ur
ĠHigh way
Ġg rand
Ġm arriage
olog ist
Ġlist ed
4 6
4 8
P h
ĠCarol ina
o ir
ĠM el
Ġadop ted
ed s
Ġh ar
ĠE s
ĠIn c
Ġp ath
ĠFlor ida
Ġestim ated
Ġa st
Ġ8 0
n am
Ġ Â
Ġm akes
Ġ193 0
ad d
Ġrun s
Ġf if
und red
art ers
Ġun it
Ġprim arily
Ġw oman
ĠGeor g
Ġch ief
ird s
os h
ĠB as
Ġmeas ure
u an
Ġinc orporated
ĠOr der
Ġrepresent ed
ĠL ong
Ġb omb
ĠP o
Ġmag azine
ĠDu ke
ĠO s
Ġqu ant
k ins
em porary
um ber
ĠG al
r ol
Ġ194 0
ĠMinn esota
Ġcor respond
at ers
m ond
h ouse
b ed
Ġpo or
Ġdiscover ed
Ġk ind
Ġnear by
z il
ad y
f ect
ou ra
T V
Ġc arried
ĠEm peror
Ġre form
Ġd raw
ĠIll inois
Ġd ed
Ġindust rial
Ġo x
F ilm
ul ated
Ġag ric
Ġd one
Ġorgan ization
Ġcon cer
Ġinter view
Ġdec ision
Ġc ateg
Ġst ations
Ġcol or
ab eth
Ġhigh ly
Ġpe ace
Ġ ult
Ġp il
S h
Ġmunicip al
ĠDiv ision
p ly
ĠJohn son
Ġ198 8
ĠZe aland
6 6
Ġt akes
Ġown ed
Ġcour se
ĠOh io
Ġ3 3
Ġu nd
Ġw inn
Ġre ve
Ġcons um
Ġp aper
wh ich
w ar
ĠCon f
erv ation
ĠGovern ment
Ġcon cent
u a
ak ers
ran ge
Ġex hib
ĠPort ug
Ġs al
ill ed
Ġliter ature
Ġcomm ission
Ġinvest ig
Ġcolle ge
y al
ign ated
Ġr out
Ġpot ential
ĠJ es
Ġreg ular
Ġdist inct
Ġsoft ware
ĠS k
Ġneigh bor
ex t
ĠD is
ĠS pe
Ġoper ated
Ġn ation
z z
acks on
m ore
Not es
Ġl iber
om y
Ġd ial
Ġlaun ched
ard en
9 2
Ġfor t
ec ause
lement ary
ach us
ar c
op her
Ġinit ially
ĠS il
Ġ198 6
ĠT imes
ĠS ol
Ġb ig
e en
Ġfail ed
est s
op er
et ts
ĠDe f
ĠO per
ĠLe e
Ġrun ning
Ġbec oming
Ġteam s
ĠU nder
Ġhe av
Ġr an
Ġ3 8
4 2
Ġprot ect
tern et
Ġc ounter
Ġcomp on
Ġserv e
P ro
Ġsh ot
Ġoffer ed
l ar
ĠJ ean
Not able
Ġoper ation
g ar
Ġmain ly
ĠMich igan
Ġactiv ities
ell a
v a
ĠC ross
ĠSt at
Ġcan not
ĠPro t
Ġ198 4
Ġin hab
ĠF estival
Ġ198 7
w er
ĠJ im
4 1
Ġstud io
Ġh ours
Ġdem onst
7 8
un ction
Ġint ended
Ġc lear
e es
ĠH el
ail y
ĠP an
ĠM at
Ġs pl
ĠV iet
Ġmed ical
ou d
Ġreg ist
= "
gen cy
ĠServ ice
og rap
Ġbec omes
E arly
ol ved
Ġc ard
Ġra re
ĠB udd
Ġaut om
ĠJ ac
ian o
isc ons
ed er
ĠPol ish
Ġth ous
Ġ19 20
Ġsettle ment
ĠTe chn
Ġcurrent ly
an cy
Ġs en
ĠO ut
9 3
iscons in
Ġthere fore
ĠPr ime
Ġexper ience
out heast
Ġfore st
Ġ198 5
Ġcont rovers
ĠT re
P l
Ġs ens
Ġmunicip ality
th ur
ĠAlex ander
M us
Ġinit ial
Ġfour th
Ġelect ric
ist ed
5 00
isc o
ur a
ĠS at
ĠK ent
Ġcons ists
on ia
ĠB ern
u ff
B y
Ġo ur
ĠB ridge
k ing
Ġremain ing
Ġtru e
Ġ198 3
Ġreg ions
Ġdiv ision
ion e
Ġ198 2
ĠMc C
Ġresult ing
ĠC orn
Ġmanag ement
Ġ9 0
Ġ3 7
v is
ru pt
S c
ĠW all
k en
ver t
y th
Ġ196 8
Ġaward ed
des ignated
ĠP ost
Ġcomp ared
Ġst ories
Ġ197 9
ĠSc ience
ed om
Ġb ring
Ġ197 2
est ed
ĠJ ones
ĠAmerican s
Ġv on
Ġdise ase
Ġe arn
Ġappear ance
Ġsuggest ed
Ġstud ent
Ġanal ysis
Ġpart ies
ed ia
Ġcontr oll
Ġsold iers
ĠM u
ĠC am
Ġ ut
t a
hen s
Ġcomp l
I nd
ĠR om
Ġre pe
on ed
Ġrap id
c ol
ĠMus lim
Ġneed ed
Ġfun ctions
Ġs ports
ĠJ o
ĠPe ople
achus etts
ĠA v
Ġcent uries
Ġb rief
ou nder
ĠWilliam s
Ġd rug
Ġf a
Ġh yp
Ġsu c
Ġrec ording
Ġar ran
Ġ :
Ġcon v
ib ly
ĠW isconsin
Ġst ep
Ġart icle
Â °
Ġactiv ity
Ġhous es
Ġ7 0
l ers
ur b
ĠJ ackson
Ġrecord s
Ġcon ne
cept ion
Ġrel atively
v ement
8 7
Ġopen ing
Ġext ended
Ġpro gress
Ġvot es
Ġro yal
Ġw or
ĠDemocr atic
ĠB BC
Ġinv ent
r ical
ĠT ime
Ġhon or
ĠM a
9 1
an o
Ġtreat ment
S e
8 3
Ġoper ating
Ġturn ed
Ġquest ion
ĠSt ep
Ġcomp osed
Ġw anted
ĠJ ack
ans ion
Ġ197 6
Ġcom ment
Ġrespons ible
Ġmeet ing
iz abeth
Ġquick ly
Ġmethod s
ĠJ eff
Ġpat tern
Ġnuc lear
ow nt
Ġbir ths
Ġreg ional
im al
Ġappro ach
Ġhe art
Ġde ep
Ġdire ction
Ġ197 4
Ġimp act
Ġmat ch
or ation
Ġprov ince
ĠScott ish
Ġ197 5
ĠB et
Ġb r
ĠV er
Ġsuc ceed
Ġbl ock
âĢ Ŀ
ĠM r
ĠThe ir
ob ile
Ġl if
Ġn ative
Ġnew s
Ġass um
ĠE lementary
ĠK enn
Ġcount ies
Ġfrequ ently
Ġ196 9
W hen
Ġm ill
Ġdestroy ed
ĠScot land
Ġprob ably
Ġ #
ap ers
Ġon line
s u
ĠCommun ity
Ġpresent ed
Ġcre w
Ġagre ed
o is
Ġim age
Ġdeb ut
os is
ĠMass achusetts
w an
ig en
Ġ198 1
ĠD ire
l ight
ĠR og
ĠB ig
ort un
ra q
Ġth ink
Ġmov ie
i h
Ġl ove
ĠL ew
ĠCamb ridge
ĠThe atre
Ġconstit ution
Ġport ion
Ġarr ived
Ġas ked
A S
Ġcitiz ens
e ks
w ater
Ġj ob
O S
Ġsex ual
Ġsp ent
ĠYou ng
Ġlead ers
Ġdes pite
in ated
5 6
Ġc orn
Ġto ld
ĠT im
lud ing
ĠSt an
Ġfl ight
m ission
Ġab ility
ĠL ittle
ul ly
en es
ĠB ob
Ġsh are
ĠW ild
ĠBra zil
Ġ197 3
Ġur ban
ĠPl ay
ren ce
Ġv ac
Ġconst ructed
ĠBro ad
Ġ +
Ġmus eum
al a
Ġcontr ast
ip ment
p ress
Ġmy th
ĠH am
if orm
ffic ient
ĠR os
8 9
Ġsim ply
Ġfl ag
Ġl ic
Ġdep art
Ġcell s
Ġde ad
ograph ic
ĠB re
Ġauthor ity
Popul ated
Ġknow ledge
ĠT em
Ġcamp us
Ġhe re
am ber
Ġredu ced
ĠGovern or
Ġ196 7
Ġf iction
Ġs ense
ĠC r
ub e
ĠĠ Ġ
Ġg rew
ĠH u
and a
Ġrul es
Ġdecl ared
ĠC ro
Eng lish
Ġn ob
ĠJew s
ol id
Ġn ort
ĠOff ice
Ġhelp ed
4 3
ul s
Ġacadem ic
ag ing
ĠSoc ial
ĠG ree
ĠH a
ill a
Ġh undred
y t
Ġaccept ed
A C
Ġmod els
g ent
Ġn ine
Ġ197 1
Ġiss ued
Ġra ised
ĠV an
Ġpl at
ĠW ater
Ġs qu
Ġ Î
ĠN ap
Ġmem ory
Ġy et
n ce
ism s
ĠS o
Ġremov ed
E ducation
ĠAn other
Ġre tain
Ġdefe ated
Ġstre ng
ĠAr ts
or ter
se x
mit ted
Ġnot able
Ġserv es
ac ing
Ġ196 4
ĠH ung
iqu es
ĠNew s
Ġrest rict
Ġ ir
Ġsc ene
Ġele ctions
for ce
ie val
l a
ĠE p
Ġpres ence
Ġfig ure
Ġent ered
Ġ197 8
ĠB oth
ĠW ales
ĠColumb ia
Ġoffic ially
Ġfl ow
ist ical
Ġalbum s
ĠB ow
in em
Ġr isk
is her
man n
6 7
Ġoccur red
ĠIsland s
ound s
Ġdec re
Ġch all
ost on
ĠCh arl
ĠPro v
Ġclass ical
A T
Ġsub s
g u
Ġext ra
ris on
Ġhistor ian
Ġsec urity
Ġcont act
Ġanim als
et ball
r ong
Ġcomb ined
p ired
ownt own
velop ment
Ġrail way
Ġm inister
Ġdist ance
Ġwe eks
Ġsc ript
Ġprom inent
Ġmay or
Ġro t
Ġord ered
her lands
Ġtra in
Ġv oice
ir ing
Ġ194 5
Ġd ro
ĠS ub
ĠPri ze
ĠComm ittee
Ġm ess
oc ks
ĠMiss ouri
B S
ut y
Ġappl ied
ĠR el
Ġstart ing
ĠW ay
Ġfinal ly
ĠS ar
Ġresult ed
Ġnewsp aper
ĠO tt
le ction
od ies
Ġh y
Ġin n
Ġd ia
st one
ship s
p ass
ac her
Ġrefer ence
iz es
c ont
ĠF ound
ĠG all
Ġc at
Ġsurround ing
i ot
Ġcolle ct
Ġplay s
ĠF air
ffic ial
w ick
it age
ov ers
ĠEl izabeth
angu age
Ġb ranch
ĠM ot
Ġqu ality
Ġfav or
Ġg raph
Ġgovern or
Ġdou ble
Ġb ass
A F
Ġpl ants
orpor ation
igh ter
ĠAd m
Ġrail road
Ġl abor
Ġadminist ration
ĠS and
Ġcontin ue
Ġle aving
Ġam b
ĠC le
ĠR h
Ġsl ow
ĠL ove
Ġpos itive
Ġch art
ĠL uc
Ġmathem at
Ġident ified
Ġrelig ion
ĠB ank
Ġ197 7
u ate
n el
Ġbel ief
ĠB ab
ect or
ĠN az
ĠM en
Ġhyd ro
il i
Ġcrit ical
Ġv oc
ĠBe ach
Ġt able
ĠPhil ip
m as
Ġcond ition
ĠM os
Ġinflu enced
w orth
ĠL ater
ĠSen ate
Ġte le
J ohn
ĠâĢ ľ
ĠP en
Ġst aff
ĠS ing
est ic
Ġm axim
et y
Ġar rest
Ġcap ac
ĠO k
ĠG ro
ĠO ver
Ġder ived
" ),
Ġp p
Ġthe ore
ĠF ar
5 7
ĠG ar
Ġeffort s
Ã ¸
Ġfe at
Ġrespect ively
S ome
Ġold est
Ġpl ans
Ġco al
ĠM ajor
or a
ĠAl bert
Ġmanag er
Ġc ru
Ġcre ation
Ġad apt
ix ed
Ġs ites
Ġinstr ument
Ġab and
Ġb att
ĠI raq
Ġoffic er
ĠC at
ress ed
Ġsim ple
Ġact ually
Ġ196 5
or ph
ar io
Ġvers ions
Ġchem ical
ĠGeorg ia
b ra
Ġconst ant
Ġe arth
bur gh
Ġst ars
p ret
Ġrepl ace
Ġindepend ence
ph as
ĠB us
Town s
Ġm is
av en
Ġnorm al
Ġmach ine
th ing
Ġb ridge
Ġre ign
as ion
ad el
Ġoffic ers
Ġsymb ol
Ġplann ed
Ġvict ory
ĠCh ampionship
Ġsett led
ĠM ic
B l
in ity
ĠF our
Ġav oid
Ġhistor ic
Ġst ay
Ġatt ra
F L
ĠSwed ish
Ġsubsequ ently
Ġs ister
tt ers
Ġsp irit
Ġequ ipment
Ġequ al
ional ly
ĠL ab
ĠU N
cl us
ĠFred er
ĠT reat
8 4
Ġre ject
ĠAd d
ic ians
Ġimmedi ately
ĠRes earch
ĠFranc isco
Ġcal cul
B A
Ġbl ue
Ġspe ech
inal ly
Ġd im
Ġclaim s
ĠSwed en
tain ment
Ġp al
ĠHol y
ĠH or
Ġpresident ial
Ġ ice
Ġscient ific
ol n
ĠS up
ou red
Ġwork ers
Ġgo ing
ĠW eb
ur ches
ĠV en
ct r
Ġb ord
Ġr ise
te en
ĠH on
Ġval ues
ad ium
ĠJ r
ask a
ĠBo ard
y er
ĠBer lin
ellig ence
ĠE ll
Ġw inter
Ġprom ot
Ġanc est
ĠN ations
Ġl ibrary
er c
ĠComm on
g or
n y
ĠB oston
Ġfl u
Ġle ague
ur rent
G en
ĠBl ue
Ġallow s
w ise
Ġorgan ized
Ġg ender
Ġfollow s
Ġ196 6
Ġsay ing
C on
in ate
Ġhead qu
it able
ĠNet herlands
ĠRad io
Ġequ ival
Ġopp osed
Ġproper ties
Ġv e
oc ated
" ).
re ct
Ġu pper
Ġagre ement
Ġcer em
Ġf ace
ĠA D
erv ative
Ġarg ued
Ġmaterial s
en cies
ĠG ood
Ġas pect
Ġ x
M ar
ĠL y
Ġc art
en ger
Ġex pected
Ġper man
I s
8 1
id ents
ĠH an
Ġmat ter
Un ited
Ġad ult
4 9
ĠS ong
ĠF ederal
ac ent
Ġg un
ĠT w
Ġg iving
ĠAtl antic
Ġrecogn ized
is hes
i ro
ed d
im b
g a
Ġsy nt
ĠCo ast
Ġatt end
pt on
Ġp un
Ġgrow ing
ĠM id
Ġcont ent
Ġnecess ary
ĠB ell
ĠK ansas
ĠC y
Ġeth nic
ipl om
ent y
Ġp owers
Ġar ms
Ġcont ribut
Ġser ious
am in
Ġatt ended
act er
ĠH ot
Ġle tters
he w
Ġwe ight
Ġa im
ĠW ars
ĠRep resent
ĠPol and
ĠRail way
lud ed
Ġac id
Ġexp ansion
ĠD i
ag on
Ġearl iest
ĠR ay
Ġconnect ed
ĠN ob
ĠAl so
al ing
Ġcoll abor
ipp i
Ġwith d
Ġstruct ures
Ġen em
Ã §
Ġchar ge
Ġse ats
Ġobject s
ic ed
Ġgr anted
Ġc am
ĠSec retary
I D
Ġis lands
Ġlab el
Ġcomp ar
ĠI ran
Ġrec over
O ne
Ġbel ong
che ster
Ġm ole
ut her
Ġatt ention
ĠI V
Ī Ĵ
Ġins ide
Ġp ict
Ġ. ..
ĠA wards
or ado
8 2
ĠU p
T rans
od ox
n s
Ġ )
ĠTh ree
ap ed
Ġm ut
Ġsupp l
Ġp ack
Ġmention ed
Ġb urn
Ġco ach
il ly
Ġp ra
inc oln
ĠInd epend
Ġf ast
enn es
% ,
Ġallow ing
Ġst ra
ĠL ine
Ġh arm
ran ce
Ġsy n
ĠT ri
Ġserv ing
Ġp oll
ĠAr thur
aw a
og ue
Ġport ray
Ġg ained
Ġatt acks
Ġref used
ĠIsland er
S C
Ġform al
ĠA venue
W ith
Ġvir t
ic i
Ġim pl
n o
ĠF ield
ĠPro f
ĠE arl
Ġcont emporary
Ġbase ball
Ġs ail
ĠDes pite
Ġf uel
or ing
ĠF e
se y
Ġmon arch
ĠAss embly
Ġmark ed
ĠAnd rew
Ġg reen
Ġded icated
Ġcover ed
ĠF ire
ĠUn ivers
al ign
Ġorgan izations
Ġg ives
Ġcon qu
ĠE lect
l ines
ĠP ope
ed ing
Ġt end
Ġcapt ured
ic ine
Ġf ell
w orks
Ġshow ed
ĠS her
hed ral
L ist
b ro
Ġcom edy
Ġnot es
Ġopp osition
g r
Ġed itor
Ġprov in
Ġcondu cted
ĠMar sh
cl ass
Ġpe ak
Ġeffect ive
ĠMiss iss
C omm
ins on
Ġst op
Ġpolit ics
ĠT od
form ed
Ġfac ilities
Ġacqu ired
ĠF le
Ġrec omm
Ġcompet ition
Ġet c
Ġfeat uring
Ġsl ight
Ġparent s
6 3
w a
Ġf ully
che stra
g al
Ġs ac
Ġ196 3
Ġre ach
ap h
Ġdam age
Ġpurp ose
e v
Ġpr ime
Ġschol ars
Ġrec ently
ĠÂ £
Ġaltern ative
ig ration
as y
Ġexp anded
Ġp aint
Ġle ave
ig er
ĠD ec
ĠGold en
ĠF oot
ĠT ay
ag n
an i
ĠSpr ing
Ġcontain ing
u er
Ġcomplet ely
Ġb rand
ĠCh ief
ĠNor way
Ġf r
Ġsec ret
Ġ3 9
ol t
Ġqu al
Ġspl it
Ġc ry
ĠB ase
ĠA sh
d is
ruct ure
5 2
ĠB ul
ony m
Ġt ree
Ġtra ffic
ĠM att
g g
Ġast ron
w ing
Ġfield s
F rom
ĠStep hen
ild ing
vers e
5 4
Ġsupp ly
Ġref ers
Ġg irl
Ġ196 2
ĠAl f
' ,
ĠE conom
s k
Ġdist ingu
Ġins pired
ad or
ut en
Ã³ n
Ġcondu ct
Ġfig ures
Ġocc urs
op es
l ife
Ġhe at
Ġgl obal
Ġfriend s
Ġem phas
Ġg ain
Ġcom es
Ġadv ant
Ġbas ic
6 8
6 1
ĠRail road
Ġj oint
ĠCh ap
Ġrank ed
ant ry
Ġill ust
ir al
ĠWil son
ĠAr m
Ġcomp osition
5 1
Ġide as
Ġf elt
ĠSp ace
Ġpre p
Ġfe el
z er
Ġsh oot
Ġact ors
Ġun ique
if ically
l av
ĠSh ow
th rop
C ol
ict ional
Ġmov ing
Ġpower ful
7 2
hes is
Ġin ternal
5 3
ĠCl ark
ĠCon stitution
6 2
ect s
om ers
Ġprote ction
Ġ iron
Ġsuff ered
ĠA ge
alle l
ĠM ah
ag er
Ġa x
Ġexam ples
ĠFore st
ĠT our
enn is
Ġth ings
Ġres ources
ĠSe ver
Ġweap ons
r m
7 1
b ell
g rad
ĠMount ain
Ġp aid
ĠN ight
a is
Ġd ra
ĠU l
ĠB oy
k es
th odox
ic ks
Ġun known
Ġb al
Ġm om
Ġw ear
Ġmin utes
Ġdec ades
Ġmot or
Ġaccom pan
u nder
Ġset s
ĠSup reme
ĠPhil ipp
Ġattempt ed
A R
Ġr ang
itz er
Ġ194 4
ĠCast le
d own
ĠSt ation
a ver
5 8
Ġphilos ophy
Ġp le
ĠM ain
ic it
umn i
Ġpart n
Ġexper im
m m
Ġv an
id ge
om ic
Ġele v
Ġ4 2
Ġw ild
Ġgo al
G erman
ul pt
ĠF ree
Ġover all
ĠHol ly
Ġneg ot
7 3
Ġren amed
Ġmount ain
amil y
Ġw inning
% .
Ġro om
Ġsubsequ ent
Ġneg ative
k in
th let
arri er
A ll
Ġke pt
1 00
Ġregard ed
s en
Ġoccup ied
Ġb illion
Ġtri ed
Ġs ales
ri x
ĠM ov
ĠMississ ippi
Ġbas k
Ġp et
Ġcar bon
Ġland s
Ġse em
Ġm icro
Ġvol ume
7 4
Ġarchitect ure
ĠSer ies
en ing
E C
Ġmet ropolitan
ow a
Ġinhab it
Ġan g
ĠO cean
ĠL incoln
Ġopp ortun
he im
uck y
ound ed
ĠAb b
ĠLew is
Ġse arch
Ġf ish
Ġass ist
ag an
Ġme ant
Ġdep artment
Ġ196 1
Ġra in
Ġext ensive
end ar
g ers
Ġsc ale
Ġwe alth
ĠP oint
Ġm ind
Ġbehav ior
at i
h aps
B M
Ġd ark
Ġdistrict s
7 9
a wn
Ġexist ence
Ġobserv ed
Ġair port
em eter
os en
Ġf er
Ġp urs
ell er
ĠO f
Ġdyn asty
Ġfin ished
Ġgreat est
al so
ĠP ubl
Ġdefe at
P r
Ġoper ates
Ġcapac ity
Ġcor por
ĠC oll
un ting
Ġsp ring
ers e
Ġw alk
ol is
B e
c a
Ġw ays
Ġmix ed
it led
erv ed
Ġschol ar
Ġform ation
Ġproject s
L e
ĠIn ternet
ist ry
Ġw ave
T e
Ġj ur
pl ace
Ġexecut ive
Ġofficial s
or g
Ġsitu ation
os ite
if ying
Ġun c
Ġapp arent
Ġmusic ian
5 9
ĠCh ild
Ġm aster
Ġv ary
Ġrev olution
Ġinter pret
Ġprov iding
Ġs ays
Ġlim it
Ġst reet
Ġar ts
r ations
im a
Ġwrit e
Ġex change
Ġdig ital
Ġmur der
ĠBudd h
Ġd iplom
ut s
ris is
it ness
for mer
Ġf ounder
Ġp hen
Ġnov els
ĠJ ournal
oc key
ĠC orporation
Ġ194 8
we gian
Ġst ore
ĠO pen
inc orporated
ith m
Ġappl ications
b u
Ġepis odes
6 9
h i
ag ement
Ġinstit utions
ĠE le
Al though
Ġbe y
Ġne ut
Ġse g
Ġpr ice
Ġmusic ians
Ġ194 1
Ġp an
a ctions
Ġexpress ed
ĠC ub
ĠN ic
Ġreg ul
Ġdefin ition
ĠS anta
ĠP ier
ĠS us
ok en
i ate
ĠT op
A m
ĠK en
ent ially
Ġv en
ĠCent re
in du
are t
ĠB ecause
Ġr ough
r ates
inal s
Ġprogram ming
Ġbey ond
o es
n es
Ġse lected
Ġfootball er
C an
ke e
ĠReg ister
ĠL es
D es
Ġr oll
I C
Ġ4 1
d a
Ġ194 2
ĠGu ard
ĠCom p
I S
Ġtechn iques
ĠTh us
port ation
Ġal t
Ġcreat ing
Ġking dom
Ġhand s
Ġp arliament
Ġcaus es
ĠMex ican
um s
Ġres ident
Ġf olk
in us
Ġpol y
ĠOlymp ic
ĠViet nam
Ġf air
Ġfl ood
r ons
i i
Ġc ab
Ġexist ing
Ġsign al
Ġmot ion
ĠEn ter
Ġex act
Ġbeg ins
Ġhe ro
Ġlead ership
Ġres istance
ĠJ on
Ġdep end
ĠOr gan
Ġl ies
Ġ9 8
ĠMod ern
che n
Ġref lect
p ed
Ġfact ors
ĠTreat y
ian g
Ġliter ary
ic on
Ġse ek
ĠH ome
ĠCon stant
Ġsequ ence
Ġbelie ve
gl as
ograp her
Ġhum ans
ĠIndian a
ĠMem orial
ĠD ie
Ġfail ure
Ġ193 9
Ġconcer t
Ġs ought
ipp ed
B rit
Ġrece ive
av a
ĠU r
c ient
Ġresp ond
Ġdes cent
Ġident ity
p resent
w estern
Ġ195 6
Ġredu ce
v est
Ġappl ication
y an
Ġinv asion
Ġext rem
ĠB on
ĠHe alth
Ġag es
Ġ195 8
ot ic
ues e
p oint
re c
ĠG ame
Ġd owntown
Ġh ab
ur ation
Ġtit led
ir med
Ġt im
Ġvis ited
Ġsomet hing
ĠL ar
ĠCor ps
Ġ4 8
Ġcrit ics
e qu
os a
ĠB ir
adel ph
i at
Ġinst ance
ĠU s
Ġa ctions
Film s
Ġ195 9
Ġl ives
ĠBar b
Ġjournal ist
ĠH uman
r ast
ĠW el
ol y
ri z
Ġ5 00
ĠG ames
Ġph ase
Ġoff ers
ĠPr inc
ant ine
Ġfle et
ĠE nd
ĠTay lor
Ġs ides
int on
Ġad ap
m iss
ĠD un
al i
Ġdesc ript
Ġlaun ch
Ġd og
re es
Ġun ion
Ġprov ed
ĠS pecial
ĠKore a
Ġto ward
ra cy
ĠH ay
Ġb ul
rodu ction
ĠC a
Ġposition s
ĠE ducation
Ġnew ly
ĠVill age
Ġel se
Ġc old
rel ated
Ġdeterm ined
ed eration
ĠMar g
am ing
ĠIn st
Ġengine ering
ĠD et
Ġsus p
Ġmin im
Ġcon sequ
Ġattempt s
ĠFreder ick
Ġen j
Ġsc ulpt
ĠFranc is
Ġdesign ated
Ġworld wide
is f
t ical
Ġcol umn
air man
ĠJes us
s ong
am ples
ak istan
ĠG reg
Ġpurch ased
R A
ĠEng ine
Ġsett lers
Ġfor ward
ĠW in
l ah
ĠM ir
ĠF ollowing
Ġst one
Ġanim al
S p
ĠL ady
ad ed
ĠF ox
ĠD am
f in
Ġtransl ation
Ġs port
rop ri
ad ing
ens ions
Ġal le
ud get
in ian
Ġcy cle
ĠD ar
ĠD ig
um es
ĠAnt on
ĠS und
ĠF ame
199 0
ĠR od
Ġc e
ĠPro ject
Ġch o
Ġact s
ĠAr k
O r
om ew
m outh
Ġag ed
Ġequival ent
m osp
Ġaud ience
ĠJ oh
og en
Ġr ural
amb ig
z y
Ġstand ards
ĠC D
re te
Ġimport ance
Ġmanag ed
Å Ĥ
Ġinhabit ants
ĠDe v
Ġr ing
G overn
Ġopp osite
Ġ194 7
ĠH y
Ġperforman ces
ze ch
ĠCol orado
Ġch ap
Ġst rug
Ġd aily
ĠJ oe
Ġsecond ary
II I
Ġbask etball
il ing
Ġh ospital
Ġre action
ic y
Ġr oles
Ġcont ained
adelph ia
Ġe c
Ġachie ved
st anding
Ġstud ied
ar ia
Ġenc oura
Ġ4 9
inc luding
I A
ĠB rad
Ġch urches
Ġplat form
Ġ195 7
Ġheadqu arters
er ies
ar p
Ġst ock
Ġsc ore
Ġh ap
st ream
ĠR am
Ġregist ered
ru it
S ince
orn ing
r at
ĠPl aces
Ġpar allel
com m
ĠBo oks
Ġs n
U S
Ġst ream
Ġclass es
ĠHar ry
Ġnort heast
iet ies
Ġform at
ĠSt one
Ġtri al
Ġentire ly
Ġpr on
Ġmaintain ed
Ġalong side
y es
Ġv ess
or gan
Ã ±
Ġdev ice
ĠC E
Ġfrequ ency
ĠG re
enn a
ĠU t
ĠR oll
d ied
igr ants
ĠSt and
Ġcontin ues
Ġd ance
rom e
ĠLe on
Ġsh ared
Ġpre fer
ak a
Ġdom estic
ĠC ard
Ġmed ieval
Ġ194 6
Ġvis it
b ook
ĠM ax
ĠJust ice
Ġheav ily
Ġprincip al
Ġveh icles
Ġown er
on ald
C C
ad er
Ġdou b
Ġc ore
Ġreve aled
ĠE st
Wh ile
Ġdescrib es
ash ion
s uch
i ar
Ġset ting
Ġnorth west
Ġr ates
Ġr h
ct ors
Ġpublic ation
p at
Ġfight ing
u ing
Ġcon vers
Ġtre es
ĠFound ation
Ġrel ative
Ã¡ n
ĠP ict
ennes see
ch ar
ĠAust ria
Ġc ool
Ġmanufact ur
Ġoper a
cript ion
k er
P olit
ĠB ru
ĠGree ce
Ġact ual
b ec
res h
ĠNor wegian
Ġsub stant
ĠK ong
Ġ9 7
Ġcr ime
Ġpie ce
N e
Ġg ot
emeter y
ie uten
| |
Ġdiffer ence
ĠM P
Ġch osen
ov en
ĠF ord
em an
Ġmaxim um
ĠE arly
Ġtra cks
Ġm el
Ġm ap
C ensus
Ġcan cer
ĠIm perial
Ġp ick
ĠM oon
Ġback ground
Ġcolon ial
ĠC op
ibl iography
Ġacc ur
b a
Ġb it
R ec
Ġbur ied
Ġclos ely
ĠTer rit
ro g
Ġfact or
ĠO ak
Ġqu arter
Ġsh ape
un a
ĠDe velopment
Ġpain ter
c ious
ĠDou glas
Ġband s
Ġh am
Ġsucceed ed
Ġb ad
Ġposs ibly
lah oma
Ġintrodu ction
it ting
l ig
ĠW alk
ut ed
Ġop in
Ġn or
De ath
Ġcomb at
Ġview s
ĠMar c
f all
Ġauthor ities
l aw
Ġ194 9
Ġcandid ate
iss ance
Ġb ra
W e
Ġfif th
Ġ194 3
igen ous
Ġcr im
Ġsouth west
ĠOr ig
ĠP ower
Ġ195 5
ĠO b
ĠHolly wood
Ġch annel
Ġre asons
ĠE ach
Ġout put
ang er
Ġem peror
ĠChrist mas
Ġtransl ated
ĠAt t
Ġhor se
0 1
ĠH ard
ĠT ai
ĠTur k
ad s
Ġjo in
Ġs le
Ġb ond
M an
ĠPortug uese
ill ing
Ġeng ines
od ern
Ġloc ations
ou ch
Ġun iform
in y
ĠA st
ce ived
N ational
ib b
cy cl
Ġslight ly
I P
il a
Ġcont ext
ĠDav is
Ġf estival
ĠSt ra
ĠW omen
ĠDan iel
al o
ut ation
Ġformer ly
ob e
h ire
ann a
ĠD er
row s
Ġ195 2
Ġcal endar
Ġc ars
Ġdev ices
am ic
Ġcar ry
ar ks
Ġreport s
Ġcomb ination
ĠL o
Ġterrit ories
Ġneighbor hood
i able
ĠInd ust
ĠVictor ia
ĠIslam ic
Ġdif ferences
Ġexper ien
ĠPhil adelphia
Ġs we
us al
ind er
h an
Ġvot ed
T A
Ġcontroll ed
s et
Ġf irm
ĠBy z
ambig uation
Ġ9 5
Ġord ers
our ce
ĠOr thodox
Ġa id
Ġev olution
ĠFoot ball
Ġsc hem
Ġsol id
Ġcon vent
Ġal gor
Ġ19 00
f ort
Ġw all
Ġincreasing ly
ĠT est
Ġro b
Ġconne ction
i ac
Ġp air
qu es
Ġte x
ins ula
Ġn one
Ġrul ed
V D
Ġp ione
Ġemploy ed
Gen eral
ĠT urn
Ġfac ility
Ġpie ces
Ġact ing
ĠH ills
act ive
Ġposs ess
ĠHistor ical
ĠProt est
ĠMet ropolitan
Ġroad s
Ġdevelop ing
c oh
Ġh op
h at
Ġ ;
Ġp op
ĠT ennessee
Ġeas ily
ĠB and
Ġpre m
Ġco ord
ĠS av
ĠIn f
Ġlead s
M S
ĠPl an
ĠK ir
ĠT al
ath an
ĠCount ry
ab b
k o
Ġtit les
Ġobtain ed
Ġs now
Ġfa ith
Ġult imately
ter m
Ġcom ing
Ġappro ved
Ġt al
Ġexp ed
ĠI d
inist ry
Ġdram a
Ġadvant age
ĠO t
ĠS ummer
re al
Ġadv anced
het ic
d s
ivers ary
Ġ195 4
z o
Ġnar row
oc ol
Ġel im
Ġhold s
Ġaband oned
ĠPol it
Ġb odies
Ġtyp ical
Ġ195 3
Ġ4 3
ĠPal est
Ġsignificant ly
Ġsol o
Brit ish
Ġpopular ity
im s
Ġf ixed
ĠB al
v ard
Ġenj oy
ĠP akistan
Ġaut h
T o
Ġreject ed
Ġcaus ing
Ġs olution
Ġprop os
Ġvoc als
e ed
Ġvot ers
Ġ eld
ĠP ass
Ġspec ifically
I f
ĠOk lahoma
Ġl ake
ro om
ĠS qu
ĠCon ference
Ġpolic ies
ĠS um
Ġs outheast
Ġdec line
Ġb irds
ĠAm ong
ĠWal ter
Ġperman ent
Ġed ge
Ġsub st
Ġcom ic
pr ise
Ġmom ent
av ig
' .
Ġat mosp
Ġtemper atures
ĠB a
Ġre in
ĠLouis iana
ĠCol on
Ġh omes
os m
ieuten ant
Ġm ic
Ġnot ably
Ġj azz
au g
ial s
rag on
Ġadap ted
Ġch oice
Ġrepe ated
c ar
Ġtransfer red
ann ing
olog ists
Ã© e
m ers
ĠMar ia
Ġgl ass
Ġsaf ety
Ġinstr uments
Ġun able
Ġdr ive
gh an
ot o
Ġagric ultural
Ġsil ver
ĠKore an
ĠO nt
Ġthem e
ition ally
olog ies
Ġw a
Ġon es
ul ate
Ġrout es
M ay
ĠH art
Ġthous ands
oc racy
p son
ĠI S
ĠAn ne
200 5
ĠD ak
ro ph
Ġgen eration
ĠAr gent
ĠI owa
Ġdel iver
m at
t own
Ġperson nel
Ġgood s
Ġpro s
ĠH ug
Ġthr one
ph one
Ġkill ing
Ġpro ceed
amil ton
ĠBro ok
Ġcompon ents
Ġsy nd
Ġpro ced
Ġl oad
Ġtw ice
igh th
Ġw ant
us es
ĠC zech
ĠC O
Ġl iqu
i y
ĠL ind
ĠD or
ition al
Ġprofess or
ĠB all
ĠF inn
and om
F A
le ts
Ġ rom
Ġ5 1
Ġmer ch
Ġd ates
Ġcomm ander
Ġyoung er
en h
ĠH al
el ve
ĠCap tain
he astern
Ġb ill
Ġveh icle
Ġaff ected
et ime
Ġfl at
Ġd raft
u ated
Ġim ages
198 0
el ine
Ġsuggest s
f rom
Ġ9 6
Ġf ought
Ġbro ke
Ġ4 7
Ġfe et
ir a
0 3
Ġbeg in
Ġc rown
Ġ195 1
Ġlearn ing
o en
Ġhost ed
Ġrequ ires
Ġ193 6
Ġal umni
ĠPol ice
ĠL ight
Ġph r
s es
Ġest ate
Ġenvironment al
ific ations
ĠDis ney
ĠFrank lin
dis ambiguation
ear s
200 1
Ġcor rect
Ġadminist rative
ĠF urther
Ġcirc um
Ġconver ted
ĠAn th
ĠSam uel
Ġb ott
ĠC irc
Ġend ing
Ġw arm
Ġstreng th
ĠW ork
ĠG ram
Ġregard ing
Ġprocess es
0 5
Ġd iam
Ġimpro ved
opp ing
Ġd ry
Ġass igned
Ġhyp ot
Ġ5 2
ĠDen mark
il arly
Ġcont ributed
Ġdocument ary
N ov
Ġcop ies
Ġviol ence
ĠJac ob
200 3
ĠH ospital
ĠC as
iv als
Ġstr ateg
Ġpass es
Ġhap pen
g on
Ġar med
ĠSever al
el a
ĠProf ess
c ers
Ġcorn er
ĠHow ard
Ġdec ade
Ġs un
200 7
ĠR et
un te
Ġdem and
Ġprodu cing
Ġengine er
ĠR oss
H is
ĠA k
Ġhe ight
Ġphen omen
m es
te xt
Ġpurp oses
it o
Ġconf irmed
Ġpil ot
ograph ical
Ġdescrib e
Ġrest aur
ĠO d
Ġ3 00
ĠG il
F rench
Ġh all
ful ly
Ġl aid
Ġtw enty
op les
200 6
0 4
ell o
u j
Ġfre edom
re ation
0 6
P A
ĠU k
Ġelect ron
Ġ ign
Ġstat ement
Ġpro port
Ġprincip le
ĠE ven
r Ã©
Ġex erc
Ġp age
Ġt alk
Ġn ations
Ġthe atre
Ġspe ct
Ġmanufact uring
ĠB ad
Ġr ival
Ġqu ite
eth od
ak h
ĠB or
Ġ193 8
Ġatt ract
Ġad vert
Ġd ivers
ĠBro ther
Ġwinn ers
ĠC ab
os ure
ĠB ush
ĠD NA
ĠPro du
z en
ĠMed al
ĠH o
ĠNob el
ĠSy m
Ġab ol
and y
Ġother wise
ic ate
v ant
ĠG h
ĠA ff
vent h
ain ts
Ġexper iment
p et
ĠPro gram
Ġt ourn
Ġc as
um in
200 2
rast ructure
Ġdef ense
Ġrec ip
Ġso le
Ġste el
ĠLaw rence
c ome
Ġpo em
Ġret ired
un c
Ġconsist ing
in ction
ĠN ich
Ġex clus
Ġend s
pr int
Ġ4 6
ay a
Ġbusiness es
Ġper haps
Ġcall s
0 2
Ġrat io
ĠAut hor
Ġ19 18
Ġattack ed
ĠO p
rop ical
ĠF amily
M any
ult y
ĠOnt ario
Ġb udget
or age
ĠV i
Ġneed s
ust er
r ator
0 8
f e
ĠCon nect
Ġadj acent
Ġch ain
0 7
200 8
Ġus er
ĠSec urity
u ous
Ġy our
ĠKent ucky
Ġv s
ĠMil itary
Ġsat ell
Ġs ons
ĠAll en
Ġb oy
Ġwe ather
d ale
m ont
Ġv ocal
le ft
Ġpoet ry
0 9
Ġdeg rees
a fter
ĠConf eder
Ġn aval
ter ed
Ġtechn ique
Ġsen ior
Ġexpress ion
ĠF orm
Ġ193 7
ĠW olf
Ġpl ot
ĠL im
ĠL ow
ec ution
Ġmunicipal ities
ĠP ot
ĠP C
ĠTod ay
Ġch ampionship
Ġ( ),
Ġ9 9
Ġf ellow
ĠB alt
ĠH it
Ġw ides
Ġn ick
ur d
ann ed
199 9
el lect
ct s
Ġint ers
Ġmult i
ĠP it
mer ce
Ġbound ary
Ġl at
ĠL uther
ĠInter state
Ġunivers ities
ĠT ar
ĠS quare
hed ul
Ġdep ict
in th
Ġcandid ates
ĠG irl
Ġjur is
Ġinflu ential
Ġcost s
Ġp iano
c op
Ġadv ance
us cript
ol as
Ġb an
Ġsem i
ĠOlymp ics
ĠTem ple
Ġsur vey
Ġsupport ing
Ġse ctor
Ar t
Ġent itled
Ġb rain
ĠStud ies
A ust
ĠM icro
Ġdro pped
Ġle aves
ĠL abor
Ġguitar ist
Ġs omew
M A
Ġinstit ution
p read
Ġalle ged
ĠS em
c les
200 4
el le
cycl op
ĠMary land
Ġtechn ical
Ġwe ak
Ġsp oken
ĠD omin
ic ut
ĠB at
ĠAust rian
in er
Ġm ist
ĠSc iences
ĠE th
Ġrough ly
ĠS ant
ord an
Ġinvol ving
Ġextrem ely
W est
Ġcour ts
Ġdecl ined
Ġassoci ation
ĠH amilton
Ġabs or
Ġcou ple
Ġpre par
Ġlaw yer
e z
Ġre act
Ġf ram
Ġon to
ĠD ick
Ġl yr
og y
it an
ĠS ix
Ġy outh
ost er
ian ts
Ġf ranch
Ġthe rm
Ġn om
ĠCh ris
ĠD isc
g ium
ad ron
Ġenem y
ĠSim on
Ġopp on
m ad
Ġsu p
Ġoper ate
Ġconc luded
I V
Ġart icles
ac he
over e
Ġw ing
Ġ7 5
Ġv ent
ens es
reg on
ab ama
Ġint elligence
Ġimpro ve
ĠTechn ology
Ġis ol
y les
ĠMay or
Ġrecogn ition
Ġcom ed
ĠWh it
Ġro w
el and
Ġc risis
Ġtrib es
ĠAl b
Ġelect ronic
Ġpract ices
Ġestablish ment
Ġdesign s
ĠMount ains
Ġt ur
Ġpl ane
ĠR ose
Ġsim pl
ak s
el ly
Ġcommun ication
W ill
E l
Ġr ivers
ĠC rown
Ġshort ly
Ġsh all
Ġauth ors
Ġb ought
Ġtex ts
ĠDan ish
Ġsu fficient
Ġse asons
ĠV ar
ĠPr uss
ĠNap ole
Ġvis ual
ĠC ape
oth ing
ĠB ible
ir ty
Ġf ashion
Ġpre ced
ĠM ike
Ġf ans
Ġp ul
ĠB ishop
Ġsever e
c alled
ag a
ĠS on
Ġch ampion
ĠD ur
ĠOtt oman
ont o
ĠH amp
ac c
Ġcoast al
l oad
ant on
ĠL ive
Ġlim its
ĠL i
ĠStat istical
Ġbrother s
ĠSt ock
Ch ar
ĠBr ig
Ġdoc uments
ĠF alls
Ġearn ed
Ġ19 14
w ich
ĠNaz i
Ġchall en
Ġg uns
Ġtransport ation
Ġdef end
Ġperform ing
Ġoffic es
R el
Ġsuccessful ly
ĠW at
rap y
ĠH ong
Ġwides pread
Ġnomin ated
Ġal coh
ang el
Ġtreat y
Ġarch ae
ie ge
Ġplan et
Ġ Å
eng ers
Ġunderst anding
E d
pect ive
ap pe
ĠFore ign
ant asy
ĠCh amber
ill ery
200 9
Ġf ile
ĠHe b
ĠDak ota
ĠH ans
Ġprot ected
or i
P S
Ch rist
Ġs ort
h ard
Ġaspect s
Ġuse ful
ĠMill er
eral d
Ġc ert
Ġgreat ly
ag en
ĠG ord
i pe
ĠRepresent atives
Ġexperien ced
ĠPal ace
es h
Ġmov ements
ĠFor ces
Ġf ra
Ġg ar
Ġwhere as
Ġacc ident
ĠAf ghan
ink ing
put er
Ġleg end
Ġdep ending
Ġlin k
at ically
et her
el er
am ental
Ġsp ons
Ġprom oted
Ġ192 9
Ġ193 3
Ġsc hedul
ĠT ony
ĠAd ams
ut ies
Ġus ers
est ab
Ġrequ est
Ġfl oor
20 20
ĠG ulf
ĠSte ve
song writer
Ġex ists
Ġsepar ated
ĠW y
ĠV is
ond er
we alth
Ġfoc used
Ġve get
Ġhe ard
Ġplann ing
Ġsc enes
as ure
Ġsu st
Ġb ishop
H istor
Ġd oll
Ġcateg ory
ph ony
idd en
199 8
Ġrapid ly
t hen
Ġ193 5
197 0
Ġstra ight
aw are
ĠIsrael i
ĠRog er
Ġwe b
itzer land
Ġex ternal
Ġem ot
Ġ ille
ĠZ h
Ġz one
un ior
199 7
in ations
il ation
Ġde ploy
c rib
ran e
aim ed
an cing
Ġw alls
Ġse ems
ĠSt ory
Ġb ow
ĠAl abama
ĠHe ad
sc ape
ĠEr n
id i
ow ered
Ġst ring
Ġv o
ĠO regon
ĠBe at
Ġpain ting
ĠComm and
tra ck
Ġre ality
sec ut
Ġdeterm ine
ro t
ĠM aster
Ġres emb
ic ide
Ġnot hing
ĠEgypt ian
ip h
Ġad vent
Ġbe aut
ĠSu pp
ĠWind ows
Ġmeas ures
ic ial
ĠD own
Ġass ass
Ġpass enger
Ġz ero
ĠNor man
Ġent ry
Ġmed ium
Ġpro hib
Ġconsist ed
ĠF ront
W orld
Ġform ally
Ġw aters
Ġpopul ations
av ed
Ġal ph
ly n
ĠD yn
20 11
le vel
id ers
Ġstrong ly
v ious
se ud
Ġinc ident
ĠF arm
ĠR en
P ublic
Ġ19 19
ĠMo ore
c ular
b ar
ĠM ach
ĠChristian ity
Ġ19 10
Ġ5 5
Ġin form
Ġdeb ate
Ġ19 17
Ġw arn
Ġsk in
ĠDon ald
em ic
Ġpers ons
Ġso il
V ill
Ġconsider able
Ġs an
Ġre nt
ĠG ard
Ġres erv
Ġl ingu
Ġcritic ism
Ġjuris d
y gen
ĠAlf red
Ġapp ropri
ĠI l
M ost
Ġr ich
Ġlin ear
Ġhold ing
Ġt rou
oy d
ĠBus iness
ne x
ĠB ol
u z
Ġdo ing
Ġnuc le
so ft
Ġt or
ĠM un
199 5
ĠS ax
ĠJeff erson
ĠF ried
uer to
Ġdist ributed
u pp
ĠCh annel
ĠCon vention
Ġin put
ĠN A
ee k
Ġt aught
Ġcomm ittee
ĠConnect icut
G B
Ġc od
ĠDe ath
ust ed
Ġp ure
a ft
ĠAlex and
Ġ193 4
ĠLab our
A nd
Ġe gg
ĠH ell
is p
on ian
ĠO fficial
ĠPers ian
Ġaccount s
Ġvill ages
usal em
ĠAdm inist
Ġclub s
Å ¡
Ġor bit
Ġdesc end
Ġpe oples
ĠGr ant
ĠByz antine
ĠInd ones
ro x
ĠK ar
ĠL ike
rid ges
unicip al
j a
our ney
ĠDig ital
an es
Ġfav our
ab et
y st
Ġp it
Ġsuccess or
r un
Ġa er
Ġfe ed
ocr atic
Ġadapt ation
ak i
Ġrec on
Ġcon ference
ol ph
Ġpre mi
F ran
ĠR em
Ġrep utation
rib ute
Ġwinn er
Ġinterest s
ĠArk ansas
j o
Ġcapt ure
Ġm outh
ap es
ĠKenn edy
Ġo vers
Ġhistor ians
Ġfound ing
ĠC ur
Ġun incorporated
199 6
Ġphilos opher
a un
ug by
Ġaff ect
Ġthe ories
ĠSund ay
ant ly
ĊĊ ĠĊ
ov a
Ġim perial
Ġl ot
Ġd rop
ĠBroad way
g reg
id ae
Ġy ield
itar ian
ĠSchool s
2 50
ĠW ell
ĠK arl
res ents
Ġge omet
ĠRe view
ĠL t
i ations
ĠA ud
ĠUS A
Ġequ ation
ĠK l
Ġap art
Ġsym pt
Ġmagn etic
Ġit ems
" ;
Ġc rop
go ing
ĠG ene
Ġexpl os
Ġt ask
Ġrepresent ation
ĠPe ace
ĠTerrit ory
ail ed
B ibliography
is er
ru ck
Ġgu ard
Ġtra ins
ĠI BM
Ġin her
ĠYear s
c ell
ge bra
Ġse lect
ĠHar vard
d ess
Ġcap able
Ġagric ulture
ra v
ĠFin land
ag le
Ġann oun
ĠReg ional
ad ian
Ġcol ony
Ġtradition s
ĠOn ly
Ġhab it
or ge
ĠHer itage
Ġse ctions
T S
Ġ192 8
Ġg all
Ġassum ed
Ġstre ets
Ġmyth ology
ĠB rand
g ement
Ġan s
ĠM ethod
ĠSh ort
e enth
Ġman ner
ctor al
Ġliber al
Ġf ictional
Ġcy cl
Ġstri ke
ĠSpr ings
Ġgovern ments
Ġcerem ony
Ġst ores
ĠN FL
Ġcrim inal
ĠG er
ĠD C
Å «
ĠT ok
Ġeffect ively
j e
Ġlin ked
Ġmer ged
ĠTh ough
Ġshe ll
f are
Ġag ent
20 12
ron ze
Ġm ort
Ġte aching
Ġ193 2
Ġs and
L A
Ã º
Ġv ice
Ġacc used
ĠNet work
ĠHaw ai
Ġspirit ual
ok ing
Ġtra v
anc ell
Town ships
Ġincre ases
J an
em or
S outh
erson al
Ġdr iver
ĠWel sh
N orth
Ġjud ge
us hed
ĠJoh ann
Ġ189 0
Ġext ent
E S
Ġide al
d in
ĠAl an
ĠL in
ot ton
ul es
it i
Ġrep resents
ĠS a
ent ed
Ġval ley
s quare
Ġcharacter ized
we ight
ast ers
Ġf rag
ĠU pper
Ġemploy ees
ĠH ur
Ġnot e
ĠTra il
Ġim ag
ĠTai wan
ĠM ong
ĠB ang
Ġann iversary
E conom
inist ers
ĠW rit
ur ance
Ġd ie
Ġgo es
ol ar
Ġprocess ing
en z
Ġc atal
ain ing
Ġtheore m
Ġrad iation
E urope
ellect ual
ĠCan al
v ens
Ġc overs
au x
ĠS uch
im ens
Ġtest ing
Ġf resh
Ġm ent
Ġv ow
od ge
ĠApp le
Ġesc ape
ĠG arden
ĠProv ince
Ġcontinu ous
Ġmin ing
n ight
c ow
E R
Ġg ram
op l
T reat
ĠAp oll
Ġrest ored
Ġ192 2
Ġdel ay
199 4
unic ations
v ements
Ġh air
Ġag o
Ġconcern s
Ġnob le
ĠI ron
Ġarrest ed
Ġopin ion
Ġexped ition
F ollowing
ĠB urn
wh ile
ĠJer usalem
ĠMarg aret
Ġs ell
Ġbord ers
Ġpar ish
cul es
ĠCon st
Ġadv oc
k h
Ġhum id
Ġceleb rated
ch ang
Ġp ages
ĠV I
ĠAng lo
ĠSw iss
Ġc ards
ĠJ os
Ã¼ r
wh o
t ure
or us
Ġext ension
Ġdiscover y
Ġindic ate
Ġpass ing
y o
Ġpar ks
Ġlyr ics
E n
Ġbrief ly
et on
Ġext reme
Ġgen re
apt ist
ĠB os
Ġhost s
ok ed
es c
ĠM it
iv ered
Ġtrans ition
ĠAnd erson
Cl imate
E v
Ġdetail s
ch o
ĠBe fore
Ġh app
ol ly
le m
ĠProtest ant
Ġre ferences
ran ean
u is
Ġex pect
Ġportray ed
r ant
Ġatt ributed
Ġground s
out s
Ġcred ited
Ġmin eral
Ġaud io
Ġnorm ally
Ġdia gn
L eg
el son
r us
ĠH un
Govern ment
at ab
Ġst orm
Ġv ector
ĠD VD
ĠF a
oc c
Ġc row
ĠTh ird
Ġdo ctr
Ġsp ot
ĠJan e
u v
e f
re ll
Ġus age
Ġth ick
re nder
Ġc ited
Ġeff ic
Ġprom ote
Ġ4 00
Ġrece iving
Ġstar red
az a
er g
Ġstr ate
ĠTh rough
Ġ188 0
Ġman uscript
opp ed
ĠHe art
ĠA cc
ĠS ound
Ġfund s
ĠT y
ĠB i
Ġprovin ces
Ġstrate gy
Ġ19 12
Ġscient ists
Ġv ast
ĠH ou
Ġst ress
ĠThe od
Ġre ar
ĠAnth ony
or ney
ĠJ ordan
ĠB att
Ġmess age
Ph il
ĠL yn
ind ing
ĠCl inton
Ġreview s
Ġch ose
Ġ19 21
ĠLa ure
Ġmod ified
ĠP ur
Ġwh y
ĠCommon wealth
ĠR oc
199 3
Ġprincip les
S R
ĠN eb
Ġsat isf
ĠSw itzerland
Ġ192 7
Ġan nex
Ġachie ve
ĠH indu
Ġexecut ed
ĠM aur
Ġdis put
Ġunivers e
Ġperiod s
Ġmass ive
vel t
Ġpl ate
ĠMan chester
ĠD al
Ġdet ect
ĠTor onto
ĠP ap
Ġbe at
Ġclass ified
m ith
Ġnick n
ĠDire ctor
inn er
Ġst ret
Ġnet works
Ġgra v
H z
Ġgen etic
ĠH op
Ġcompon ent
ĠGerman s
ĠTe levision
ĠPh ys
ĠPhilipp ines
Ġt ail
Ġmed icine
Ġland ing
ot te
or row
Ġ193 1
Ġinn ov
if ul
Ġcritic ized
Ġsomew hat
iv ation
Ġ192 4
Ġexist ed
Ġm orning
Ġreb u
Ġto m
f ather
ĠJu an
Ġsing les
ĠRep ort
Ġf ishing
Ġdiv isions
ĠA h
Ġcall ing
Ġb atter
d am
Ġvis ible
ĠBel gium
Ġmathemat ics
Ġsitu ated
Ġste am
Ġgo als
ĠÃ ī
A M
Ġfact ory
Ġa wards
Ġst ating
ig ious
Ġres c
Ġview ed
Ġemer ged
riz ona
ĠT en
Ġcontrovers y
Ġdomin ant
Ġh ockey
Ġbatt les
Ġdra wn
Ġpartn ership
Ġ5 3
Ġinst alled
ĠBr ian
ĠBern ard
ĠD ark
199 2
Ġun us
ĠN aval
bor ough
Ġle ct
ick et
Ġcomp ris
Ġshow ing
p rodu
b ishop
Ġarr ival
ĠBase ball
ĠL anc
ubl in
ag u
Ġtrad ing
Ġdel ivered
C O
Ġmark ets
Ġst orage
ĠP uerto
pro f
st yle
Ġatt ached
b urn
Ġexcept ion
ĠAd vent
Ġliqu id
ĠW orks
199 1
ĠR ena
S P
ĠS el
the less
Ġter ror
Ġadop t
Ġd ating
ĠN on
Ġsurv ived
ĠBu ilding
s outh
ici ency
ĠRuss ell
20 13
Ġinst all
Ġro ot
ĠR oy
ĠSer b
Ġlay er
ra ine
Ġaccompan ied
ill er
Ġtw elve
Ġ5 4
Ġtrans form
ĠD ream
Ġsl aves
i Ä
Ġf al
os ph
ĠK u
Ġcharacter istics
Ġem pire
akes pe
C ont
Ġ ri
Ġref uge
Ġte acher
Ġhigh way
ĠCommun ist
Ġ192 5
id el
ather ine
Ġprote in
E T
ĠHit ler
ĠPhil os
old s
Ġm and
Ġreturn ing
Ġe ye
Ġdescript ion
Ġ187 0
ĠL og
Ġgr ade
aval ry
Ġt rying
ĠHamp shire
Ġstand ing
Ġsubject s
Ġoccas ionally
yth m
Ġclass ic
Ġrepresent ing
Ġ Ð
Ġover l
ĠChrist ians
ult an
Ġgrad ually
ra ck
Ġsw im
Ġstri p
Ġinter pre
st ar
â ĪĴ
ot es
ĠAr n
o ons
Ġnovel ist
Ġt act
Ġform ula
Ġcommission ed
ĠBow l
ĠMer c
hes s
ĠHar ris
Ġcomm itted
ĠW inter
ĠC ook
l ow
Ġpict ure
Ġminim um
at on
Ġass ess
Ġtradition ally
Ġcast le
Ġlegisl ation
Ġfund amental
Ġox ygen
Ġm ir
Ġtre ated
Ġmount ains
iction ary
Ġs ed
Ġabs ol
w w
Ġfilm ed
ĠC P
ĠB enn
ac re
Ġr andom
F C
Ġf il
Ġp ray
ĠW he
ĠB arn
ĠL iter
ĠIndepend ent
Ġra cing
Ġrel ation
ut t
Ġeduc ational
Ġb acter
Ġdec or
ĠAd am
Ġconst ruct
el ess
Ġ ere
ipp ing
ĠC rit
Ġper fect
Ġind igenous
Ġre aching
Ġphys ics
Ġw orth
Ġlearn ed
Ġf ear
ĠL ast
ud son
ym n
ĠSt ew
att ers
Ġpass engers
An other
ĠG ib
ac hel
Ġdep os
h r
Ġprep ared
er ted
20 15
ĠIn n
Ã ¢
akespe are
at in
ĠC ru
ig e
Ġa ware
Ġconcent ration
ĠMed ical
Ġmor al
ĠM es
Ġform ing
Ġfl ows
Ġse lection
Ġsp aces
ir t
Ġens ure
ĠC ass
ĠG i
Ġfound ation
Ġo cean
Ġs ter
ĠB orough
ĠWh o
ĠSil ver
Ġt ank
Ġexpl ained
l anguage
ĠD ue
Ġm ac
b b
or al
Ġrecord ings
iter ranean
r ating
ĠM inistry
Ġdiv or
I T
Ġa thlet
Ġ192 3
p ool
Ġst rict
ark ed
Ġgr ant
ose velt
pr ison
Ġadd ing
Ġf ly
Ġdis miss
Ġappear ances
ile y
Ġer ror
Ġsupp osed
bour ne
Ġs overe
ad ow
Ġpat ients
j amin
Ċ ĠĊĠĊ
ck now
Ġcontrovers ial
Ġdest ruction
ter y
ĠM as
ĠB art
ro c
amp s
Ġk il
Ġt all
ĠC emetery
ĠSy d
m us
ĠPortug al
Ġv el
Ġchar ged
Ġcirc uit
Ġb ran
Ġg rown
ĠChrist opher
ĠK al
ĠOn line
Ġcle an
p o
Ġb anks
ĠF all
ro gen
Ġcry st
Ġinvest ment
ĠSe e
av el
Ġ192 6
Ġst yles
pp ing
Ġm ental
Ġsurv iving
Ġfranch ise
o a
Ġsc ored
Ġretain ed
Ġ9 4
Ġn avig
Ġmach ines
iv ate
ĠGord on
ant e
Ġret ire
Ġsol ar
Vill ages
ĠS ac
Comm un
Ġp ian
ĠB ah
ĠR ights
Ġaff airs
Ġwithd raw
Ġp ed
ĠL et
Ġ9 3
ĠK ings
' m
b al
Ġbenef it
unn el
ĠO range
ik h
ĠPr im
Ġcomput ers
Ġm art
ĠA rizona
Ġmod e
ĠTur key
Will iam
d ie
ia h
x ual
z h
ĠL l
Ġs oul
ĠP ear
ĠH and
che ll
ĠDo ctor
Ġm aps
Ġun s
Ġpartic les
Ġrul er
Ġto ols
cer tain
ĠN ever
Ġsl ave
Ġvis itors
Ġrelationship s
Ġclass ification
Ġw itness
en burg
Ġex cess
ak ed
Ġwor ship
Ġthous and
Ġsympt oms
Ġut il
Ġed ited
Ġal leg
oss ible
Ġcust om
Ġdomin ated
Ġenter tainment
ĠBu ff
Ġ *
Ġa cknow
A nt
ĠB ry
Ġeng aged
Q u
ist a
Ġpr iest
S w
Ġc able
ast s
Ġde leg
um ph
ĠWh at
h att
Ġf lying
ĠE ric
ĠEn cyclop
it ual
Ġc inem
Ġresid ence
Ġfund ing
d on
end ment
on om
ĠM aine
Ġ19 16
Ġpart ner
Ġreg ularly
ĠMarsh all
Ġgu est
Ġcorrespond ing
N o
ud es
Ġchar ges
ap se
Ġprogram me
Ġanim ated
% ),
196 0
Ġinit i
ĠCar ter
oph ical
Ġret ail
Ġelect rical
Ġro ots
Ġbo at
Ġpart ly
198 9
ct ic
Ġann ually
Ġche ck
ĠMor ris
Ġtest s
Ġstand s
Ġvari able
ĠM ess
Ġspe ak
all as
Ġ5 6
Ġrepresent ative
D A
ĠR un
m und
s s
ĠB ou
Ġport ra
ĠSen ator
Ġto wer
Ġprint ed
M il
ith uan
Ġf ine
' '
ol i
ru ctions
Ġmeas ured
Ġmathem atic
o oth
Ġfr ame
ast e
J apan
ĠThe n
L a
ĠS ports
Ġass ault
ol ia
Ġinterpret ation
Ġpro cl
Ġint ent
ro it
Ġsur render
Ġs ale
p ath
ĠHon or
Ġ ĠĊ
20 14
Ġarg ument
ĠBru ce
Ġcar rying
Ġopportun ity
Ġhy per
j ection
ac hers
ĠDef ense
Ġcolle cted
Ġpred omin
Ġpart ially
ĠN ow
Ġ15 0
Ġa head
ĠBar on
I N
ĠT s
Ġgener ated
ĠTurk ish
Ġcont est
ĠMos cow
Ġpract ical
ĠW es
Ġy ellow
s q
ĠStand ard
ĠCent ury
Ġcompos ers
Ġsix th
he red
Ġh ors
if ies
ĠRo osevelt
Ġinf rastructure
em en
em n
ĠMag n
ĠQue bec
ĠA z
Ġre ally
Ġup d
ĠB uck
Ġsign s
Ġc raft
Ġprot est
r um
ov ak
Ġh our
Ġlong est
Ġf an
ĠV erm
ĠL as
Ġtourn ament
ĠK im
Ġindust ries
Ġor ient
ĠMar s
Ġcolon ies
Ġtrans mission
Ġinvol ves
Ġex ceed
ĠSh akespeare
ĠMan agement
Ġtr ust
O f
Ġbehav i
Ġne ither
il it
Ġ( ;
ĠGro ve
Ġe yes
ĠK er
ĠE xt
om orph
l i
ag h
C o
am ics
ĠRe al
ĠM oh
ĠF ive
ific ial
Ġcomm emor
Ġcap tain
Ġcons ervative
Ġtem ple
ty m
S he
Ġelement ary
Ġren ew
Ġwrit ings
Ġmil it
M embers
ĠTr ust
Ġpass age
d o
ĠS n
ĠG ab
ĠAl aska
sc ale
Ġim prison
Ġfrequ ent
Ġenc ounter
ĠAr men
Mus ic
Ġmembers hip
ĠHung arian
force ment
ĠN ort
Ġbound aries
Ġpar am
ĠHeb rew
ĠK ey
ĠMed iterranean
Ġn it
Ġhundred s
Ġmur d
Ġl osing
Ġprom pt
ot ype
Ġst able
ĠMar ine
Ġev al
Ġwrit es
ĠT ro
onst ruction
ancell or
ĠR idge
ĠHar rison
ĠHung ary
ĠT ower
Ġt ry
Ġpro of
Ġ19 11
J u
ĠIn formation
ĠDemocr at
Ġgen e
Ġgen us
ĠB h
Ġbott om
e ast
ĠSt adium
Ġatmosp here
ers ed
Ġsh if
Ġpurch ase
Ã «
st an
Ġbro ken
Ġval id
Ġcon vention
Ġgod s
ĠPrinc ess
are n
Ġun su
ult ane
ĠCat hedral
ĠEconom ic
Ġattra cted
ab led
al ia
ish ment
ĠFinn ish
ĠVi enna
Ġmod er
st ic
Ġdis pl
Ġin ner
Ġalgor ithm
R C
Ġalcoh ol
op hers
Ġen roll
Ġind ex
Ġconst itu
ĠG ran
cl usion
ĠMed ia
ĠBet ween
Ġ19 13
; "
iam i
Ã ¥
Ġsw itch
Ġsle ep
app ing
ĠL am
Ġdam aged
oc a
Ġt iss
ĠP le
ĠR u
Ġro se
ĠM and
Ġprison ers
ic ity
Ġsubstant ial
ĠPat rick
Ġreb ell
Ġhydro gen
j i
Ġo d
G u
ĠPubl ishing
O C
Ġess ential
ab ilities
Ġf aced
in ental
op eration
ĠSyd ney
ang a
R es
Ġ( ,
Ġmat rix
ĠDe ad
et he
Ġschedul ed
Ġd ies
ru ption
Ġoccup ation
Ġw ine
ar on
Ġexpl icit
Ġ19 15
Ġsp oke
S ec
Ġre un
as ant
Ġal gebra
Ġ9 2
Ġtr uth
ĠMatt hew
ĠNapole on
Ġsub ur
ĠAuthor ity
R oman
w ig
Ġb es
Ġtre nd
Ġcent ers
Ġd iet
ĠPier re
ĠWar ren
Ġsub mar
Ġpl us
198 8
Ġreg ime
b us
ĠStan ley
h us
ĠAng l
ĠGu ide
Ġlog ic
Ġ5 7
omm od
Ġm obile
Ġar c
Ġev olved
Ġbusiness man
Ġ1 20
Ġinter ior
ĠEx press
ĠA le
ĠF ather
ĠG oth
oc ation
Ġt ells
Ġher self
P er
Ġinc orpor
Ġpaint ings
ĠAl ban
ĠLiber al
ĠB ed
Ġchang ing
Ġass emb
Ġrequire ments
Ġal ign
b ut
ater n
ok es
ĠP ra
ĠSt aff
Ġsatell ite
Ġpr ices
Ġhigh ways
ĠH udson
Ġimm igrants
J une
Ġhistor ically
ĠS ab
ĠD ublin
Ġbeg un
c ons
um a
ĠBill board
spe aking
198 6
Ġunderst and
ĠA ges
hel m
Ġquant um
Ġjob s
Ġprodu ces
Ġrespons ibility
Ġl oyal
Ġpattern s
P re
l ock
p ie
orm al
Ġexper iences
Ġcult ures
Ġint ellectual
ĠC ost
Ġjust ice
y ard
om p
Ġpropos al
u its
Ä «
M P
ow ell
ĠA gency
Ġdep icted
ĠL ud
ĠCom ple
Ġphr ase
Ġrad ical
Ġinvestig ation
ĠS ic
t rans
198 4
ab il
ess ions
Ġvol umes
amp ions
Ġperson ality
Ġloss es
ĠAn cient
Ġrare ly
Ġfac ulty
Ġcl im
ĠAl bum
ĠHou ston
Ġen h
at us
Ġconcern ed
in ch
Ĩ Ĵ
Ġs elling
le te
ĠBen jamin
b es
Ġdom ain
or ig
M arch
os lav
Ġres olution
un ct
Ġw ire
I tal
ic as
ĠArab ic
us ing
i op
s ky
Ġvol unte
u ct
ill es
A ugust
Ġsur f
ĠT rib
Ġcon j
arri ers
198 5
ĠKh an
ĠQue ens
ĠLe v
et ary
ten ance
Ã© s
Ġmechan ism
Ġ9 1
ann els
Ġhard ware
Y ou
Ġquest ions
Ġbe ar
Ġresident ial
Ġw atch
al ion
ĠOper ation
Ġch airman
Ġown ers
Ċ ĠĠĠĠĠĠĠĠ
ig ion
ĠPit ts
Ġsec ure
Ġencoura ged
Ġc arrier
Ġst im
it als
Ġb ed
Ġv eter
ĠAdd itionally
Ġ190 5
ro se
198 7
Ġimplement ed
Ġass istance
ik ing
Ġfl ed
S ources
ĠOr chestra
Ġsurround ed
Ġbran ches
Ġd ang
Ġfl o
ĠStew art
Ġv ision
ger y
ĠAll ied
or ia
à ¸
Ġh uge
Ġh ired
Ġsu it
ĠCh ile
ĠP rem
H ar
Ġweap on
am ine
Ġposs ibility
ĠT u
Ġactiv ist
b ox
Ġacc ommod
ĠR ud
20 16
Ġcol our
Ġmed al
Ġcontribut ions
M L
Ġcan n
Ġprodu cers
ret t
Ġh al
ĠHot el
S S
Ġ8 5
ĠS i
Ġprop ag
ĠC all
og ether
Ġe at
ĠB ack
Ġf illed
ist ers
ĠAb d
Ġexp ensive
ĠE uro
20 17
ĠMc K
ĠInd ians
ra ce
Ġman if
Ġcons ult
De cember
iv ated
Ġorigin ated
ĠChild ren
vel and
ĠE ver
am i
Ġconstitution al
P ort
ur day
M ajor
r in
ĠA C
Ġany thing
Ġprob ability
Ġst ages
ud a
Ġst opped
g om
pp en
Ġsettle ments
Ġ18 50
ĠS om
Ġminor ity
ot al
ĠW right
ĠL ower
Ġhead s
Trans portation
Ġh olid
Ġor chestra
Ġcateg ories
Ã© t
ĠAnton io
Ġ190 8
Ġsupport ers
Ġphys ician
ĠH ere
ĠSe ven
Ġte ach
? "
ra ge
Ġrecomm ended
Ġvess els
Treat ies
l ington
ĠY our
Ġbig gest
ĠR ub
ĠB eck
ay er
Ġcam era
ĠPh oen
Ġtra il
Ġarran ged
Ġa ired
h ol
iven ess
ĠN atural
w right
Ġb ird
Ġsh ore
Ġconcept s
ĠOn ce
Ġcont ra
Ġres ign
Ġemer gency
le ans
ict ions
Ġsk ills
Ġcover ing
ĠBrother s
ish ops
Ġaccom pl
ĠB an
iv a
Ġpolit icians
ĠDemocr ats
Ġschem e
ĠCon c
Ġoffer ing
Ġgod dess
Ġown ership
Ġ190 6
j an
ĠFl ore
ing ham
ch t
ĠH orn
ra c
ĠL is
og a
Ġpo ems
act s
ĠReg ion
Ġpercent age
ac on
Ġshe l
st ances
Ġlast ed
Ġag ents
crib ed
ĠLt d
ix on
ĠAfghan istan
er on
Ġm ob
Ġfl ights
Ġdis order
Ġparticip ated
hatt an
g ate
Ġcan al
Ġind icated
ĠInst ead
or ous
Ġident ify
l ong
ig g
Ġkn ew
Ġl ists
ens ed
H owever
g ence
ĠC atal
Ġsh ut
Ġthem es
a very
Ġdis appe
ik a
ĠC old
omet imes
ĠC art
Ġimmedi ate
os y
Ġbu y
ĠIs a
A b
ĠP op
C D
ĠThom pson
ĠMor gan
Ġr itual
Ġinv ited
Ġlow est
Ġpres erved
Ġexpl an
Ġtour ism
ap ore
Ġdrug s
Ġapp ly
Ġt ouch
Ġr u
o z
Ġmathemat ical
e ing
Ġf ired
ĠN ick
Ġarg ues
ĠMicro soft
Ġch rom
Ġ5 8
ĠBC E
Jan uary
Ġsing ing
Ġeffic ient
r ish
ĠOrgan ization
ĠL ib
Ġsold ier
Ġredu ction
ĠN elson
Ġf ruit
ĠServ ices
gress ive
bre v
ĠPen insula
Aust ral
f olk
Ġsuper ior
ĠC BS
Ġsing ers
b ridge
ĠTr ade
Ġf alls
ĠN Y
Ġchar ter
Ġdial ect
Ġall iance
ĠDet roit
ne g
int end
ĠAl i
ah n
forman ce
ĠLeg isl
Ġan gle
A pril
un es
Ġdo ctor
ĠB urg
Ġdetail ed
ag ues
Ġinf antry
em ploy
ber ry
Ġsynd rome
h um
ĠO w
l ad
Ġ8 8
Ġmechan ical
he rent
Ġsign als
7 50
ph y
Ġob lig
Ġexperim ental
ĠCa es
ĠC ra
Ġcomm it
ĠS ky
Ġunsu ccess
Ġth ing
J ew
Ġcop y
ĠL ane
! "
ĠM iami
ibb ean
ap olis
Ġm amm
Ġexperim ents
198 3
ĠUt ah
Ġancest ry
Ġg al
ĠV in
Ġre nder
Ġpre gn
Ġass embly
Ġexpl o
Ġsim ultane
ĠMc D
Ġinvent ed
198 2
onym ous
Ã ¦
Ġr if
ĠMal ays
Ġpol ar
ĠEnter tainment
Ġins pir
ĠOr leans
Ġcirc le
ĠAff airs
ĠT rad
Ġ6 6
Se ptember
Ġexp osure
Ġorig ins
Ġk ings
Ġra ise
Ġsug ar
Ġreplace ment
ĠColle ction
Ġbenef its
ĠB ald
it ime
Ġh unting
ĠN ation
Ġ186 0
r ors
Ġdem ol
Ġden omin
A f
ren cy
Ġadm itted
Ġconf ig
Ġw aves
ĠC er
ĠC hem
Ġunivers al
ĠRob inson
Ju ly
Ġh ang
Ġpat ron
Ġf at
C ent
s ch
ell i
ire ct
197 9
ames e
ĠCle veland
ĠProfess or
Ġprefer red
ĠMag azine
ĠPh ill
Ġth in
Ġgrad es
r aska
Ġex port
ra ham
Ġvar iant
Ġhead ed
Ġpublic ly
o om
ord ers
b rid
Ã ´
Death s
ĠBar ry
ar o
cent er
Ġneut ral
bor o
Ġw rest
ĠR an
ĠRom ans
Ġamount s
ĠS S
Ġnewsp apers
Ġb ot
Ã £
O ctober
h and
gom ery
Ġd uties
ĠCamp bell
th at
d i
Ġpr ol
ĠR ow
Ġvot ing
T wo
ond s
ĠWar ner
ĠConfeder ate
/ /
Ġhor iz
ĠRober ts
Ġneigh bour
ĠC re
bor ne
Ġvol t
Ð °
ab y
ĠMar x
Ġf ighter
ĠKn ight
Ġun f
Ġcharacter istic
Ġcon gress
M ed
Ġcross ing
Ġdist inction
ri k
Ġcomp ounds
ĠB aptist
Ġch annels
ĠN BC
Ġcl in
Ġabs ence
ĠAt hens
Ġstat ue
Ġeduc ated
ate ur
ĠH em
ĠAir lines
Ġfarm ers
ch ing
Ġd ated
20 18
Ġneighbor ing
ĠK at
Ġbi ological
ĠSqu adron
Ġmem orial
Ġunderst ood
Ġb om
ĠF ederation
Ġch ance
Ġmiss ions
Ġinteg rated
Ġconvent ional
ro e
ĠM i
id al
ĠP as
ĠL ang
ĠN ar
aw ay
int ers
et ers
Ġres igned
Ġ190 7
atab ase
Ġk id
Ġess ay
Ġâ ĪĴ
Ġinterest ed
t ers
Ġf est
Ġhot el
Ġpers u
Ġforest s
- -
Ġcred it
3 00
Ġm atters
arc hers
Ġappropri ate
ĠL anguage
ÃŃ a
Ġg arden
as hed
hem at
Ġbring ing
B ur
it is
ĠAg ain
Ġinf in
Ġt ennis
ĠC ow
ĠA ld
Ġtri p
Ġphot ograph
ĠLe ban
it ations
Ġr ub
ĠApoll o
Ġbal ance
ĠE very
i ology
Ġg ather
Ġspe akers
P res
Ġham let
com ing
ĠA BC
Ġag ency
l ater
Ġd rew
ĠTe le
ĠSat urday
Ġreform s
E E
ag g
Ġlook ing
Ġphys ic
C ar
ĠF riend
Ġhe ir
In ter
Ġdisc ip
Ġrese archers
ĠM ission
ĠMar ie
om ot
ail s
ĠH end
198 1
In ternational
ĠMur ray
ĠBuddh ist
ĠDie go
in burgh
Ġdemonst rated
ĠAdm iral
ĠVol ume
v o
Ġam pl
ĠCo oper
ibr aries
Ġprec ip
ĠI mp
Ġfind ing
an ia
Ġn ut
O rig
v ol
v ision
Ġcas ual
Ġin aug
Ġcivil ian
ĠCro at
Ġsuppl ies
ĠWay ne
ĠDel aware
ard o
Ġph on
Ġconsum ption
Ġspe aking
Ġvict ims
ĠCh ron
p a
197 5
ĠSt r
Ġâ ĨĴ
ac le
ĠRevolution ary
Ġdivers e
ĠGl obal
ik i
re ction
Ġdes ire
Ġappe al
Europe an
ĠCom ics
Ġcolle ges
arch y
Ġredu cing
Ġdistingu ished
Ġrem ove
Ġdisp ute
Ġsh ift
ĠAbb ey
ĠMan hattan
f ish
Ġassist ant
Ġdeb t
Ġs alt
ham mad
udd en
ĠR and
Ġthe ater
Ġoper ator
f eld
ĠAdminist ration
a ire
s or
Ġst ood
ĠO sc
Ġs it
ĠNew ton
Ġinflu ences
Ġtax es
R uss
Ġp seud
Ġs ample
Ġthreat ened
Ġchild hood
qu is
Ġpubl ishing
P ar
eral ly
ĠPar ish
ĠF al
rou s
Ġpred ecess
ĠC ulture
or er
O R
ic ism
le ton
B o
ĠJ ay
Ġtrib e
ĠBrazil ian
ĠF M
Ġconne ctions
l ik
m ill
Ġeas y
O ver
ose xual
Ġdec isions
Ġsac r
Ġrepresent atives
Ġc ul
Ġfal se
Ġdise ases
Ġw rong
it ic
ĠAn na
Ġsymb ols
Ġcl oud
ro ke
Ġ190 1
D S
and o
ĠE ug
Ġr ational
ĠPet ers
Ġacknow led
Ġex ecution
ram a
Ġs iege
Ġmeet ings
Ġmultip l
Ġt anks
ĠB aker
Ġdiscuss ed
ĠF und
de f
im ore
Ġwhe el
ĠRena issance
ĠA M
Ġcerem on
ĠC ode
Ġbelief s
nt il
Ġst adium
Ġappro val
ĠE c
Ġvel oc
Ġw ars
ĠSc ient
T P
Ġd ual
Ġ190 4
ĠB ull
ĠN i
Ġme at
ous es
ĠPat ri
Ġag ree
Ġcompar ison
Ġdesign er
ar ant
Ġcl ock
Ġ190 9
f ree
Ġdr iving
T C
Ġsu icide
Ġs end
hens ive
ĠN ash
O M
Ġcons cious
ĠWalk er
Ġcr imes
um ed
Ġr ig
ĠĊ Ġ
ĠEngine ering
p ower
Ġdr iven
Ġcondu ctor
Ġden ied
Ġlab our
ab ul
ĠReg iment
Ġshoot ing
Ġrul ing
Ġun certain
iÄ ĩ
I nt
Ġst ruck
Ġconnect ing
Ġher itage
S u
Ġindic ates
if ican
ĠV ice
ĠW eek
ĠNeb raska
Ġprote ins
Ġres ort
Ġrele ases
em ale
197 3
á »
ĠH ab
ĠT a
Ġsong writer
Ġident ical
u zz
ĠCar ibbean
Ġcircum stances
Ġc ous
Ġcommun ications
ĠCl ay
ew ork
ecut ive
Ġcoal ition
ri p
Ġd uty
Ġvar iation
ĠL ocal
Ġun p
t op
ifican ce
' re
Ġille gal
Ġp apers
it udes
Ġart illery
ĠP opul
Ġtem porary
ĠP sych
ĠBel gian
Ġapparent ly
ĠPl ace
ĠMuslim s
Ġtem por
ĠMark et
Ġlegisl ative
ĠW ard
ĠK az
ĠD og
Ġper ceived
ĠAm b
Ġsound s
ner gy
ĠR a
Ġinvol vement
ĠThere fore
ĠL en
Ġs ession
ig a
P C
ĠEn vironment
d oor
Ġnomin ation
Ġcontinu ing
ul us
at ra
ĠL ov
s er
Ġearth qu
Ġj ump
Ġgr ass
Ġ5 9
197 6
Ġemploy ment
Ġc osm
ĠS ign
Ġclos er
ĠD ave
oth y
F irst
Ġmov es
Ġtra ined
imens ional
Ġthe at
Ġ190 3
ĠL iving
ĠA qu
Ġmain land
Ġ8 7
Ġpain ted
ĠB illy
iet h
Ġd ub
our se
ĠStud ios
Ġlegisl ature
Ġunus ual
Ġw et
Ġsp in
20 19
fl u
Ġelse where
Ġ6 1
Ġdraw ing
ĠSym phony
E A
ĠUnivers al
ĠS et
197 4
Ġcon secut
ĠE qu
Ġr is
Ġterm inal
ĠNich olas
ĠEd inburgh
196 9
ĠSec ret
ĠL ithuan
I m
Ġp ool
Ġdiscuss ion
iss ions
ĠTe am
ĠMont gomery
ort ion
Ġd iver
ĠPl ant
ĠJ am
Ġs ave
Ġc avalry
ĠT ru
ĠTurn er
Ġh ill
ĠK it
ĠFre edom
ĠF il
ĠAr ist
Ġdr um
lud es
Ġder iv
Ġinst ruction
ĠL ieutenant
G l
th a
C S
Ġc ogn
Ġl un
197 7
is hers
ĠT erm
Ġcover age
Econom y
Ġt ribut
Te levision
Ġp itch
Ġj ourney
b ody
Ġelev ation
Ġwas te
ĠElect ric
Ġsu itable
Ġch amber
ĠO ur
Ġ( ).
Ġsh ares
Ã¨ re
Ġpra ised
ri el
The se
ft en
Ġ6 2
ul ating
edd ing
ĠSp irit
Un iversity
min ster
Ġcab inet
Ġdo or
For mer
Ġgirl s
Ġb right
Ġdep th
Ġexact ly
Ġt ube
197 2
196 8
ĠNe v
ĠFle et
ĠMu hammad
Ġr ising
ĠSing apore
he nt
Ġv ul
ĠN ord
Ġdirect ors
Ġsec retary
Ġmain tenance
Ġflu id
Ġf it
ĠHe ights
ĠN H
ĠEs s
Ġexhib ition
Ġstrug g
Ġmat ches
w orld
197 8
B est
id ency
f ire
in ates
à ¤
Ġout er
Ġadult s
Ġab brev
Ġcou p
w all
Ġ190 2
Ġvari ations
ĠConstant in
Ġre venue
che st
A ir
ĠTh or
im ents
Ġland scape
W rit
Ġf oss
Ġrem ember
ĠHar bor
en c
Ġr anks
cel and
Ġcon ven
Ġcho ose
Ġdr ums
al y
ĠMad ison
Ġchap ter
yp es
ĠHe in
tym ology
Ġt ons
d r
Ġpopul ated
Ġ ion
Ġp ap
Ġpubl isher
Ġimplement ation
Ġsurv ive
Ġem pt
Ġfind s
Ġexpl ain
ĠBarb ara
E m
Ġoff ensive
Ġ6 8
Ġestablish ing
ĠCons ervative
Ġseg ment
Ġexp osed
Ġess entially
ip her
Ġdoctr ine
and al
Ġdef ence
ĠM ult
m aking
er k
ĠS af
ont in
ĠS ig
ann y
Ġsuccess ion
Ġimp ossible
ĠT an
ĠW a
Ġcol ors
p ent
ĠD ra
ĠS ud
ĠC are
Ġgovern ed
Ġcoll apse
f oot
m aster
if fer
19 50
Ġo ption
Ġ8 9
ĠN BA
Ġanal og
al ysis
ĠC ry
iv an
Ġpo ets
Ġparticip ate
ĠF rid
Ġdiplom atic
Ġent rance
Ġg ang
ĠAl ice
M on
I M
ĠP el
ill o
ĠT ib
ĠE U
Ġreturn s
on omy
Ġhypot hesis
B ar
s ki
ĠTh ose
f ront
Ġplay off
Ġrefer ring
t es
Ġhe nce
Ġcle arly
Des pite
F l
ic ing
Ġrh ythm
ĠO m
ĠMc G
ĠB ranch
ĠM aced
Ġt one
Ġmanufactur ers
aught ers
Ġbl ues
ĠJim my
d iv
ĠRes erve
ĠP a
ĠR est
ĠN ik
Ġf aster
Ġ20 22
Î ±
Ġviol ent
ĠIndepend ence
Ġ Ä
Ġc attle
ĠP ed
ĠR ain
ot he
ĠUn like
Ġw ounded
D av
ĠSte vens
ĠPr incip
est one
Ġstat istics
ig s
Ġto x
Ġill ness
Ġconcer ts
ol o
Ġsaf e
Ġstep s
ĠSupp ort
b ach
ĠVerm ont
Ġtele phone
bre ak
B I
D R
Ġm al
ĠD allas
Ġsub t
Ġjurisd iction
s m
Ġsh r
ty pe
197 1
Ġvol can
ĠJul ian
it ure
ĠN iger
Ġhors es
Ġd ress
Ġfarm ing
ĠM ond
Ġw ins
Ġfl our
Ġd a
ĠK elly
Ġro of
ĠAb raham
Ġport ions
Ġstrug gle
Ġass ign
Ġser ial
ĠGall ery
Ġcontin ental
estab lished
as m
Ġchall eng
Ġenjoy ed
Ġprovin cial
gr ade
Ċ ĠĠĠ
Ġthe rapy
Ġmy ster
elt a
Ġco ins
Ġsl avery
N S
Ġin se
Ġrestrict ed
Nov ember
Ã£ o
ĠN ature
ĠJohn ny
ĠD om
Ġrespond ed
S ever
it us
ĠS id
Ġstrateg ic
l s
ro st
Ġwood en
ĠSl av
Ġseek ing
Ġto ol
ĠS in
Ġed itions
Ġloc ally
ĠAll iance
ĠT ang
Ġburn ed
R ep
h ost
v ia
ier ra
ĠFl ight
medi ate
ĠT el
ĠR ick
Ġnegot iations
ass ador
Ġm ild
al ph
ĠF ood
Ġcamp s
Ġconsecut ive
Ġwar fare
ĠO bs
ect ive
: //
ĠC atherine
en berg
Ġre cept
et ry
Ġevery thing
if er
Ġhon our
Ġinj ury
Ġcrow d
ĠR ap
Ġag encies
Ġinters ection
ch a
Ġ189 8
ĠC ole
Ġeven ing
196 7
ush ing
Ġweek ly
Ġcorpor ate
ol ics
Ġadv ice
Ġh its
Ġdef ine
ĠJ enn
ĠCub a
Ġbro wn
z ing
ĠArgent ina
ic ip
Ġret reat
Ġtour ist
Ġabsol ute
ĠC arm
Ġmon aster
Ġtrib ute
Ġs ight
Ġun like
are st
F ebruary
n et
am pl
ro ck
Ġall ies
ke ley
Ġchart s
ĠD aily
au c
Ġmiss ile
M odern
il ian
st rong
av ia
Ġab st
Ð ¾
rist ol
Ġpr ince
Ġd ict
ic op
ĠK Ã¶
Ġmar ine
C ity
Ġacc ord
Ġart istic
Ġorgan ic
Polit ics
r ity
ĠM ort
ĠWil helm
ĠDyn asty
Ġmov ies
ĠOt to
D F
Ġcomp r
Ġdescrib ing
Ġte en
ĠCl are
ĠAnd re
l ie
em ed
lect ric
Ġsent ence
Ġere cted
ĠG reater
Ġmon ument
Ġoper ational
ĠMod el
ĠM ind
ĠS ultan
Ġvar ies
Ġf iled
Ġl as
ĠHar old
ĠL ore
ĠB our
ch i
Ġrev ival
former ly
ĠSy ria
t ic
ug oslav
Ġsym met
ĠMic hel
Ġse venth
Ġ7 2
Ġcl othing
Ġ6 3
Ġrom antic
st ad
s he
ĠSm all
iz er
Ġleg it
ĠMov ement
Ġfin ite
. '
Ġmain stream
Ġdr ummer
ail and
Ġinc l
Ġg ross
Ġdep ends
Ġrepl acing
Ġcomp ens
Ġmount ed
ĠGreg ory
Ġsupport s
Ġback ing
ĠColl ins
ĠAust in
Ġt ape
ers ion
on ing
Ġcop per
Ġcons olid
Ġcomplet ion
ĠLuther an
Ġrel ief
ah o
Ã© n
Ġm ine
Ġchallen ge
ĠEd ition
ĠL ate
ĠB oys
Ġqu ad
ĠT ol
ĠM ap
Ġeld er
osp el
b ound
Ġf ur
Ġb anned
oc ial
H igh
Ġgrad uate
Ġs udden
ist ant
Ġclaim ing
ĠDes ign
Ġfac ilit
Ġun less
Ġh ub
or f
Ġdef ensive
g roup
Ġa f
ĠUp on
Ġdid n
Ġaim ed
Ġconvers ion
Ġpart ial
Ġair line
Ġqu een
Ġarm ies
l an
d imensional
ĠRich mond
ĠK y
ing ly
ĠS che
á ¹
ĠJos Ã©
Ġget ting
Ġ10 1
Ġretire ment
ĠPro p
Ġscient ist
Ġdiam eter
Ġspace craft
ene z
Ġref lected
Ġf iles
Ġfun eral
Ġdang erous
f riend
Ġmanufactur er
Ġm o
ĠFried rich
P art
ĠB ox
h arm
re le
Ġbo ats
Ġn oun
g i
Ġt ub
Ġl akes
ĠB av
ĠSt u
Ġrestaur ants
Ġst ead
Ġcour ses
ĠJon athan
ĠGu y
re f
ĠRe f
Ġacc l
ĠCom merce
Ġhappen ed
Ġt urb
Ġbl ocks
Ġdescend ants
or ious
Ġpublic ations
S im
ĠTok yo
ĠCom b
ĠEncyclop edia
Ġpian ist
Ġt ort
urrent ly
Ġcomp re
Ġab und
Ġf urn
Ġlic ense
ĠN av
L ater
Ġbe ach
Ġsuff ering
Ġper mitted
Ġno ise
Ġthe olog
ol ve
ur as
oc ese
Ġmole cules
Ġc aught
ĠF el
Ġsecond s
St ar
ĠHer bert
ĠG ary
ĠR io
ĠPitts burgh
Ġinstrument al
Ġbi ography
ĠColon el
Ġinter face
Ġsign ificance
ĠM axim
Ġf ib
R ad
Ġart ificial
Ġrang es
N or
ac les
ĠM ean
Ġinteg ral
Ġinc om
Ġcomed ian
Ġfew er
ĠG DP
Ġpl ain
Ġturn ing
K ing
Ġ189 6
ibl ical
E ast
Ġc oun
cc a
Ġh ier
ĠEx p
ĠAg ric
ĠHu gh
Ġwealth y
ĠClass ical
av ian
Ġany one
Ġappear ing
Ġcollabor ation
Ġexclus ively
Ġdisplay ed
A pp
Ġm inisters
as ks
ĠCont rol
Ġelectric ity
Bl ack
Jew ish
uc lear
Ġconsist ent
ĠIndones ia
ĠS ull
ĠD ictionary
ro d
Ġ189 5
Ġev il
Ġmathematic ian
b el
194 5
te enth
Ġ7 8
S ch
Ġvari ables
ĠP il
Ġwid er
Ġconcern ing
Ġv ic
U nder
ot ten
ĠAm az
Ġb oys
ul u
ib n
M y
ĠNor folk
Christ ian
E D
s burg
ĠF inal
Ġvolt age
Ġunder ground
ĠRoman ia
ĠSystem s
196 6
4 00
er ic
Ġscreen writer
ĠOper a
ine a
Ġp y
Ġ8 6
ĠR ing
Ġgu arant
ĠPict ures
ĠMit chell
row ing
Ġ6 00
Ġpal ace
Ġconnect s
ens ively
Ġd ream
Ġreported ly
Ġus ual
Ġs ke
B ir
ĠC elt
196 5
ĠMr s
Ġ18 40
Ġtrans mit
ĠMon te
Ġphenomen on
A c
a ude
Ġch lor
lud e
ĠThe ater
Ġpro x
ĠV II
Ġcolle ctions
Ġslow ly
Ċ ĠĠĠĠ
Ġwind ow
ĠG rey
Ġeconom ics
ĠV eg
a ired
Ġstay ed
B et
ĠM ack
ĠBalt imore
uis ine
ĠG ust
verse as
Ġsh opping
Ġent ering
Ġm ines
w as
ĠConstantin ople
en cing
Ġconf ront
U K
Can adian
ĠO S
Ġturn s
Ġmix ture
es ter
M et
Ġ8 2
ĠRec ord
ĠH erman
ĠInf antry
Ġen cl
Ġnar rative
ĠL ock
Ġh ip
oc ene
Ġleg acy
ĠJer ry
Ã ł
Ġunder t
Ġegg s
Ġrebell ion
ĠR ico
ĠOl iver
Ġcompet e
Ġsh ock
ĠIndust rial
ĠBab yl
Ġ6 7
ĠD ays
ĠComm ander
h op
Ġ18 30
il iated
ĠHol land
Ġdepend ent
Ġt ell
ĠL iver
din and
Ġc otton
196 4
ĠC her
Ġar bit
Ġposs ession
Ġread y
ĠD ata
ĠO ffic
ĠN orm
out heastern
Ġmiss ing
Ġprev al
ro id
Ġor b
ĠĊĠĊĠĊĠĊ ĠĊĠĊĠĊĠĊ
ĠP ent
ces ter
Ġcons ervation
ĠL akes
Ġtravel ed
om on
Ġrecover ed
ĠCap ital
A P
it ter
Ġg ro
Ġp ip
Ġp ri
com pass
ĠP ont
Ġveloc ity
Ar ch
Ġrec ru
ĠUr ban
Ġisol ated
Ġadv is
Ġlog o
Ġco at
Ġdist ribut
Ġstat istical
b illion
ĠSal v
ĠCaes ar
Ġord inary
ĠG a
Ġas c
C al
w ald
Ġst ored
Ġstruct ural
ĠAtl anta
ĠGra ham
Ġdisc rim
Ġpat ent
M e
er ia
Ġ188 9
Ġaut ob
Ġcan on
own ed
Ġopt im
w inning
ĠGil bert
Ġpartic le
ad i
pr ing
onom ous
Ġpre f
P ost
Ġproced ure
Ġremain der
Ġte achers
Ġun employ
Sever al
ar us
ĠY ugoslav
Ġdistinct ive
ĠA ra
ut er
Ġg ate
ri um
Ġequ ipped
Ġremov al
Ġan throp
Ġr ating
Ġd rag
ĠA S
Ġ8 4
Ġver tical
Ġparliament ary
ĠR ivers
Ġce ased
re ement
Ġthe or
Ġph osph
od ed
u um
Ġmanufact ured
ĠMot or
m aker
ĠG ate
n ut
ĠCom puter
ĠCol omb
Ġ25 0
ĠM ason
Ġf lex
ĠE mer
Ġ7 7
Ġfunction al
Ġ7 6
Ġmar ks
B el
m odern
ĠS ite
ĠH as
Ġc atch
Ġl ov
Ġ189 9
Ġmagn itude
Ġexerc ise
Ġalph abet
se ason
Ġmor ph
ĠL an
Ġkeep ing
Ġpros per
ĠC row
H er
ĠF itz
ĠIsa ac
Ġ1 000
Ġsoc ieties
Ġcr ash
ĠPark er
Ġdecre ase
ĠFurther more
ĠLl oyd
m o
per t
ep ing
ĠWith in
Ġthink ing
ĠPhoen ix
Ġdem ocracy
ĠF act
Ġ18 00
g ra
op al
Ġn inet
ĠF ac
ĠY an
ĠW oman
Ġto w
Ġc odes
od ing
Ġemphas is
Ġcont ribution
Ġre actions
Ġopt ical
n amese
Ġrecogn ised
ĠGr iff
Ġmarket ing
est on
Ġsh op
Ġcomp at
Ġinst ructions
Ġ6 9
f iction
et o
ĠW or
ĠDef ence
in ating
Ġrev ised
S ub
es is
ĠOsc ar
Ġappro aches
b oy
ĠCon cer
Ġcur rency
Ġinterpre ted
R ober
Ġs oci
ĠPruss ia
p res
196 3
Ġdevelop ments
om as
Ġcon vin
Ġthere by
grad uate
ĠM eg
ĠP age
oc ent
Ġprint ing
ĠLe o
ĠM aj
Ġchem istry
. ),
or o
Ġmer ely
Ġdis ag
ĠAl ph
bo ards
T E
ĠA round
am an
ĠFlore nce
t i
or ient
h u
h our
Ġal ter
Ġport s
Ġpl ural
Ġmil k
ÃŃ n
S te
Ġrec re
Ġdel iber
ĠH ind
ĠN ear
ĠNA SA
ad ers
Ġh ope
Ġplay wright
ĠW alt
Ġl ie
ĠBl ues
Ġcond emn
Ġeff iciency
ol ith
Ġhe m
ur er
ĠComm ons
Ġel abor
Ġoccas ions
ĠJo an
ĠS now
Ġrecomm end
Ġbeh alf
Ġarran gement
ĠI celand
ir ates
ac o
Ġ187 1
D isc
Ġb rig
Ġan ch
Ġmon itor
Ġg iant
Ġfall ing
ĠPolit ical
Ġpers pective
Ġrestrict ions
agn etic
ĠAl t
Ġhy brid
Ġb ronze
ming ham
Ġnecess arily
Ġm ail
Ġphilos ophers
Ġinspir ation
ob b
es ian
ĠMed icine
sequ ently
G A
Ġconc rete
st own
Ġsp ending
Ġbomb ing
Ġrang ing
Ġd eter
ĠNorth west
Ġsepar ation
ĠChe ster
U s
Ġ1 10
Ġt orn
Ġ189 3
ĠM other
ĠKe vin
Ġstart s
Ġbre eding
i ast
Ġgu ide
L ou
Ġrefer end
Ġs ulf
Ġro oms
Ġpat ri
Ġw ings
Ġren ov
Ġtri als
Ġv ide
ĠH om
Ġox id
Ġconv icted
ĠCr us
H en
ann er
o ard
ĠD elta
Ġ189 2
uns wick
Ġcous in
Re g
Ġinter action
n i
Ġsol utions
P ol
Ġr um
enn ial
Ġcat hedral
ĠK le
Ã§ ois
P ersonal
al in
ĠFran ces
as p
Ġen forcement
Ġorgan isation
Ġacqu is
ann i
Ġinit iated
ĠE P
il st
ens or
L C
ĠR hod
ĠF ern
L ife
iff s
Ġaccur ate
a ism
Ġp airs
ows ki
Ġb ases
ĠW W
Ġ189 4
Ġsk et
ĠVen ice
ĠM uch
Ġab use
Cl ass
Ġh un
Ġco inc
Ġpr ies
Ġco in
Ġdon ated
th ouse
Ġ188 7
Ġst em
v i
ĠZ one
ĠE ston
ew ay
app ed
Ġpione er
ĠWall ace
ĠM all
Ġpar ad
Ġprom in
Ġstat ements
Ġ188 8
Ġb orrow
Ġsw it
Ġmaintain s
Ġ184 8
Ġext end
ĠShe l
Ġdev oted
Ġparticip ation
ĠCharl otte
Ġexp and
Ġsc atter
ĠB ird
ĠL enn
Ġr ugby
Ġm arch
Ġdram atic
Ġconqu est
ĠBeat les
ent ieth
ĠTh ailand
Ġrock et
Ġpat ient
l on
Ġon going
ĠLiber ty
Ġent hus
Ġlo op
ĠA ctor
Ġsound track
A D
h ill
ĠE nergy
Ġsp r
Ġafter wards
Ġanal y
Ġproport ion
L S
ĠP rior
ĠR us
ĠEx pl
R ich
Ġf antasy
ow ed
ĠPer ry
umber land
] ,
Ġpen al
Ġcl ar
As s
ĠF ull
ĠSe attle
Ġrep rodu
ĠCharl ie
Ġpro ve
19 40
Ġdepart ure
Ġpict ures
Ġopportun ities
Ġseem ed
uls ion
Ġres erve
ĠV ideo
ag s
Ġequ ations
C DP
as a
Ġre ven
ĠCo al
ach t
ĠP ut
ig rated
Ġcomp act
d y
yn om
ĠTr inity
ĠPro te
Ġwear ing
ub b
Ġprofess ion
ĠNev ada
Ġdepart ments
Ġth irty
qu er
ator ial
ĠEv ans
ĠHawai i
Ġj u
ĠO ri
o an
Ġ id
ĠL ad
Ġcrop s
u able
ĠS outheast
Ġpo ison
Ġsimultane ously
im m
il er
ĠP rom
Ġcomm anded
Ġ8 1
Ġdifficult y
ĠMel bourne
ĠGram my
Ġcross ed
ĠBer keley
ĠRog ers
ĠEx ecutive
Ġh ills
Ġsur gery
od ium
Ġregul ations
ĠLiver pool
C P
S ports
c ott
Ġp ump
Ġrul ers
ĠPer formance
Ġt ied
Ġm emb
Ġco ff
Ġcart oon
im ir
ĠTre k
u ction
ĠBo eing
Mil itary
Ġm it
is ations
Ġnot ion
Ġne ur
enez uel
Ð µ
Ġrest oration
f irst
196 2
ĠSur vey
achel or
Ġfin ish
Ġdes ert
ĠTest ament
b i
ĠS aud
Ġl es
O ld
Ġ7 1
Ġsh ops
ĠDe an
ĠL ion
Ġg ay
ĠMethod ist
Ġla ure
uch y
Ġvar iants
r h
Ġmer ger
ĠMont ana
Ġmerch ant
Ġch ron
Ġestim ates
ĠWest minster
Ġtiss ue
art ing
az ines
Ġ186 1
wh ite
Ġdistingu ish
over ed
Ġstreng then
Ġc yl
Ev ents
m ile
ĠBe g
GB T
ae us
Ġhe aring
ay ette
Ġex ile
Ġ188 5
Ġen compass
Ġacc um
Ġg one
ĠI an
ĠJ ava
Ġtechn ologies
ĠMil an
Ġat omic
Ġfollow ers
Ġelect rons
Ġcl ergy
et a
Ġamong st
oir s
Ġto ler
Ġg olf
f a
Ġadvert ising
J ames
on i
Ġgrad uated
Ġdest ination
ĠR ic
Ġarg ue
Ġ Ï
ĠL ie
Ġdoll ars
ow der
Ġsust ain
Ġkn ock
ob by
Ġprov ision
Ġcontrol s
ĠArn old
Ġcust omers
Ġman ip
ĠBr unswick
Ġst ability
Ġspec ified
ĠPrem ier
ĠUk raine
Ġn eck
ros cop
Ġdisc ontin
c are
G M
Ġ8 3
Ġparticip ants
Ġsur ve
Ġmole cular
for ced
ĠBuddh ism
Ġob st
Ġinj ured
Ġbord ered
Ġ189 7
Ġvar ieties
C rit
Ġsc en
' ve
ĠP ul
Ġt ropical
Ġch ronic
Ã¶ r
Ġsubs idi
ĠAngl ican
Ġb inary
Ġsy ll
Ġcar go
ĠâĢ ĺ
red ited
Ġkil omet
ĠV III
Ġpred ict
ĠCE O
Ġcom ics
Ġconsum er
on ly
ĠE ld
ib ilities
Ġdis app
Ġ7 3
ĠB eng
ĠRe ich
over y
Ġpre y
Ġconcent rated
Ġfor b
ĠM ans
Ġj et
Ġfl av
ĠMont real
Ġa qu
ĠB ristol
Ġsh orter
Ġp up
Ġcomp ound
Ġimpro vements
Ġdial ects
ĠDire ct
Ġp unk
Ġsh ield
ĠBl ood
Ġconflict s
ĠH erm
Ġtrans it
Ġ {
s ite
Ġexper t
ĠB ened
ĠEth iop
u y
ĠT am
Ġrev erse
Ġ188 1
am pton
ĠGl en
ob a
ĠI ce
Ġn aming
M I
Ġdis k
Ġrevolution ary
A A
qu ir
ars on
ĠRepublican s
c ut
Ġin hib
am ents
Ġphilos ophical
Ġlif etime
ĠM unicipal
Ġrec alled
Ġball ots
h ar
Ġor chest
writ ers
Ġg ent
he ster
in ology
Ġexc av
Ġsk i
ĠA y
ĠM S
Ġcon clusion
ĠTib et
b ow
g el
Ġm igration
ĠR onald
Ġprot ests
Ġvary ing
Ġex ha
ĠCon n
Ġsim ilarly
Ġw orn
pe ople
ach ment
ort ed
Ġgraph ics
Ġrebu ilt
Ġver b
st ead
ist ent
Ġdis aster
Ġfilm ing
ĠRoman ian
Ġer u
d isc
Ġtarget s
ĠJac ques
Ġrece ives
Ġpsych ology
Ġf old
Ġfamil iar
ock et
t wo
ĠEx per
n ia
Ð ¸
ed ed
Ġrequ iring
Ge orge
ĠRoll ing
ĠFer dinand
lar gest
on al
ul um
or ne
Ġest imate
R S
Ġdem ands
Ġ189 1
st and
m ath
ĠBuff alo
C ounty
ĠE is
Ġ188 4
ry s
Ġkey board
Ġf ab
orks hire
g overn
rican e
ĠVictor ian
Ġoppon ent
Ġland ed
ĠAt hen
ĠVin cent
ĠS oul
Ġele ctoral
ĠD a
ubl ished
ĠM ills
ĠI b
Ġsequ ences
Ġdiv ine
Ġt ies
ur i
Ġtherm al
Ġarchitect ural
Wh at
e o
ĠC ase
ĠCath olics
ĠBul gar
g un
ĠE vent
se a
Ã Ĺ
od yn
Ġh orn
g rim
ĠN eg
u gh
Ã ª
Ġobserv ations
Ġphysic ist
ĠR yan
Ġrem ote
ĠSh ah
Ġtr ig
Ġ188 6
Ġvess el
Ġappoint ment
Ġgeomet ry
p ine
ĠK ath
uss ion
Ġav iation
19 30
we et
ĠNever theless
g ment
Ġbehavi our
M c
Ġc hess
B ecause
ĠGl obe
Ġd aughters
ĠS ierra
Ġspecial ized
Ġint ention
Ġdeliver y
P aul
ĠMar io
Ġpol ynom
Ġl ose
Ġ188 2
c ase
Ġb ridges
ent on
um er
Ġterrit orial
Ġmag ic
Ġfest ivals
ens is
ĠMet ro
Ġe cc
ist ing
ĠC urt
Ġph one
e or
196 1
C ons
io x
ĠBir mingham
ĠTrans it
Ġsitu ations
Ġoccas ion
Ġext ensively
ĠMor oc
Ġindepend ently
ĠCarl os
il ty
ĠStu art
it ially
ĠEd mund
Ġinf ection
Ġceleb ration
Ġat oms
Ġcur ve
ĠB ros
ir ms
Ġeas ier
Ġj unction
ĠViet namese
Ġattempt ing
Ġcons on
Ġrot ation
Ġoppon ents
her ic
p erson
Ġn est
ĠChar ter
Ġmeasure ment
Ġcon greg
Ġpsych ological
G all
oph one
ĠH ope
og an
ĠA er
ster dam
Ġcampaign s
ĠBrig ade
ĠB ert
ic us
Ġrespect ive
ĠTer ry
Ġrad ar
om ical
ĠK ra
Ġsc iences
Ġinter vention
ge on
og le
Ġf ert
occ up
ĠA R
n orth
ĠE t
Ġhe ar
ĠL ett
du le
Ġax is
by ter
d al
ĠAr c
the l
s a
Ġdec ay
Ġ ),
Ġexc ell
ovak ia
ĠH il
ĠBut ler
Japan ese
Ġmurd ered
Ġc uisine
ĠL ost
ĠIran ian
ĠHen ri
ĠJ ama
int s
ĠK o
Ġrev ol
ĠKir k
Ġsub stit
Ġconvin ced
Ġnot ice
io ch
i ability
ann on
195 9
ĠN a
ane ous
Ġunsuccess ful
Ġreferend um
ow ing
c m
as i
ĠSar ah
ĠO cc
Ġsum m
Ġext ends
ĠJud aism
Ġp ull
Ġenem ies
ĠPhilos ophy
ĠM end
ĠH amm
Ġmechan ics
Ġs essions
Ġdocument ed
Ġspe ctr
A ng
ĠA P
ĠW ing
ĠE nt
Be fore
Ġpron ounced
Ġc ash
Ġde emed
er as
Ġw el
ĠR alph
ĠH ad
Ġun cle
an ium
Ġ7 4
Ġre ct
ĠI P
Ġpl astic
Ġcasual ties
ĠF I
Ġinvol ve
Ġcoll aps
em pl
ĠL ux
ĠUk rain
Ġspectr um
ĠLeban on
M edia
ĠY orkshire
Ġact ed
Ġ <
Ġr id
ĠF if
% ).
ĠH ob
ĠT ob
ah l
Ġpromot ion
Ġhoriz ont
ĠR on
Ġcons pir
Ġorgan isms
L iving
Ġr ice
Ġn erv
Ġb id
ĠCh ang
writ ten
ĠArch bishop
Ġdifficult ies
ĠLar ry
S pe
Ġdis orders
" :
Ġsub sc
Ġmer c
Ġf ulf
Ġconsequ ence
B ack
Ġjo ining
ay an
l ived
on na
ĠH unt
ĠV ic
Ġsk y
Ġdiss olved
19 39
w ord
ax y
m ade
Ġt el
en ess
Ġmaintain ing
Ġsubst ance
Ġdeploy ed
Ġadminist ered
Î ¿
Ġs urn
Ġor th
Ġcreat ive
ne ur
Ġbre aking
Ġwalk ing
ch ron
ĠLiter ature
E P
Ġcan c
Commun ities
ĠM embers
Ġaltern ate
Char les
ĠSt re
ĠMon roe
Ġinj uries
ĠRay mond
Ġd atabase
ĠChampionship s
el i
ett a
Ġ186 7
f ound
ĠP A
Ġg rain
ess ed
Ġbacter ia
Ġvul ner
Ġl ib
ĠAn im
Ġ8 00
Ġdem anded
ĠK am
ĠThe ory
Ġfram ework
Ġans wer
ĠK now
ĠFrid ay
Ġper mission
Ġdr ink
ĠWild life
Ġele ven
ep hew
ir ie
Ġaccess ible
n ew
enn ium
leg raph
Ġins urance
ĠSte el
Ġacc eler
ĠPort land
prof it
Ġe ighth
id en
ĠR ou
ĠW ol
ĠPalest ine
Ġ7 9
Ġengine ers
th rough
ĠF ab
Ġrem ark
ĠInt elligence
Ġrecover y
Ġannoun ce
ĠFran co
Ġwor st
W orks
ian gle
Ġsh ipping
Ġabol ished
ĠS oph
ĠA x
com p
z i
ĠHug hes
c ific
est yle
om ed
e ger
ĠRe form
C ap
y c
Ġb in
Ġsec ular
Ġass ets
yt ic
Ġresc ue
o qu
ĠPrinc eton
Ġexplan ation
Ġlo an
Ġprecip itation
s ub
Ġimm igration
Ġinhab ited
an cer
ĠTr ump
Ġvirt ual
Ġarg uments
ĠH av
Ġdismiss ed
Ġpoint ed
er ts
um ps
id o
ĠPl at
ĠSull ivan
Ġch air
Ġt unnel
Ġw inters
Ġnot ation
ĠSo ft
ĠN ag
ĠO il
Ġtheore tical
h igh
Ġthere after
sh aped
Ġvis iting
Ġoper ators
Ġsusp ended
Ġholid ay
Ġsum mers
ĠCont inental
ĠMalays ia
' d
ĠA thlet
ac co
Ġre aches
ĠB ey
ĠL iv
Ġhand le
ĠPalest inian
Rober t
ĠBer g
ĠBr un
Ġmar ry
aw k
Ġ187 3
Ġsee ing
Ġpri ze
ĠF isher
ph al
ĠHel en
Ġpremi ered
Ġinher ited
ĠMc L
ĠR ang
app y
Ġ187 2
Ġgener ate
ĠOb ama
ĠHun ter
Ġpriv ile
spe ed
ĠV enezuel
Ġstud ying
ĠLeon ard
ĠP y
Ġaddress ed
ith ms
ĠW ag
Ġro cks
com mon
Ġmoder ate
Ġse es
ĠH es
our t
Ġt u
ĠC ant
ĠJ azz
hol m
ĠC arn
au ge
Ġor al
Ġb one
Ġvar ied
ĠIS O
ou ver
Ġsuppl ied
Ġen act
Ġ187 6
est y
ĠGl as
ĠRepresent ative
Ġearthqu ake
Ġempt y
Ġdem ocratic
ĠN at
ĠConstant ine
ĠGoth ic
ĠArch itect
ic he
ĠM alt
ount ain
elf are
P al
Ġpil ots
v y
ĠGu inea
Ġcompet itive
orm s
Ġdispl ays
c hers
ĠV iew
ĠSte in
ĠAct ress
ug g
Ġaff air
app rox
Ġind eed
ĠAnd y
Ġobject ive
Ġl iv
ĠD oc
Ġco e
Ġclos est
Leg acy
Ġpres erve
Ġmet ers
Ġ186 5
u i
end a
Ġpredomin antly
ater al
cast ing
z ed
Ġin fer
ĠS alt
Ġar ray
Ġcomment ed
Ġadj ust
Ġl ibraries
Ġ187 9
ĠAmer icas
Ġdemol ished
M en
od a
Ġtrans p
us c
ĠG or
Ġcor ruption
ĠEx amples
Ġover t
on so
Ġgen es
ĠErn est
Ġmonarch y
Ġhel icop
AT O
H S
ĠC ultural
Ġfin ance
Ġindic ating
Ġclos ing
intend o
C are
Ġc oc
Ġwill ing
Ġ188 3
in stein
ĠS ri
Ġdes ired
195 8
ĠSp art
Ġv it
Ġlook ed
ar in
Ġsubmar ine
Ġd iversity
z ig
ĠR AF
ĠIn vest
Ġb en
ĠL ag
ĠH omer
ĠR aj
ag ger
Ġgold en
ir th
and in
re ck
Ġrele vant
Ġhor ror
ĠIraq i
Ġrepeated ly
ĠP un
Ġcomp ilation
Ġobserv ation
ĠAlexand ria
m un
ĠM A
Ġvers e
ĠL P
ĠRob in
ĠTrans portation
Ġrel ocated
Ġleg s
ear ing
ĠAr med
l ation
Ġthe ology
ĠBrook lyn
Ġc arriers
ol ine
ĠN ixon
Ġev ac
F rance
ĠP ack
Ġfem in
Ġconqu ered
ĠUn it
Ġloc omot
Ġfarm s
Ġcinem a
Ġper mit
ĠPer u
Ġn am
Ġam ateur
Ġpun ishment
ĠJ unior
Ġsm ooth
o ids
Ġre ception
uc ks
Ġinvent or
Polit ical
ĠG un
Ġrep air
Ġtour ing
ĠL ank
ĠCl aud
Ġm oon
g ow
ĠPict ure
Ġnickn ame
ĠG ray
Ġdis char
ĠG aul
ĠTrans port
Ġfac ing
Ġnomin ations
rupt ed
Ġ186 4
st ers
ab out
ĠTre as
ĠSocial ist
el in
Ġl iver
Ġeight een
ĠJud ge
ĠBald win
ar r
Ġcitiz en
Ġfor th
yr ight
Ġh az
Ġfl ower
Ġrequ ested
Ġab road
at hered
Ġo ct
orient ed
an throp
Ġh ole
Ġrelig ions
ĠBas il
ĠPear l
ĠV o
Ġb its
Ġmet als
Ġb ull
Ġdep ression
Ġcomp rom
8 00
ter ior
U N
ĠRe agan
ĠC ad
Ġunder lying
Ġdecre ased
Ġment ions
n atural
ĠM ember
ĠR ange
S an
Ġdecl ar
R ed
Ġover w
195 7
ĠMin or
olog ically
ue z
Ġrank ing
ĠNov a
Ġsynt hes
Ġsec ured
isc opal
Ġf ill
Ġob vious
195 6
Ġb ishops
ĠAm sterdam
Ġpot entially
ĠM ann
ĠRh ine
Ġconver t
Ġquant ities
Ġ186 8
Ġto t
ĠSim ilarly
Ġbirth day
Sec ond
our g
Dav id
ĠP ic
ur st
Ġbeaut iful
ĠL em
Ġprevent ed
Ġemot ional
ĠR i
Ġindu cted
il ib
ĠMaur ice
ĠB ud
if ier
aw s
Ġs amples
Ġg am
oy age
ĠArch ive
A ct
ash i
ĠMad rid
agon ist
Ġent ity
Ġ186 3
Ġout break
Ġw arri
Ġh at
Ġrestaur ant
art s
Ġopt ions
h istor
ĠSh an
ren a
Ġcounter part
l ain
ĠH ann
Ġsequ el
ĠJul ius
Ġsynt hesis
um m
Ġ186 2
Ġcivil ians
ĠPh ot
ou stic
Ġprogress ive
ĠI van
r ill
ĠÃ Ĺ
Ġfund ed
Ġfl owers
Ġhom osexual
Ã© l
au er
Ġvirt ually
ĠS omers
Ġaff ili
ĠMo z
ĠR ab
ĠT ype
Ġmus cle
Ġb ay
ĠB omb
Ġint ense
Ġcl imb
ĠSh ip
Ġanim ation
ĠMy ster
Ġswim ming
ĠF ra
he ld
Ġs av
ĠY ellow
Ġmag azines
ĠArt icle
ĠPers e
ig nt
Ġp ushed
Ġcl ient
Ġtest ed
ĠDes ert
ot ing
mar ks
Ġalt itude
ĠMat hemat
lev ard
Ġmuseum s
19 20
Ġdr ivers
6 00
ĠDe ep
Ġexhib it
Ġp and
Ġgl ac
Ġf asc
D C
ig o
ĠF r
Ġprodu ctions
ĠColumb us
Ġme ets
Ġbur ial
Ġarchae ological
Ġjud ges
ĠP ant
Ġnatural ly
Ġs ending
T O
Ġfeel ing
Ġdog s
ĠCelt ic
Ġtrans formation
ĠBo hem
ĠD ance
Ġra c
ĠLuc as
Ġp owered
ĠP ad
Ġpres idency
Ġbl ind
Ġvict im
l ide
f r
f ilm
ĠL ear
h n
Ġdr inking
Ġdev ast
Ġg ets
Ġoccur ring
ĠLanc aster
ĠJ oy
Ġra bb
Ġmar g
Ġs in
Ġgu ilty
Ġo verseas
at ri
ĠUl t
et ics
Ġse ed
Ġconst ra
Ġactiv ists
Ġtw in
min ute
if ice
ip er
B us
le ys
yl er
ir k
Ġinteg ration
Ġf ix
ĠD ub
Ġy ards
Ġdial ogue
g us
Ġgener ations
Ġeduc ator
Ġfle w
Ġcry pt
L and
p ost
Ð ½
ĠW ells
ĠSic ily
ĠSpring field
Ġin formed
Ġb rick
ĠGerman ic
ĠSte ven
Ġcomput ing
195 5
ĠBatt alion
ĠS aints
ick ing
ĠAnt ioch
ĠG Ã¶
arm s
Ġwind s
Ġcompris es
or ic
Ġwithd rew
Ġcommun ist
Ġ186 9
iv ic
Ġlay ers
Ġprof it
Ġser ver
ĠArab ia
Ġhous ed
Ġexplicit ly
Ġsp here
Ġhelp ing
Ġconfig uration
ĠN ine
Ġproced ures
ov o
unic ation
Ġmart ial
it ative
Ġsub mitted
hip s
ment ed
it ol
ĠP ine
Ġen abled
Ġrow s
n amed
ĠGree ks
ĠH old
Ġis ot
Ġconsider ably
am ount
Ġtempor arily
Ġrec reation
ĠL oc
Ġmiss iles
Ġinfl ation
Ġmamm als
Ġt ight
ĠSaud i
c ore
ĠH az
ell ar
Ġevery one
ĠT on
Ġpen et
Ġpromot ing
Ġdivor ce
Ġrecogn ize
ul ations
Ġup grad
ĠIn s
Ġsc ope
c ock
B O
19 00
Ġac res
Ġrequire ment
Ġaud iences
ĠA ber
Ġsac red
ĠSh aw
N on
h all
ym ph
Ġpartn ers
Ġsever ely
Ġcre ates
Ġprom ised
Ġ( '
ĠP in
Ġcor on
ĠS yn
ist on
ĠG w
ah a
Ġread ers
ĠCh ancellor
h yd
pr ising
ey er
t ar
ot us
B er
to le
A g
O ut
Ġdisput ed
Ġaut hent
ĠComm unications
ĠChap el
ĠE agle
au kee
Ġob sc
Ġbroadcast ing
Ġbond s
Ġsurv iv
Ġpan el
Ġar ist
or ian
ĠG et
Ġphotograph s
ou x
ĠD J
Ġtop ic
Ġgram mar
ĠB ond
Ġbas in
Ġweek end
is an
Ġsent enced
Mus ical
ĠSus an
act ic
l it
Ġprof ile
ĠQu est
ĠA T
ĠD iam
Ġinter change
Ġant iqu
ĠK an
ĠY outh
ĠHar vey
ĠMag ic
Ġkind s
ĠEd wards
ĠD ennis
Ġpre st
Ġmess ages
Ġfair ly
Ġb read
Ġgrad u
ic ular
Ġres ource
Ġpen insula
ĠV lad
Ġ187 8
ĠX V
ĠCr ime
Ġpredecess or
Ġab b
Ġyoung est
ĠDr ive
Ġunemploy ment
Ġcompet ing
Ġprepar ation
ĠV ern
Ġco oper
Ġappro ached
olith ic
ew ise
ard ens
Ġcomplex ity
re ne
ir ts
ec a
ĠCons erv
' ll
ĠIs ab
Ġpet ition
Ġj unior
Ġsc he
Ġhop ed
ĠI C
Ġend ors
Ġprocl aimed
Ġal ien
Ġtour ists
Ġcompre hensive
Ġfight ers
M C
Ġquant ity
O per
re pre
ans k
Ġesc aped
igr ant
unc iation
Ġacknowled ged
Ġtrans formed
ĠAm endment
Ġcent res
an im
ĠS pen
os c
Ġc a
Ġvow el
F ictional
u h
ĠCab inet
in te
ĠN ATO
ĠLu is
Ġven ue
at ar
ĠN ep
ac a
ook ing
n al
p owered
ĠSe ction
Ġ" [
qu est
Ġcross es
Ġor g
ĠFor mer
Ġ10 2
ĠAv iation
ĠPol icy
Ġimp osed
Ġorgan ised
pie ce
ignt y
m od
Ġimprison ed
le ctions
Ġstr ings
Ġh idden
ĠAl ong
Ġra ising
Ġdram at
Ġhabit at
Ġf itted
ok er
Ġexclus ive
Ġassass ination
Ġin g
Ġinv ention
Ġprot ocol
ĠP owell
ĠBened ict
re ated
Ġb icy
p ur
ĠC S
ĠPol y
l ined
en er
Ġext ending
ches s
F ore
Ġf ault
Ġse ized
Ġsh arp
ĠCom edy
Ġm as
A wards
ed ge
ĠPres byter
Ġbatter y
Ġc ow
Ġs outheastern
ĠA F
Ġac ids
p age
Ġdef ines
ĠArm strong
Ġcanc elled
Ġv ital
Ġun ex
Ġattra ctions
ĠH aven
Ġal ive
Ġcent ered
war f
Ġabst ract
ĠT un
anc ouver
s elling
v ar
ÅĤ aw
Ġmin imal
ĠJ un
ress ive
Ġrev olt
Ġ187 4
ĠB eth
Ġdepos its
Ġent ers
Ġswe et
Ġatt ribut
Ġatt orney
ph an
Ġcont rad
Ġcont ribute
Ġinv aded
Ġbus es
ie u
Ġph arm
12 5
Com p
R T
Ġ1 15
ra wn
Ġ18 12
n ers
od ay
Ġtop ics
Ġbank rupt
Ġdesign ation
ĠT it
ĠAugust us
Ġsil ent
Ġmechan isms
am ation
ĠFran z
r ary
u in
Ä į
Ġexpl ains
ĠN intendo
Ġsp elling
Ġlic ensed
epend ent
fect ure
Ġco operation
Ġrefuge es
it ely
az i
Ġcut ting
ro le
Ġter rain
Ġsche dule
Ä ĥ
ĠB ach
ĠV el
Ġsp end
Ġconf used
ĠUkrain ian
Ġb inding
ĠM ust
rest rial
ir teen
Ġnort heastern
in os
Ġf usion
ĠM ead
Ġg rid
ĠAl tern
ĠR ace
Ġmet ab
s is
ar an
ed ar
st ed
ĠN am
ran o
Ġgovern ing
ĠQ ing
H ung
g ements
Ġto ll
od s
Ġ186 6
ed a
Ġd rain
ĠPal m
ĠOrig inally
Ġfil ter
ple te
ele cted
p in
Ġlabor atory
Ġprot otype
ĠD ragon
195 4
ĠL amb
Ġch ampions
ĠBulgar ia
w ent
Ġbu ff
ĠW ald
ĠLe op
ĠB og
ĠD ale
Ġhand ling
Ġeld est
R I
ĠF uj
Ġwh ilst
20 21
Ġel ite
Ġcomment ary
V ID
194 2
Ġround s
Ġconsequ ences
Ġb apt
h is
n ik
Ġf ran
S o
c ount
ĠW onder
Ġ ibn
ĠE sc
Ġdim ensions
Ġrecip ient
Ġsubsidi ary
Ġaff ord
Ġn ephew
Ġant ib
Ġcollect ive
Ġsupp lement
ĠGreat est
G reen
as ma
ĠU C
ĠEs sex
Ġreal ized
Ġdyn amic
m other
em y
ĠJ osh
Ġmar gin
ĠL omb
ĠK a
ring ton
ask etball
Ġf ame
ĠAn at
ĠJ ason
Th omas
Ġt ip
Ġgrand father
ĠS ide
ig her
ond a
195 3
ĠDen ver
ĠId aho
ĠStud y
Ġactress es
ur ated
Ġsc ores
ĠIs le
Ġt et
Ġin ternet
Ġpre t
h al
Ġpries ts
Ã °
ĠLe x
M ich
Ġj ury
Ġsqu ad
Ġa rose
Ġw edding
em por
unicip ality
Ġtom b
Ġdest ro
194 9
Ġburn ing
ĠR y
ur ring
Ġpro sec
ĠL ac
Ġsuggest ing
Ġan arch
Ġde ck
ĠL ords
St ate
Ġnam ely
ĠSt ill
ethe less
ĠB ath
Ġdelay ed
Ġtravel ing
c al
ĠCh and
ram s
Ġterm ed
ĠMerc ury
Ġl ung
ĠT ig
ĠS r
mark et
Y ear
Ġtrav elled
L P
ok a
ĠAl ger
osp itals
ĠG on
ap ing
Ġind irect
Ġconf usion
Ġplatform s
Ġsurf aces
Ġhonor ary
Ġvac uum
M al
ĠL ess
Ġinter actions
Ġstrong er
Ital ian
Ġp ope
Ġchar ity
ĠOther s
N T
Ġsoc cer
Ġ187 5
lar ation
Ġgrav ity
Ġadopt ion
angel ical
19 18
ĠOr d
Ġd iox
Ġgra ve
Ġdim in
i w
B attle
Ġext inct
ĠMean while
ĠRe ed
Ġper m
Ġeng age
D ist
Ġep ic
st r
Ġan ten
Ġbel t
ĠMun ich
ĠG rad
Ġequ ally
amb ers
Ġal tered
ĠE ight
194 6
Ġspeed s
Ġex chang
ĠMil ton
let t
ĠProte ction
U p
all ing
The y
194 1
Ġiniti ative
Ġsmall est
Ġder ives
Ġ185 4
Ġw ore
Ġfor cing
ĠSc andin
ĠFa ith
ys ical
il ia
Ġnob ility
Ġpray er
l u
ĠH at
Ġman age
ĠBou levard
ĠHe aven
Ġs aint
ĠSer ge
Ġer rors
w he
ĠR uth
M ore
ĠDer by
L ike
ĠW here
Ġap artment
Ġval uable
194 8
Ġcalcul ated
194 4
Ġbeaut y
Ġacquis ition
f urt
as hes
ut o
Ġencounter ed
Ġreserv es
Ġg ly
Ġexp anding
Ġrep ublic
ĠFour th
Care er
Ñ Ģ
ĠS ut
ĠMar ion
ĠSc ots
Ġbelie ves
G rand
Ġreg ulation
port ed
Ġreg ister
ĠAnt i
Ġfrequ encies
Ġbul k
Ġsculpt ure
ĠB rew
ĠTheod ore
ĠNor se
ĠHor se
n on
et e
Ġcons ensus
ograp hers
ri en
Ġperson ally
Ġclin ical
ĠWood s
el ing
as ia
ĠNe il
ĠR out
á º
Ġb ars
ĠB ear
ter bury
Ġrest ore
St ud
Ġtheat rical
c ussion
ĠBl oom
viron ments
p ic
ĠGab riel
ilib rium
G old
L ondon
Ġa est
ĠP ast
att y
cast le
ĠC av
Ġcolumn s
r ust
Ġt asks
ist ence
j acent
ĠY am
ĠGirl s
ĠR ush
ĠPar ks
Ġsw ord
Ġwind ows
Ġz ones
l ades
Bet ween
ric ks
Ġleg ally
ĠQueens land
Ġf iber
ĠG ot
Ġst abil
ĠY ale
Ġvac c
Ġabol ition
Ġcontract s
Ġsub urb
ĠGu ild
Ġpred icted
Ġregard less
Ġbe ars
Ġrel ating
Ġgen res
195 2
y ll
Ġ rib
Ġo w
unn y
om o
ĠR ight
ĠMach ine
Ġrain fall
ĠArist ot
Ġcons ort
E tymology
ĠM ut
iz ers
Ġconsid ering
Ġ185 7
Ġg athered
Ġk it
Ġsk ill
ov anni
W ar
emb le
ĠTra ining
roll ed
Ġspons ored
ĠS or
ĠC yr
s l
ĠCub an
Ġin land
L ocal
Ġt oured
ĠKe ith
Ġdoub t
ell ers
at ched
in ces
Ġtravel s
Ġsovere ign
Ġg ap
Ġcust oms
Ġre organ
Ġout door
Ġannex ed
N et
Ġrece iver
Ġ187 7
O T
ĠS P
ap or
Ġdec is
iv ia
Ġhigh light
Ġdef ended
Ġver te
Ġpurs ue
E G
g s
Ġdist ant
Ġfood s
Ġmonth ly
ĠA ccess
ĠB ot
ub a
ĠOrig inal
Ġs ew
ĠSong s
o fficial
ul ates
Ġqu art
ĠĠĠĠĠĠĠĠ ĠĠĠĠĠĠĠĠ
194 7
M T
st al
Ġg ift
velop ed
Ġt un
ĠC hen
th al
rele ased
ĠGe off
Ġaccur acy
ĠWy oming
Lou is
Ġoverw hel
' )
ĠW u
ĠPri x
ĠGard ens
Ġbar rel
e u
Ġl ieutenant
Ġelim inated
Or gan
in ery
al though
Ġal umin
Ġen orm
ĠAp pe
Ġinterview s
Ġfl ash
ĠClass ic
ĠWat son
Ġs oph
ect ors
enn y
Ġsocial ist
ĠG ay
ĠG ill
ĠV ancouver
ack ed
19 36
Ġcons ent
Ġent ities
Ġclos ure
ĠTechn ical
or p
o i
ĠG round
Ġreport ing
Ġneighborhood s
Ġpenal ty
C itations
Ġbo om
Ġmeasure ments
ĠTh ames
ak u
up iter
Ġfra ction
ĠR ot
ĠW inn
ĠBro oks
Ġmar sh
ĠF iction
Ġattra ction
. ).
Ġapprox im
ĠGo ogle
Ġatt ending
Ġconf idence
Ġaut umn
Ġfe ud
Ġw ish
Ġsing ular
Ġrel at
Ġcount ed
Ġabsor bed
ĠP tole
Ġhel ps
occup ied
od ia
er b
Ġpl acing
eng ths
Ġ185 8
comm unications
b ul
Î ½
Ġmet h
Ġinternational ly
ĠP om
ĠJ ar
Ġab oard
Ġass isted
Ġelect ro
Ġ ).
og s
ov ich
Ġsp ir
Hen ry
Ġphot ography
Ġfall en
ĠFran Ã§ois
Ġless er
Ar ts
ĠF ellow
Ġunc lear
Ġp ig
Ġdiplom at
ĠPeters burg
ag ne
Ġillust rated
ĠD od
ĠBur ton
ĠF ish
Ġs ick
Th ree
Ġproper ly
Ġcommercial ly
g ame
ĠGra ce
Ġlit erally
Ġcam eras
Ġphenomen a
Ä ±
pl ed
Ġelect rom
c at
Ġk in
os l
bro ok
Ġinfin ite
S al
p m
Ġcom fort
Ġspe aker
Ġarr iving
Ġfor g
Ġun ity
Ġsc andal
ĠInd ex
Ġsh aring
Ġpres ents
Ġenter tain
T op
Ġf iring
Ġnavig ation
Ġfort ress
Ġst ops
Ġatt itude
ĠCy pr
ĠLett ers
Ġh unt
ly mouth
ĠO z
ens on
ĠCl imate
Ġmagn et
Ġb on
ĠS yl
Ġperman ently
Ġupd ated
Å Ħ
Ġen vironments
b one
Ġcom ments
Ġcirc ulation
A N
M art
ĠSt alin
ug s
R ock
is ers
ĠH um
th an
ĠMong ol
Ġfab ric
195 1
Ġb ore
ĠChurch ill
Ġcul min
ot ion
Ġ10 5
ĠVeg as
ĠB uch
ch ild
Ġdep uty
Ġrecre ational
orig inal
h aus
Ġbelong ing
ĠC ov
ĠB ron
ist le
Ġtor ped
m n
Ġvo iced
ĠPhill ips
Ġb ath
ĠF inally
De f
Ġven ues
Ġpost hum
Ġan the
ĠBas in
ĠRel igion
Ġne arest
Ġun w
Ġmin ute
Ġmanuscript s
D an
Ġse vent
ong ue
ĠHar per
ĠAp ost
nd on
Ġe ating
Ġbre ed
ĠA ction
ĠH unting
Ġassoci ate
ĠS ay
Ġper pet
g art
ĠG as
Ġmet res
Ġplan ets
ĠCamp us
ĠAtt orney
ĠSe b
m ay
ĠV ik
im ity
ĠRet urn
Ġabbrev iated
Ġpand emic
l ass
ig ation
Ġbe ings
Ġmanufact ure
osy stem
ĠGlas gow
ĠCar roll
ĠMan uel
Ġshif ted
so le
Ġg ardens
Ġmass acre
ĠBul g
ĠNH L
ĠH us
Ġportra it
ic ia
Ġam ph
b ing
Ġcor ps
R ail
m ember
Ġing red
ĠÃ Ĩ
Ġsc oring
Can ada
Ġsovere ignty
Ġint eger
Ġover th
Ġans w
iffer ent
ĠN an
Ġ185 9
writ ing
Ġimpl ies
Ġcompris ing
ĠT ed
ĠT rent
Ġan at
ĠLabor atory
Gall ery
ĠD ion
Ġre ver
Ġinter mediate
ym es
Ġant icip
Ġpay ment
Ġfer ry
Ġmemb rane
Ġm os
ĠSt ars
Ġdefin itions
Ġ1 18
Ġconscious ness
ĠM ol
ĠSt ories
Ġbi ology
Wh ite
ĠC inem
am o
up s
Ġident ification
ĠCard inal
Ġlat est
ard ed
ĠEx change
Ġhuman ity
ĠK os
ĠCO VID
Ġin tern
T ur
Ġmanif est
d ing
i ary
Ġman ual
Ġtra ils
ad ic
ĠP yth
Ġc hest
Ġb le
ĠX X
ĠSpen cer
Ġd anger
Ġreb els
ĠC lement
Ġel ig
ĠHop kins
Ġs aved
Ġsign ing
v as
ĠL odge
ĠCirc le
Q ue
ep s
arri ages
Ġrel atives
ĠDec laration
Ġsurv ival
C ast
H on
w oman
Ġg ran
An cient
re ts
Ġcar ries
ĠL or
Ġinc idents
ick en
cript ions
Ġh a
ĠC N
Ġpoll ution
ĠFriend s
Ġ18 20
Ġtransl ations
Th rough
Ġcred its
Ġdim ension
l ink
Ġapp rec
Ġra w
Ġ7 00
Ġattend ance
Ġtrans mitted
ĠMan ch
ĠSud an
D on
ĠN ass
Ġ10 3
ĠEd die
ĠCan terbury
ĠC raw
ĠR ound
S ax
ĠP ay
Ġceleb rate
Ġvir us
Ġchallen ged
L et
ĠMar vel
Ġalgor ithms
ĠPed ro
Ġt y
ine e
ust ers
rie ved
ĠSomers et
Ġhe ter
Ġcirc ular
Ġdub bed
ang o
Ġdeep ly
or um
ĠT ree
ĠC ond
ĠB ass
Ġsculpt or
ĠMP s
Ġsign ature
any on
Ġd uration
Ġdeal ing
ĠEvent ually
Ġmon op
ĠPl ains
f our
Ġcon ce
ran g
on omic
Ġfre ed
Ġjud icial
ĠCamp aign
Ġw avel
Ġcard inal
Ġfavor ite
v et
Ġimpro vement
Ġ185 5
Ġlist ings
Ġdia gram
O N
ĠRe yn
ĠAdvent ures
ĠVal ent
iz z
Ġbelong ed
ĠBenn ett
Ġchalleng es
im er
ail ing
Ġhorizont al
T our
r ators
Ġsouth western
F M
Ġte eth
Ġcap s
ĠWag ner
ĠKenn eth
am er
Ġins isted
Ġten ure
sec ond
w id
Ġby pass
ĠLux emb
Ġn avy
ĠM unicipality
Ġvide os
b oth
h o
Ġmin i
Ġperform ers
m id
ĠP oll
Ġart if
ĠPr ice
Ġwarn ing
ĠSt orm
ĠSerb ia
Ġc ub
ĠB ee
ĠPruss ian
Ġinter act
Ñ ģ
Ġcontin ent
Ġ185 6
u cc
Ġemploy ers
ĠK in
ĠD uchy
Ġvis its
ĠGene va
k g
Ġf o
ĠU ntil
ĠArch ives
L B
Ġres on
Ġcompet itions
Ġqu oted
ĠEurope ans
ĠC rim
ĠP ick
ĠChap ter
Ġre de
st ock
Ġst yl
ĠPal mer
ĠCra ig
Ġpsych iat
is ons
Ġmill ions
Ġserious ly
Ġ ic
Ġc iting
ag les
19 37
19 33
ĠGuard ian
Ġb ones
ĠBalt ic
ij ing
Ġcl ot
il ogy
Ġcomposition s
Ġlun ar
Ġra ids
ĠPl ate
S y
r one
Ġh ur
ĠH amb
Ġrif le
Ġse eds
19 38
h art
Ġl ights
om atic
ĠNap les
Ġc ere
uss els
Ġpit cher
ent ry
Ġmem or
Ġsole ly
l isted
S panish
ar is
Ġ10 4
rag ue
Ġfif teen
Ġf atal
19 34
ĠG ir
ant o
Ġne uro
ĠMarc us
ĠBr ight
Ġim per
Ġpack age
ĠMov ie
Ġdiscip line
C ount
ĠTh ai
Ġaccept ance
Ġprox imity
Ġbe am
M unicipal
or rect
form ing
ĠDep uty
an ing
ip per
Ġpreval ent
Ġfre ight
ru p
Ġmut ual
ĠAg reement
I rish
Ġrel uct
Ġprov isions
Ġfoss il
Ġan th
Ġr ings
Ġcompr ised
Ġdiscrim ination
s ur
che m
Ġassemb led
w aukee
Ġs izes
Ġra id
Ġimm un
oca ust
Ġsubur ban
Ġtheolog ian
Ġst ones
os ity
Ġmineral s
Ġcondemn ed
Ġint ellig
Ġpl ates
Ġtru ck
Ġsus pected
Ġmerch ants
oc hem
Ġexp elled
ĠStan ford
) "
a que
if ts
Ġexam ination
Ġprec ise
H ow
ĠMus ical
ĠBav aria
ĠS ug
. âĢĿ
y ers
Ġs ung
bor g
ĠLu ke
ĠO pp
ins ky
ĠCons ervation
Ġbox ing
Ġdec ide
Ġpremi ere
Russ ian
in as
19 35
ĠAn y
ĠCam eron
Ġon wards
Ġterm inology
Ġdebut ed
a ic
Ġbe er
ate ver
reg ular
SC O
ĠK il
Ġl ens
land ers
ĠInt el
Ġcrit eria
Ġrad ius
Ġprohib ited
Ġg ear
Ġrev ived
Ġmonaster y
th is
ĠLeg end
Ġpopul ous
Ġtim ber
Ġalleged ly
ĠB es
ĠD est
Ġ185 1
CA A
Ġfriend ship
Ġpropos als
19 14
part y
Ġpeak ed
ĠM ul
Ġtw entieth
Ġexplos ion
Ġdiox ide
Ġnorth western
bu ilt
Ġh o
Ġa ster
ram ent
Ġinter val
ĠS au
ir i
Ġper ception
S T
Ġdisput es
Ġc emetery
ĠClark e
Ġle af
ĠLud wig
ar ians
ĠC hel
ĠEnter prise
Ġl y
us ually
che l
ĠEd ge
Ġmonarch s
Ġn inth
ĠApp l
Ġexp on
not es
ansk rit
ct ive
Ġlas er
ĠF A
Ġth orough
Ġcompet ed
Rad io
Ġco ined
Ġent repre
Ġcut s
E M
osp here
Ġfif ty
Ġas king
c ium
Ġas h
Ġagre ements
Ġorient ation
Ã ī
Ġencoura ge
y g
et erm
ĠBl ake
Ġcompl icated
V ideo
b les
ĠG and
ĠC IA
el est
v ised
ou p
Ġex it
Ġchem ist
ust ion
ĠMore over
Ġdire ctions
Ġb are
r ade
Ġtal ent
Ġprompt ed
Ġod d
Ġb aby
ĠT ak
Ġs ang
Ġb ell
Ġwe aken
Ġchap el
Ã© r
il ateral
Ġsh aped
rid or
ident ial
Ġelev ated
c ule
Ġfind ings
ĠArmen ian
aff e
Ġbom bs
Ġf irms
Ġunder graduate
ĠSc out
Ġt ie
Ġ18 37
ĠMur phy
ĠC inc
ed o
Ġcap abilities
Ġd ish
ĠCol ony
Ġarr ive
ĠR av
Ġlab els
Ad d
ĠF antasy
ĠV iol
pl ane
ject ive
Ġsepar ately
ĠM ing
Ġper cussion
st age
ĠF BI
ĠV at
ĠJ upiter
Ġqu iet
ator ies
Ġaccommod ate
s im
ou rag
Ġo sc
Ġfriend ly
ij i
Ġ1 12
Ġ185 2
Ġoccas ional
ĠAlb any
ĠE aster
Ġsum mit
ĠRock y
m ates
it ated
ĠT oy
ĠC anyon
ĠBob by
Ġbl acks
ai ro
Ġautob iography
ĠSu ff
Ġlaws uit
Ġvent ure
ol en
rou d
Ġorgan isations
. :
Ġh oles
Ġcl an
Ġcomp iled
Ġfra ud
ĠObs erv
ab l
Ġ18 36
ĠCh ampion
ĠInd o
Ġauthor ized
pr ises
ik o
ĠR oth
ĠF uture
Ġsu re
ĠDar win
Ġwithdraw al
ĠM idd
19 22
ĠCar th
Ġattack ing
Ġsubs et
Ġass ert
Ġcomp ression
van ced
ro kee
Ġas k
Ġdist ances
Ġexpl oration
Ġtact ics
Ï Ĥ
Ġbe aring
ĠFl ag
ĠSy rian
Ġpoor ly
ace ae
ĠBe au
ĠFer r
Ġcorrespond ence
Ġto b
Ġcert ified
) )
Ġneighbour ing
F ort
man uel
194 3
Ġexcell ent
ĠC ord
em ann
w ind
ĠO ct
Ġprocess or
Ġsubur bs
Ġf aces
19 29
ĠPerse us
Ġcom merce
ĠDep ression
Ġscholar ship
Ġtal ks
A tt
ĠA ch
Ġmilit ia
Ġlight ing
ĠK ur
ĠD iet
ol and
ĠYugoslav ia
Ġre nown
Ġab ilities
ĠRhod es
Ġcor rel
Ġn erve
Ar thur
ĠBra h
o que
is a
Ġc ave
f an
art e
Ġge ographical
ĠP eng
Ġloc k
Ġwid th
cel ona
Ġconj unction
ĠMond ay
ern ess
Ġâ Ĥ
Ġenh ance
S ing
O s
Ġbo ost
Ad jacent
Ġmoment um
ĠDomin ican
Ġremember ed
al og
Th at
b en
r atic
Ġt ension
el ia
ĠP lymouth
ĠEnvironment al
h l
m akers
ĠFin ancial
Ġt ends
Ġw elfare
ĠS A
ĠJ ur
Ġqu ar
Ġtorn ado
ĠEm my
ĠCh airman
Ġn urs
Ġtr ump
N C
id ad
Bir ths
ight ing
az e
Ġconf irm
ĠCong o
Ġnucle us
s ized
ĠN ext
ĠAnt ar
Ġthreat s
ĠShort ly
Ġ( +
ĠAnn ual
Ġsens itive
Ġtransport ed
Ġact ively
f ast
ĠT roy
ĠS ard
Ġk ick
ĠHe ath
Ġprep are
ĠC ec
Ġte a
p us
na issance
Ġfocus es
ĠBang lades
ĠC ort
ĠR ice
Ġcoff ee
Î ¹
Ġstud ios
lik ely
19 32
ĠLeg ion
ĠOffic er
ĠB od
Ġad equ
Ġen able
ĠStud io
Ġre print
Ġprov en
Ġopp osing
Fran k
Ġep it
f ly
Ġt ale
Ġnit rogen
b ird
ĠR ut
Ġcontinu ously
Ġautom atic
w alk
Ġtem ples
arter ed
ĠW orth
19 31
Ġaff iliated
Ġcru cial
Ġlast ing
Ġexpl orer
ĠTerm inal
Ġcan cel
ĠFil ip
Ġd ancer
Ġ1 17
ph is
Ġpar as
Ġdr ives
ment ation
Ġaut onomous
Ġfoot age
i ens
im p
end ers
amp a
Ġlog ical
c ity
Ġseg ments
G reat
Ġequ ilibrium
ĠSt rat
Su per
Ġdefe ating
year s
ĠGh ost
im ony
Rich ard
per ors
uk i
Sc ott
Ġt icket
ĠT ax
ĠC ob
ĠB iography
Ġfor ty
Ġinher it
Ġall ied
Ġshe et
ĠAnd rÃ©
Ġh ospitals
Ġout come
ĠSat urn
Ġs ax
ĠD ew
ĠSh ore
Ġdifferent ial
ĠGl ou
Ġut ility
n umber
ĠS oon
ĠE rie
ĠJ oint
Ġninet eenth
m ate
qu in
r ians
Ġtri ple
ĠL ak
Ġrenew ed
v ation
quir y
F oot
d em
ĠAb u
ĠWind sor
Ġd ust
Ġacc us
Ġadv ocated
un ch
est rian
Ġform ats
ĠAll ies
Ġcreat or
ĠUnivers e
ĠH arm
;" |
Ġun ited
Ġsett ings
ĠPresbyter ian
ĠBe aut
Ġdiscontin ued
Ġabs ent
ĠHug o
ĠStat istics
Ġan x
ĠGust av
ĠN athan
ĠN umber
ĠUs ing
ĠGi ovanni
ĠCypr us
Ġup ris
Ġosc ill
Ġcop yright
I R
Ġpolit ically
Ġcommit ment
ĠC and
ĠD rag
Ñ Ĥ
Ġput ting
Ġf inger
Ġop ens
Ġg ymn
Ġsat ir
Ġgall ery
ĠA rena
Ġcoord inates
C ulture
Ġt um
ro v
ne ver
Ġrel iable
ĠArch ae
ĠF at
Ġres umed
Ġtour s
ĠE ve
ov es
Ġarran gements
bu ilding
re qu
Ġmission ary
Ġcitizens hip
M Hz
an che
Ġ184 6
Ġax i
f old
op ot
ĠPl ain
ato es
ĠSerb ian
ĠColomb ia
ri pp
apt ers
ĠScient ific
R et
Ġm ills
isp here
Ġre ward
Ġnew er
Ġfact ories
ĠHol mes
Austral ian
Ġpriv ately
l ore
ĠS ie
19 25
Ġdo ors
b ian
al ism
Ġc ock
A lex
hold ers
ĠIm m
Ġastron aut
le e
Ġremov ing
Ġresign ation
ĠEug ene
Ġinter cept
Ġbre ath
Ġext ract
ĠCorn wall
id ance
Ġqu ot
ele ction
role um
B u
con nect
Ġcar b
in ia
Ġse al
ĠPolit ics
p it
19 19
Ġg rey
190 1
ĠPan ama
b ek
á ¸
Ġ urg
Ġac oustic
b ank
in um
ĠE ff
ass y
Ġplayoff s
f ive
Ġ184 9
ĠMarsh al
Ġpref ix
en o
ber y
we ek
Ġvol unt
Ġtob acco
Ġaware ness
7 00
Ġtr iangle
ĠLim ited
Ġpres ervation
Ġ icon
19 27
Ġen lar
Ġj ew
Ġswit ched
Ġp ush
ĠT ogether
ĠK id
ount ed
ĠV ers
ĠInd ies
ĠBer gen
ĠOper ations
en os
Ġwhe at
Ġadvoc ate
Ġtel esc
ĠPar ad
Ġarg uing
Ġl ift
ĠJ e
pt ions
ĠGrand e
ĠPhilipp ine
Ġlingu istic
og ene
ach i
u ros
ust rated
Ġj e
W estern
Ġr ide
Ġcl ay
Ġaband on
Ġtrad ed
Ġde ce
Ġteach ings
an ne
inn ati
Ġpo le
Ġpract iced
Ġmar itime
Ġcivil ization
ĠMoroc co
ĠMal ay
ĠB alk
ĠWith out
Ġs isters
Ġor ange
Ġev ident
ific ate
Ġappl ies
Ġcomple ment
Ġd ys
ĠN ancy
Ġseason al
l ength
onn ell
ĠLin ux
Ġre ly
Ġtribut ary
Ġharm on
ĠP ink
ild a
ĠPrim ary
Ġenorm ous
r ine
Ġcolle agues
ĠCommission er
Ġa w
Ġal k
Ġmet ric
est ock
du ctor
Ġfe e
Ġneigh b
m atic
les iast
inc ess
ĠV as
Ġcertain ly
A ut
ty p
reg ation
ĠSus sex
Ã Ł
al g
Ġb rew
Ġ185 3
Ġproport ional
Ġveget ation
m ail
Ġconsist ently
Ġphot o
ĠSol omon
ww w
Ġparam eters
S ur
Ġp ill
Ġg auge
Ġt ables
ĠCroat ia
19 23
Am ong
Ġemer ging
ĠGib son
Ġreal m
col m
Ġdet ected
mon th
ĠE uc
Ġintrodu ce
mun ition
Ġgain ing
i Ã³n
p her
r ics
Ġf ru
Ġpresent ation
Ġfact o
Ġdig it
Col umb
Ġun ions
ĠCl if
ĠKn ights
I X
v or
ĠW as
Ï ģ
Ġn ose
ĠF ace
ĠD ol
Ġconsid ers
Af rican
Ġcongress ional
Ġst ake
op ath
ĠK el
ĠSh ir
Ġshe ep
Ġtr ies
ip el
Ġimport ed
Ġdepart ed
Ġpick ed
ath on
Ġd ens
ĠAr ctic
Ġcr icket
ur rection
19 21
erv ille
P o
im o
ĠD uck
W ater
ĠF un
ĠG olf
Ġmark ing
Ġcogn itive
ĠI X
ĠIn g
Ch ild
hib ition
Ġge ographic
Ġsail ed
M ont
al us
ĠF ine
Ġprison er
E SCO
Ġadvent ure
Ġautom obile
Ġautom atically
b led
Ġp upp
ĠT as
Ġphil anthrop
ĠC rick
Ġexcept ions
Ġaccord ance
un ning
cy cle
ĠV e
Ġaccompl ished
j ord
ĠT ales
c ap
p ers
Ġst ick
ĠSher man
G reek
ĠM oses
ĠBr ussels
ĠAmaz on
Ġdisapp oint
um en
inn ed
ĠG ang
Ġair ports
ĠS ony
ĠW ang
Ġancest ors
D o
ĠB und
ĠBe ijing
ĠÃ ģ
Ġeth n
Ġbroadcast s
Ġster e
ri er
Ġphys ically
Ġfeel ings
ĠC reat
Ġmod es
ĠMil waukee
Ġjournal ists
Ġstream s
e ens
ick ets
isc her
ĠCru z
Ġs itting
att ed
Ġcollaps ed
ĠG erald
Ġeng agement
Ġsurn ame
Ġt elling
Ġcritic ised
Ġpron oun
ĠR abb
Ġsust ained
Ġdisappe ared
im ental
ub ble
ĠMy th
S ocial
n ormal
Ġsur prise
B ra
ĠC ros
Ġex ports
Ġappl ic
ĠG ospel
Ġfocus ing
Ã© g
Ġturn out
ĠL af
Ġt ut
ĠG ur
Ġelabor ate
ĠB ark
cl iff
ĠAir craft
ĠC ave
Ġsc r
ene g
roph y
ck er
ĠRo om
re z
om i
ĠG iants
Ġrat ings
iz a
Ġstri kes
Ġpurs ued
Ġdet ection
Ġspons or
Ġdis hes
ĠA L
Ġastron omer
Bur ials
Ġderiv ative
M ark
Ġredu ces
Ġwid ow
Ġâ Ķ
Ġcap ability
Ã¶ n
aur us
estab lish
ĠS port
Ġag greg
osition s
ĠAlbert a
R oyal
In f
Ġstri king
ĠCont emporary
L ittle
er ical
Ġag gressive
ĠLeop old
M ac
ĠAd olf
ĠTra vel
lo o
Ġafter math
Ġwrest ler
ĠIb n
D ec
ĠF oster
Ġh tt
Ġg host
Ġcateg or
Ġg ates
Ġcirc les
Ġpaint ers
b et
ĠCh art
ex p
ĠIndust ry
Ġorg ans
govern ment
Ġdeclar ation
Ġaddress es
is dom
ĠKaz akh
Ġ1 16
ĠOak land
Ġtra ct
Ġenroll ment
ĠLithuan ia
Ġqu arters
ĠComple x
Ġs au
ĠCon rad
s ince
ĠQu arter
Ġmeas uring
Ġgener a
Ġbreak s
Ind ian
P at
Ġst roke
Ġevolution ary
A p
F our
ver age
ĠD aw
Ġint ensity
Ġinter f
Ġcontribut ing
ian e
Ġview ers
Ġbene ath
Ġvulner able
oph on
Ġdefe ats
Ġphot ographer
Ġtrib al
e ctions
ĠH ipp
ĠOtt awa
m ud
ĠB end
Ġrec onst
Ġchrom os
Ġ >
er r
ĠW ord
Ġgr ants
Ġcon ceived
qu et
h y
ĠG arc
Phil os
ĠS ah
ĠG am
Ġpul led
c est
19 10
bo at
bo oks
ĠP av
Ġinform al
F amily
M E
ĠLe ad
19 28
Ġgrand son
ĠG ael
Ġres erved
Ġgu ests
ĠBar celona
Ġinf ant
Ġflood ing
Ġfin ishing
ĠBel arus
E very
Ġstrict ly
Ġimpro ving
B iography
ill on
ĠK ay
ĠGl enn
Ġir re
ĠDiam ond
Ġe ar
Ġthan ks
Ġfe eding
ash a
u ity
Ġd ense
ĠChe rokee
ĠSc reen
Ġaut onomy
Ch inese
h t
Ġexper ts
Ġcust omer
Ġdecor ated
ĠM Ã©
ĠWars aw
Ġs ampl
Ġinst ances
Ġh ull
Ġep id
Ġcompar able
vious ly
ĠBulg arian
Ġt aste
ux ili
ĠBroad casting
ĠPopul ar
Ġ18 38
Ġpolynom ial
air y
ĠRes erv
B ig
Ġl ux
Ġste ep
ĠAlph a
ĠH ood
ab ad
Ġpropag anda
B r
ag ers
Ġam endment
ĠConst ruction
Ġpregn ancy
Ġanthe m
D ue
Ġm anga
ĠM TV
ord inary
Ġrel ie
isc al
ĠIn itially
ath a
Sw ed
et us
rit ion
Ġbot an
Ġdiagn osis
art ed
ĠGre ene
ĠJohann es
ĠAgain st
P P
ĠBe h
Ġprogram mes
Ġign ored
ĠCinc innati
J ose
ound ing
onn ie
aus s
Ġdro ve
ĠWeb site
L atin
ĠY e
ĠSalv ador
is ely
od ore
Ġaccount ing
ĠCzech osl
L aw
Ġat om
Ġdis band
Ġtownship s
Ġs odium
ĠH yd
ĠW ool
j ust
ĠCh all
Ġunder go
ĠPr iv
it ational
Ġf ate
Ġcon ve
ĠHein rich
I F
Ġdef ining
ĠNash ville
th lete
ĠI T
ĠBed ford
ong s
ip ients
ĠOw en
V ol
Ġinse cts
c aster
Ġnovel ists
Ġsusp ic
ĠKÃ¶ ppen
Ä ĵ
ir ate
av an
Ġwa iting
ur an
ra ys
ĠEd gar
Ġqual ified
ĠH ockey
Ġra pper
Not e
u en
ĠI ber
ĠJ unction
ro b
Ġdevelop ers
Ġlack ed
ĠPlay er
Ġ18 15
ĠConc ord
M er
ĠVill a
ur ban
Ġassess ment
ĠM Ã¼
Ġinter ven
Ġmir ror
Ġg ases
ĠHan over
u ke
at em
ĠM Äģ
ĠĊ ĊĠ
ett i
Ġsen ator
ĠP ale
Ġv ig
Ġpar ade
M ad
tern oon
ĠY ang
is che
ĠL ap
Ġsuff er
Ġelectron ics
wid th
ut ter
Ġcons erv
Ġplan es
ot ypes
19 26
ub s
ĠSc ar
ĠB asketball
Ġbo ards
ĠScot ia
Ġtend ency
Ġcryst al
T ra
Ġf ires
Ġevent ual
ĠStud ents
Ġinstall ation
Ġvolunte ers
ent e
ĠStock holm
ĠS ter
spe cies
Ġcrown ed
Ġm ature
ĠO st
Ġtarget ed
Ġrese ar
Ġavail ability
opot am
s al
sh ore
omet er
a os
ell ation
l ia
ĠBudd ha
ĠLuxemb ourg
st ory
ĠL GBT
ens ing
l ist
is ch
Ġde als
ĠPr ivate
Ġfast est
ĠPhys ics
ĠLegisl ature
g ae
ut ing
Ġreflect ing
Ġab d
Ġpe er
Ġpass ion
Ã³ w
id ian
ĠP rest
Ġpark ing
Ġkill s
19 12
Ġmet all
com es
Ġexpl ored
ĠM obile
angu ages
s ometimes
he ro
Ġhe ating
Ġrenown ed
an z
ĠS anskrit
Ġhar sh
ĠSax ony
C ath
Ġdemonst rate
Ġamb assador
Ġsur pass
ĠC rom
Ġpl asma
Ġch ains
ĠVen us
ged y
Ġpay ing
W omen
ĠM ig
ad al
Ġathlet es
Ġur anium
b ad
arm a
z es
Ġun likely
ĠRe ading
Ġdo zen
Ġmon ks
ĠPar amount
edd ed
is ode
as is
Ġ184 7
ĠUnder ground
E p
Ġw ake
ĠC od
ne um
ĠB ak
Ã¡ s
Ġceremon ies
S l
j ud
ĠIn v
gh ai
Ġsh ots
Ġcolon ists
ithm etic
ĠLe ader
Ġequ ality
ĠHur ricane
an or
Ġterm inus
Ġ ions
Ġse ctors
19 24
int o
Ġkid n
c end
Ġ184 5
ab e
ov sky
ĠS pect
V A
Ġh orm
io let
Ġdeter ior
f ried
ĠC itiz
ĠHol ocaust
th ree
ĠSol ar
ID S
Ġfrag ments
el ius
ĠR ican
ĠG ru
ĠProfess ional
ĠChron icle
o ided
ia e
Ġinter ference
Ġpra ise
ĠSoft ware
Ġde ities
19 17
ĠTh under
Ġsoph istic
Ġsp o
Ġgraph ic
enh agen
Ġ ell
ĠC A
Ġnumber ed
Ġpersu aded
ĠP ath
pect s
Ġcol ours
p ot
ĠC umberland
Ġconspir acy
Ġin equ
os ely
ĠLe ft
Ġdo ctors
Ġassoci ations
Ġver t
Ġcollabor ated
ĠAristot le
Ġk ne
Ġ10 6
alt ies
ĠPet e
Ġprior ity
ĠProt ocol
Ġrub ber
ĠAd v
Ġ18 32
Ġdown load
ĠFif th
Ġartif acts
Ġp ale
ĠS ad
ĠJ ess
Ġres olved
Ġtra ce
ro at
ĠP iet
Austral ia
ĠCl aude
Ġe cl
du ct
ich i
ĠRichard son
Is rael
ĠH ack
ort s
cl ing
Ġprevent ing
ĠSlav ic
ĠH ir
Ġunder went
Ġge ography
ĠEp iscopal
ĠLore n
ĠT yp
Ġn ode
Ġr ated
Ġav oided
b acks
id an
ĠE C
ĠJ en
M at
Ġfact s
ĠTom my
ĠCh an
Ġconsid eration
ĠWell ington
Ġc ad
Al so
Ġfront ier
E xt
Ġr iding
S chool
ĠR NA
Ġbass ist
Ġf action
Ġde ity
Ġpubl ish
Ġins cription
Histor ical
produ ced
S m
famil y
abul ary
Ġscatter ed
ar ag
ul i
ĠK ap
Ġenc ourag
Ġachie vement
ys on
ĠFI FA
ĠLank a
ard e
Ġback ed
Ġrecru ited
r ise
Ġd warf
ad der
Ġacqu ire
ĠN as
Ġth row
Ġsacr ifice
ĠZe us
Ġamb ig
Ġlect ures
S aint
Ġdec omp
Ġest ates
Ġread er
Ġnation wide
L ong
h uman
Ġd ying
ĠIr ving
Ġcorrespond s
ĠBry an
G o
Ġlist ing
Ġsw ing
ad ia
Ġfound ers
ĠBat man
ĠVat ican
O fficial
ar at
ĠN uclear
Ġnerv ous
ĠReyn olds
Ġan ime
ast ing
l en
el ian
ĠN y
ĠN CAA
ĠPresident ial
Ġfail ing
ĠAndrew s
f red
ĠSe x
Ġviol in
ĠK iss
Ġ13 0
Ġhot els
Ġsubst ances
C he
qu arters
ĠV iking
Rec ipients
ĠAd rian
Ġdivor ced
ĠCost a
S D
T er
Ġam munition
ĠGl ass
Ġtre as
d ig
ĠH off
Un incorporated
ĠHam pton
Ġvow els
iz ard
Ġcorpor ation
ex ual
Ġtow ers
Ġpres erv
Ġconstant ly
Ġconduct ing
os ion
Ġeconom ist
Ġmass es
Ġchampionship s
ĠR at
ah u
Ġass ume
own er
Ġgeneral s
Ġhapp y
ĠChrist ie
ĠCraw ford
Ġheadqu artered
I L
S am
Ġhost ile
Ġinterest ing
Ġuniform s
Ġl ip
ĠLegisl ative
Ġlegend ary
ĠSeb ast
p ing
ĠK on
ĠUS SR
Ġsol ve
g io
ĠC ore
ĠR ank
Ġsub div
Ġbi ographer
Ġpreced ing
ĠW ed
i ological
Ġpost s
Ġlo oks
Ġpil grim
ĠSpe ed
approx imate
J ust
ĠVlad imir
Ġf isher
l og
ĠM ath
uck er
Ġsym path
Ġveter an
ir able
Ġcirc uits
O L
ĠS iber
ĠP att
ĠH aving
ĠSh ar
Ġide ology
Ġec osystem
ĠM ade
ys ics
Ġcompat ible
Ġfav ored
ĠCap itol
Ġas ks
ĠO g
ĠV ed
ather s
Ġbre ast
Ġnickn amed
Ġlegit imate
Sax on
C urrent
ang ered
yr ian
Ġpos it
Ġp in
Ġhum or
Ġkingdom s
al is
ĠB ased
Ġprec urs
ien ne
ĠâĤ ¬
L iter
i ating
ĠDe uts
Ġimp ression
et ing
ish i
ĠVir t
ĠIndones ian
Writ ers
Ġelig ible
ĠHamb urg
Ġtrad em
Ġprot agonist
ĠPer iod
ĠAtl as
ĠH D
ĠLou ise
ĠErn st
P rim
al ach
ĠM ine
Ġun ve
ĠS hen
19 11
je ctions
b ai
ĠLar ge
ad ier
ĠB anks
Ġlay out
d ec
ĠA chie
Ġinvest ors
ĠAst ron
Ġrem n
d ist
ac ular
ĠA aron
ĠT itan
Ġattribut es
Ġexhib its
ĠBab y
v id
Ġfl own
pr ised
Ġmole cule
Ġlaure ate
b r
re a
on ial
Ġed ges
ĠCP U
th ood
ĠHab sburg
p opul
ard i
ym b
neg ie
ĠF ul
Ġreve als
ĠConf ederation
ĠRel ations
ĠâĶ Ĥ
Ġc up
ĠF ras
ab ling
Ġcool ing
Ġatmosp heric
Ġt ended
ĠP orter
Ġrun ner
Ġt enth
Ġimp ressed
Ġinstitution al
ĠVenezuel a
ok u
ec hes
Ġnational ist
ĠMem phis
Ã¸ r
Ġalleg ations
Back ground
in ks
Ġland mark
ĠHend erson
Ġc ran
zy me
en ic
c over
h urst
ĠG ott
Ġext ant
Ġsubt ropical
ch ief
ip zig
15 0
Ġd ancing
ĠNew port
ĊĊ ĠĊĠĊ
Ġsuff ix
ed e
ĠF olk
Ġst aged
Ġst amp
ĠW atch
Ġv oyage
Ġrec onstruction
Ġsc ar
Ġkey boards
ĠM am
ĠWes ley
" |
Ġc rack
ĠA ur
ĠSe ason
Ġaim s
ĠRoc hester
Ġ18 35
Ġdesc ended
ĠSl oven
Ġcab in
ĠV ent
Ġstrateg ies
D r
Ġcl uster
Ġadd s
ĠDev il
Ġcont empor
ĠM az
ĠH ook
Ġroll ing
ĠProdu ction
È Ļ
av ier
ĠH umph
Ġcont am
Ġprop ri
ĠMal colm
e per
Ġmanag ers
ĠVar ious
g reen
ant om
Ġmet eor
ĠUN ESCO
ĠM old
ĠPr ison
Ġt ongue
Ġfe es
Ġpract ition
Ġb arrier
ĠC ann
Ġnot ing
Ġ184 4
P roduction
Ġ10 9
Ġcouncil s
op ened
ap est
ĠClass ification
ĠP i
ost ic
Ġsail ing
ct uary
Ġj ail
Ġdiscuss ions
Ġsubstant ially
ĠD owntown
osh i
ĠC lear
Ġ" ...
gen er
V al
Ġb ind
ag i
Ġpe as
Ġfl ank
Ġ10 7
Ġke ys
Ġvict ories
Ġnoble man
Ġrent al
Sh ort
Ġmort ality
ĠEd win
ĠPra irie
ser ver
c ill
Ġlif estyle
Ġf ever
Ġco oking
Ġconsum ers
Ġconcent rations
ĠDur ham
D ay
Ġin herent
Ġst atic
ĠSher iff
ĠS le
ĠR ugby
ĠC anton
Ġun con
aj a
f ounded
Ġgu idance
E L
E N
Ġs aints
ĠK rist
ĠK urt
Ġcoord inate
Ġo ath
Ġas ide
ĠStra it
Ġtrou ble
rop olis
ĠTex t
Ġp el
Ġincl usion
ant i
amb o
ĠPublic ations
Ġl ord
op rano
ĠS N
oura ble
Âł Âł
Ġsystem atic
Ġintrodu cing
Ġdiv ide
Ġbank ing
ar ity
ra ction
Ġprom ise
stitution al
iv ier
19 13
Ġphot os
ĠPot ter
O P
ĠP rague
Ġult imate
light en
m al
Ġb ureau
ĠS z
Ġhar vest
v als
ol ves
ĠP ars
Ġun ified
Ġbut ter
Ġgar rison
a q
Ġthr ust
Ġtox ic
ĠB ever
int ed
Ġcy cles
v ik
Ġrev ers
Ġtop ology
Ġdest inations
Ġcontroll ing
auc as
ĠG ren
ĠRang ers
ĠB orn
ra cks
ĠAll an
Ġadv ised
Ġexcess ive
ĠSaf ety
M ale
at ial
it ars
Ġag gress
G od
ur red
ĠF ly
ile e
ĠâĢ ¢
Ġorb ital
ĠVern on
Ġsusp ension
Ġdict ator
Ġsp an
ĠArt ists
Ġrender ed
Ġconsum ed
Ġrepl ied
Ġincorpor ate
z on
omet ric
C R
ĠS elf
ĠD rama
ĠBur lington
Ġt ales
anc ock
Ġsymb olic
Ġprem ier
Ġtub es
Ġenact ed
ĠB ronze
Ġmed als
Ġrele asing
Ġeth ics
Ġterror ist
s pring
ĠD um
Ġwhe els
at che
Ġl ighter
ill ance
ĠAlban ia
e ven
Ġf ier
Ġs its
Ġac ute
Ġoverwhel ming
Ġo ak
idel ines
Ġliv estock
ers h
fer red
ĠEll is
Ġtra ced
Ġdef ault
ist ically
Ġnational ly
Ġdoes n
Ġsubs id
Ġreflect s
Ġdeterm ining
st able
Ġout standing
Ġadv ances
ĠN ote
pl us
Ġwe igh
D utch
Ġsub ord
Ġimm une
ĠRh ode
ĠProdu ctions
af e
ĠA ragon
ĠF lying
ĠEconom ics
Ġstret ch
o ine
ĠK ill
ĠAd vanced
Ġille g
le ments
ĠInstit ution
Ġdepict ing
ĠBanglades h
T oday
ĠMan or
ĠGen eration
Ġun t
ul ator
ell ows
ĠDe b
Ġgl uc
ĠS old
ĠT all
ab a
Ġ18 39
ĠHawai ian
ĠLet ter
M r
c ence
ĠSp ider
Ġpure ly
Ġth read
Pro t
se at
Ġsk ull
Ġbomb ers
Ġearn ing
ĠJama ica
ĠPtole my
Ġbr ings
Ġnut ri
Ġnational ism
b eck
ĠMon ument
ã ĥ
ĠG amb
ie ce
E F
Ġit em
ĠAgric ulture
ol ving
ĠLyn ch
Ġt ou
Ġparticip ating
Ġgovern ors
Ġcr ashed
Ġess ays
Ġenroll ed
l antic
ĠP on
Ġem issions
sp ace
Ġsurrender ed
Ġveter ans
ĠLenn on
ĠFer ry
ĠCh ase
eth yl
Ġpath s
S oviet
Ġemb edded
Ġrival ry
] .
ĠC os
ĠC ities
Ġco ok
Ġrun way
ĠM ao
ĠBar ack
Ġpost ed
play ing
ĠSen ior
ĠDun can
Ġelectrom agnetic
Ġal ly
Ġfe ared
Ġaut o
Ġdram atically
lesiast ical
ĠSch w
zh ou
M iss
Ã ¯
ĠS ul
ĠR aid
Ġj ack
ĠEthiop ia
D en
ĠC arson
ĠJ ung
Ġadvert is
histor ic
Ġwork er
Ġarbit rary
ro ve
Ġinc orrect
field s
ĠCam den
ĠMic key
ĠN one
it ory
ĠBrit ann
Ġexp ense
ĠB ess
Ġart work
wa it
ĠArgent ine
at ur
the re
Ġmon uments
Ġsm oke
ĠWork ers
omorph ic
i ad
ĠI de
Ġbankrupt cy
ĠC ox
ly s
Ġres ist
U C
Ġ18 14
St ation
Ġpregn ant
Ġmix ing
em a
ph ones
Ġ17 90
Ġopin ions
Ġwa it
Ġm asc
ĠG ent
Ġint r
Ã© m
ĠLiber ation
P R
Ġris ks
Ġannounce ment
Ġunex pected
Mich ael
ĠCh o
cer pt
Ġbound ed
Jose ph
ĠMot ors
Ġenh anced
Ġabund ant
Ġtr ick
Ġcompan ion
Is lam
lighten ment
P eter
Ġdeg rad
Ġreve al
G N
es pecially
ĠT amil
ĠUS S
Ġread ily
found land
Ġsupp orter
zer bai
ol ism
com b
Ġsit com
R oad
ad vant
Th ough
ym met
gra ve
Ġbelie ving
Ġeat en
Ġw ished
ĠP ract
Ġch ips
ĠSuper man
" âĢĶ
ing en
ĠAl leg
fl ow
ro oms
ain es
Ġdraw ings
C or
W ood
ĠM ob
Ġch ip
ĠPro cess
Cent ral
ĠDu chess
H A
Ġimprison ment
Ġalgebra ic
Ġl umber
ĠW ake
Ġsp ite
ĠPl ato
Ġcorpor ations
d ire
Ġt ensions
Ġv ibr
B ut
T ime
an ch
ie v
Ġab ortion
Ġ12 5
col or
Ġcomm od
Ġshall ow
ĠC it
ĠL ink
est own
Ġpart ition
ble m
ĠSal em
Ġjud gment
ĠKn ox
Ġru ins
T rad
Ġemploy ee
Ġjurisd ictions
ber n
rit z
Ġmyster y
19 15
Ġopen ly
b oys
Ġadm iral
ĠTod d
al ks
ĠN S
Ġcomple ting
ĠThrough out
Ġc ord
ĠMar l
Ġbrand s
B oth
el ic
ĠM ak
Ġpres um
Ġsuccess ive
ĠBrad ley
s ome
Ġc ant
Ġp or
ur able
ogen ic
Ġcomprom ise
F ree
An n
f i
Ġqual ities
ab i
Ġvocal ist
g as
aut hor
Ġcomm ands
Ġb iblical
ĠLyn n
Ġdestro ying
om al
Ġtri umph
Ġas pir
Ġd ock
ĠH oll
av or
Ġcompens ation
it ism
Ġbe aches
Ġread s
ĠMor rison
at ics
Ġreg iment
ĠHer z
ĠKen ya
Ġrein force
Ġthe sis
ict s
D ou
ĠT yr
ĠK un
Ġred es
Ġtrav elling
uk a
place ment
ĠCh rys
Ġcont ents
Ġregist ration
Ġquestion ed
U SA
is bury
Ġprim itive
Ġhier archy
ĠB rid
Ġox ide
M ass
Ġr ises
eli hood
Ġl ith
Ġbom ber
g em
19 16
Ġgl ob
Ġcomb ining
pt ic
Ġgather ing
re ens
il ion
rict ion
enh ower
Ġa uction
Ġk m
ĠNew castle
ĠEld er
Ġceremon ial
head ed
Ġdenomin ation
ĠGeoff rey
A v
Ġdec ree
ĠBurg und
6 25
L ake
ĠM au
Ġsufficient ly
Ġpap al
ĠAchie vement
Ġpat rol
ĠWeb ster
Ġth irteen
ĠCar r
ĠY uan
Ġtru ly
Ġphr ases
ĠOd ys
Ġm ask
Ġlist en
Ġvolunte er
Ġdemonst ration
S k
ĠS ons
art ime
ast ed
ĠTun is
am as
ĠJ in
Ġg amb
ĠÃ ł
ĠC edar
ke es
ik es
arn er
Ġins u
Ġexpress ions
Ġdiff ers
Ġce ase
Ġdecis ive
f emale
Ġc av
us ive
Ġexc luded
Ġinteg ers
ĠS T
ivid ed
E ach
ĠC u
ĠF ont
T im
p ike
Ġr het
Ġfre ely
Ġconvent ions
Ġdeleg ates
f unction
Ġa thlete
Ġcon sole
Ġsc ales
ĠNew man
Ġrail ways
Ġconvers ation
ĠMi G
l ies
ĠT ong
o ften
ur ities
Ġ18 34
m ain
ast on
ĠCry stal
ĠC risis
ul in
Ġdef ending
ĠMalt a
p ol
Trans port
Ġastron omy
ĠCh ampions
Ġtra its
Ġass erted
Ġmanag ing
ĠPlan et
ĠTru e
Ġsurviv ors
Ġo l
ĠC ust
ul er
Ġ184 1
Ġper ipher
H ouse
M iddle
he ed
Ġo re
Ġfound ations
Ġcour thouse
ĠCop enhagen
Ġloyal ty
at um
is ure
ĠD iana
aid en
Ġord in
Ġpay ments
f ounder
ĠSh adow
ĠLa ura
Ġpron unciation
Ġaccl aim
ic z
pp ers
ĠChem ical
Ġspir its
am y
Ġâ ī
ĠBir th
Ġshell s
Ġ16 0
Ġm igr
Ġlimit ations
ĠForm ula
ipel ago
re v
ra pped
ĠI sh
Ġle x
Ġbl ow
Ġap ost
Ġw ants
im ar
Ġchemical s
l ights
ĠP ros
ĠCon vers
ĠEx ped
ĠSac rament
H ol
ĠFilm s
Ġhar bour
Ġg ains
D is
Ġdu o
ĠGon z
Ġcommand ers
Ġpartnership s
Ġfurn iture
h ad
Ġr ic
Ġassum ption
1 20
ĠH od
Ġdiss olution
Ġm ood
ĠPl aza
ĠMed ieval
Ġdepict s
V ict
ĠQu int
Ġtreat ies
ĠJul ia
Ġaer ial
ĠNort on
ĠP owers
ĠKing ston
ĠBeg inning
Ex amples
ĠRuss ians
37 5
Ġsatell ites
yl an
Ġvolcan ic
Ġfacilit ate
ĠCatholic ism
M ult
Ġm ad
Ġg est
ĠCurt is
V P
d el
nd ers
am orph
ĠM asters
Ġclot hes
b in
Ġhealth y
Ġsket ch
Ġval leys
Ġflo ating
Ġle ather
Ġhand ed
Ġrespons es
German y
ol ars
if iers
ress es
Ġcar ved
M ary
ĠâĢ ł
ĠD anny
Ġun anim
Ġachie vements
ĠC R
Ġn ights
Ġun m
og l
Ġbi as
M or
Ġheav en
Ġple asure
uxili ary
ern er
ĠFrank furt
Ġemb ry
Ġprec isely
Ġmo ist
ess a
Pl aces
s ville
am ph
Ġ10 8
Ġrev ersed
/ -
Ġb io
ĠZ ion
ĠEm press
ĠPo etry
D onald
Ġph ases
Ġtechn ological
cont rolled
e ur
Ġmem oir
V ar
Ġt ang
on ents
ĠF ig
Ġinv erse
Ġdisc rete
Ġhand led
sc reen
asc ular
ĠComple te
ĠPatri arch
um i
oth s
Ġschem es
on o
ĠT rou
ĠD oll
Ġsh apes
ĠTr in
osp ace
ĠVen et
F e
iv ities
Ġreg ulated
Ġfar mer
E th
ĠM ull
ĠCar negie
ĠGu atem
W A
ĠH itch
it ivity
ber cul
Ġstation ed
i u
k ar
Ġc ort
ro ft
ĠM orning
ia go
Ġmod est
ĠCoal ition
Ġupris ing
Ġed iting
Ġown s
ĠAct s
M ain
Ġman s
Ġtrad ers
S M
omin ated
Ġelim inate
p os
ĠT rain
us a
Ġhon ored
Ġsudden ly
b ase
e lect
ely n
Ġdies el
act ers
ick eter
ĠDev on
Ġcr icketer
be it
per m
Ġmon k
ĠGeor ges
Ġconstit ute
ĠHam mer
Ġl oud
Ġresp ir
Ġreb el
Ġ184 3
land o
ĠPro to
Ġpromin ence
es ch
Ġsimilar ities
Ġbroad er
Ġsyn chron
ĠD ame
Ġext inction
Ġlin king
Ġexpl ore
ĠL if
ack ing
ĠIs s
Ġacc ent
ll i
Ġur ged
Ġmiss ed
ĠTreas ury
Ġ q
Ġ18 33
Ġrel ied
Ġcontr ary
Ġsport ing
Ġe agle
ĠDou ble
E FA
Ġancest or
Ġinnov ation
U P
ĠB ord
ĠE sp
chn ology
Ġprepar ing
Ġathlet ic
ĠC ay
ĠB erm
Ġper former
ĠRe bell
g rand
od ic
ĠNorm andy
E lect
ph ant
ĠY et
Ġ11 1
ĠMil es
ĠSim pson
head s
Ġstead y
ĠH T
Ġsqu adron
ĠK au
Ġsp okes
Ġn an
Ġvo ices
stad t
Ġaccl aimed
T ax
Ġv ectors
Ġir regular
ĠMig uel
Ġw ard
C amp
S il
c i
Ġcon vey
Ġemer gence
Ġbr ut
Ġadvant ages
atern al
ĠCh al
Ġprocess ors
Ġt ram
Ġf ed
Ġover come
Ġsett ler
Ġdoll ar
c u
ĠArmen ia
ig i
Ġed itors
Ġar ithmetic
Ġind oor
ĠA us
Ð¾ Ð
ĠP ond
ut tle
Ġscreen play
u o
ic ul
Ġth rown
ĠV eter
ib us
oot s
Ġtransl ator
ĠFin ance
ĠBey ond
m el
Ġde alt
Re ception
Ġdraw s
i ors
ĠD ow
ell es
Ġgu itars
he res
ĠP itt
ĠH ale
ĠNew ark
ier re
Ġmater nal
ĠFle m
ar re
aw i
Ġso ap
mit t
spe cific
Bl ue
ocol ate
ĠTas man
k ill
Ġrep ublican
Ġsuggest ion
... ]
ol in
ĠL av
Ġem pir
gen eral
Ã¡ r
th irds
Ġdes k
ourn als
rug u
Ġattract ive
Ġdisc ipl
O W
ĠInt roduction
Ġbelong s
Ġh oly
Ġor n
Ġentrepre neur
C ultural
P rior
Ġtr iang
Ġtorped o
ion ed
ri ke
Ġsh ar
Î µ
Ġf ract
ur ia
ĠF landers
Ġprof its
Ch ina
fin ite
Ġrel ax
yl um
Ġell ip
c ip
Ġpre ference
Ġmill ennium
Ġborrow ed
S mith
c or
ĠH ancock
ĠField s
ĠEis enhower
K e
ĠQu art
ĠMax well
J ean
ĠM oor
Ġconstitu ency
Ġcyl inder
on ium
Ġref lection
Ġarm or
ĠLes lie
Ġreact or
y ch
Ġf ont
ĠS C
Ġ184 2
in f
Ġfeed back
ĠS weet
c ience
g ang
Ġ3 50
ĠFor um
Ġrecip ients
ĠShan ghai
he ars
ouri er
ĠS ometimes
Ġfem inist
urg ical
Ġcal cium
on ne
ess ional
iz able
K n
Ġbet a
M in
iv ism
ĠGeor gian
Ġgener ating
el ong
Ġdevelop er
ĠE ra
en ary
Ġschol arly
ĠNiger ia
t ec
Ġcont ested
Ġstates man
Ġpoly mer
ĠBabyl on
8 75
ĠP ione
ĠH ear
heim er
is le
ĠL il
ĠUl ster
j u
in ator
Ġc ass
om ach
ĠMot ion
Ġm inistry
Ġ9 00
Ġheav ier
C oll
S em
Ġcount s
ĠMe chan
Ġdomin ance
ra red
Ġisol ation
mill an
c ounty
ĠM ale
ĠI D
pt ed
Ġcl ients
kee per
Art icles
ĠGard ner
an ian
Ġm a
ĠV oice
Ġem ission
Ġprofession als
Ġtrig ger
rand ed
Ġadapt ations
Î ¼
ĠM ail
row th
ĠStud ent
190 8
C arl
im mer
ĠK ant
Ġins criptions
ĠBur ke
ĠGre ens
ar ium
Ġwh atever
Un ivers
Sc ience
Ġt ent
ild ings
H P
ĠV isc
ĠAra bs
ious ly
ĠDor othy
ĠT ab
ĠE uras
Ġpost er
ĠGl ad
ĠPo ems
Ġp ine
ĠMaced onia
Ġbicy cle
Ġmod ule
Ġemphas ized
Ġang les
ĠH erald
Ġguitar ists
190 5
Ġtr ilogy
re ed
ĠT yler
ĠG em
ĠDav ies
Ġview ing
Rel igion
ĠD im
Ġrep orter
ĠOut standing
m ir
en ne
ĠBe ing
Ġinvestig ate
ĠCharl eston
ĠCroat ian
Ġl ying
Ġam ino
Ġche ese
Ġwild life
ind ed
ĠCongress ional
ĠG ates
Ġdeliber ately
ath am
Ġaf ternoon
Ġsumm ary
ĠR ule
190 7
ĠCom put
Ġc arn
ent in
Ġre ass
ĠEm ma
itte es
Ġdescript ions
n ed
Â ²
Ġ18 21
Ġlaw yers
ĠSav oy
ous ing
Ġcommun icate
Ġaff ects
ĠB ran
Ġwas n
ant le
ĠExped ition
Ġd il
ĠI gn
Ġexam ined
ĠMar qu
Ġmar ched
Ġundert aken
Ġpres idents
Ġinv as
ĠPro vin
Ġp owder
ĠC B
ĠC ou
Ġcur ric
Ġaccept able
c os
Ġmot if
ĠDel hi
ĠM D
Ġch apters
Ġoper as
ĠBl ock
ĠAir ways
Ġmarg inal
ĠInst r
Ġs id
Ġproceed ed
l ag
l ane
ĠM orm
et ition
ĠK em
Ġapp lying
ĠLe eds
ĠPark way
Ġgrav itational
Ġwhere by
app a
Ġhapp ens
oc he
A cc
en stein
ĠU g
Ġro d
Ġspec ification
Ġlim estone
Ġbox er
Å Ľ
ĠM LB
ch ant
op t
m art
Ġeffect iveness
ĠJ ak
Ġcomb ine
uk es
ruct ive
Ġn odes
pl er
ĠSe an
Ġarr ives
ĠHay es
ĠColon ial
Ġreun ited
Ġun rest
ĠPle asant
ĠSid ney
B ook
ĠBl u
190 9
Ġpeace ful
ĠEston ian
Ġb er
iss a
arm ed
ĠBuck ingham
ĠH IV
ĠO pt
ĠLe ipzig
d istance
ĠB ris
Ġbo ot
Ġbit ter
Ġrailroad s
Ġwarn ed
Ġsubmar ines
Ġt ens
Ġb is
Ġsh ipped
Ġman eu
ĠBa iley
Ġconsolid ated
Ġthe ological
Ġserv ants
ĠCon sequently
Ġveget ables
Ġvic inity
ĠReserv oir
f ax
p ose
Ġinaug ural
Ġat he
ĠDisc overy
an th
Ġsqu ares
ĠBohem ia
M ex
Ġinterpret ations
Ġbul let
ĠF ant
ĠSouth west
Ġins pe
Ġsp elled
ĠCol in
eg a
gl ass
Ġdenomin ations
ĠC aucas
ĠH undred
th ird
ast ics
Ġrev ision
ĠÎ ±
Ġexha ust
er os
Ġdis cl
Ġsum mar
Ġsophistic ated
Ġc it
ull ah
Ġexpl or
ĠMes opotam
Ġcoun sel
O x
Ġb rows
oy le
Ġt ab
ĠW end
ens en
Ġserv ant
at isf
ro cess
ab el
Ġreven ues
Ġhe x
Ġgen ome
Ġexhib ited
F in
Ê ¼
Ġsupp ress
Ġsacr ific
Ġrig id
E s
ĠI TV
ĠO ber
Ġr ally
ĠNe o
Ġceleb rations
count ry
g reat
ĠW arri
ov ed
ĠCarol ine
ĠNic arag
Ã± a
ĠH igher
ian ces
ĠMc M
ĠL ed
ĠCal vin
ĠA B
Ġim aging
Ġinst ant
Ġbad ly
Ġfer til
! ,
Ġpro se
ĠCont in
ĠRan ch
in ic
Ġm ock
Ġsub species
ĠT alk
Ġ14 0
Ġnom inee
h ole
Ġh oney
ĠS ak
ĠP resent
og enes
b ane
ĠB oh
ff ield
Ġbirth place
Ġsal ary
ĠAlbum s
1 10
Ċ ĠĊĠĊĠĊĠĊ
ul ative
ov an
ĠLis a
ĠRoberts on
ĊĠĠĠĠ ĠĠĠ
Ġexp atri
Ġparad ox
ĠH alf
ĠPr iest
ĠSw an
Ġfram es
ing ers
ĠM ik
arth y
ĠBeng al
ult s
ĠBl air
Ġcr us
Ġp ic
ett es
Ġmarket ed
Ġmurd ers
ĠTh ur
ĠJohn s
ĠHer o
umb ent
ĠMÄģ ori
ĠB elf
Ġfe ast
Ġany where
Ġadm ir
mar ine
G C
Ġin ver
Ġh opes
ĠHe avy
ĠSoviet s
Ġp uzz
ern el
Ġdesign ers
Ġcy t
B eg
l ic
Ġmet aph
Ġident ifying
ĠRec reation
Ã¤ r
Ġrem arked
ĠTr uth
Bo oks
Ġhelicop ter
et z
Ġproject ed
ĠTer ror
Ġrecon naissance
am oto
Ġint ens
ĠPort s
duc ational
P L
Ġ18 31
ĠCh uck
ĠBel t
Ġwor se
Ġmus cles
ric es
Ġball ot
Ġeval uation
Ġcann on
Ï Ħ
Ġent ries
ĠK or
ĠApp alach
Ġinsu fficient
s ix
ist o
Ġen z
Ġpr incess
to ok
ĠGriff ith
Ġanch or
ĠP asc
od ied
elf th
Ġbatter ies
Ġb oss
ĠCast ile
ĠLy on
Ġrect ang
M D
Ġkn ight
ĠPre fecture
Ġform ations
n ational
ĠC e
act or
tle ment
Ġnever theless
ĠLi u
ĠF u
Ġper f
ond e
Ġgeomet ric
Ġw ool
Ġc ement
Ġsent ences
Ġvac ancy
Ġch ord
Ġpl anted
Ġex terior
Ġemploy er
ĠCrit ics
h ouses
it ian
Ġsh aft
Ġfru its
S ir
ĠT unnel
ard ing
ĠMar tha
Ġevery day
ĠNaz is
Ġlov ed
ĠC hess
Ġcr ust
Ġresid ed
Ġdeploy ment
Ġcontra cted
Ġs or
Ġcl ips
ĠFl oyd
os er
ĠD ul
ĠTur ks
Ġdyn amics
U r
w yn
ĠC ly
oy a
Ġtourn aments
ĠMan ila
Ġ15 00
Ġbreak down
est ead
ag in
Ġshel ter
Ġo wing
Ġ12 8
ĠFer gus
Ġfolk lore
Pres ident
ĠHerman n
Ġapp ar
ĠOr lando
ĠGr ade
Ġflow ing
Ġpossess ed
ĠRebell ion
H uman
ĠP aper
Ġp ist
ĠA zerbai
ĠAnd ers
T om
Ġinter vals
ah an
ĠLind a
Ġdiagn osed
Ġunve iled
ip le
Ġpar ody
Ġdecl ining
Ġoccup y
ĠMin ne
Ġt onn
Ġ18 25
Ġprop he
e a
ĠJ a
vel ation
ex cept
y on
Ġw age
ĠT able
Ġrespons ibilities
Ġnob les
ĠCirc uit
Ġb ills
ĠC airo
Ġpar ishes
Ġcountry side
Ġwithd rawn
ĠAcc ount
ĠRud olf
Ġare na
ĠAl m
Ġrec urring
Ġcomm enced
Ġpers ecution
ĠR ather
ela ide
Ġsp ont
ĠVol unte
Ġs ends
ĠCh ad
ann ah
ĠDay ton
ĠA ub
ĠIndian apolis
Ġhar ass
ĠD ag
Ġad ul
Ġmonitor ing
st s
ip pe
ĠStaff ord
Ġarch bishop
ĠSt age
ical s
ĠDi ocese
ĠB ent
Ġsix teen
Ġp ace
Ġinc orporation
Ġcompet itors
Ġens lav
U ntil
us ions
ig hest
Ġ17 89
inc l
Ġfour teen
ĠGh ana
it he
ĠAl ps
ĠSur rey
Ġst olen
Ġart ic
Ġlo ose
Ġsymmet ry
Ġinherit ance
a um
Ġthe aters
am on
ĠF ighter
Ġlect ure
Ġdis advant
Ġvirt ue
Ġw itch
ĠChamber lain
h as
Ġl ots
Ġinvestig ated
ind a
Ġtra ces
Ġcomb ustion
ĠC ran
Ġl anes
13 0
b age
rop y
Ġgu ided
Ġpan els
Ġgent le
Ġposthum ously
id ay
ĠL ect
Ġly ric
ĠRoad s
T r
n Ã©e
Ġachie ving
ĠBurn s
L iber
Ġf iscal
Ġhypot hes
Ġpreced ed
Ġtrend s
Ġemb arked
Ġprosper ity
Ġm ere
ĠA my
Ġsynt hetic
ĠH els
ĠE instein
ant es
Ġcollect ively
hard t
ĠN um
pan ic
Ġcare fully
190 3
S L
ĠS earch
Ġle agues
Ġprof ound
Ġcraft s
Ġ( $
res hold
ia o
ĠSax on
Ġexplos ive
elest ial
ĠW ilm
ĊĠĠĠĠĠĠĠĠ ĠĠĠ
h ow
ĠBer ry
al id
le ase
Ġar ise
Ġtreat ments
He alth
Ġnegot iated
Ġritual s
ĠKle in
Ġcru ise
Ġenthus i
F red
k ov
n an
ĠWar wick
ĠMet al
Ġens emble
whe el
rib le
Ġlack ing
comm un
Ġtalk ing
Î »
al am
og ram
Ġtre m
Ġremark able
Ġb at
ĠP ius
ĠK ol
190 6
Ġreason ing
ĠConcer t
Ġp ipe
ĠLe vel
A rab
ĠH ut
ĠO ften
Ġw ishes
ĠD y
ag us
ĠHigh land
ĠS R
ĠF ris
Ġstri ps
ĠCy cl
C H
Å ¾
Ġter restrial
em ia
oc ols
Ġcre am
ĠAugust ine
ĠInt eg
ĠNep al
Ġw artime
Ġgovern ance
Ġarchitect s
re cht
at z
Ġyield s
E r
ĠGen esis
Ġprec ision
ĠFre ud
Ġneut ron
z ens
ĠCh urches
uns et
enz ie
Ġobserv e
Ġaccount ed
ĠB il
Ġweak ness
Ġanten na
Ġperform s
Ġcreat ures
Ġc ig
ĠS ed
ĠS ib
ĠA w
ĠM inisters
W il
he y
Ġb ip
Ġstat ues
add le
ĠFras er
d ad
road s
Ġa ug
Ġp neum
ĠB ac
Ġen zyme
rodu ced
Ġbrig ade
ĠL un
ĠSt ore
Ġpl atted
Ġorgan ism
ĠGlou cester
Ġs unk
ĠF alk
Ġfort une
ĠSupport ing
ĠAl c
ĠBas ic
M B
g ood
ad ows
Ġv end
ĠSal isbury
Ġcorrect ly
ĠM oney
G S
h tt
Ġp aved
so ver
ateg ic
ic ularly
Ġgener ic
fr ame
Ġb ag
Ġdig its
Ġmission aries
Ġir rig
ĠM GM
ne ys
ram id
bl ack
ĠLog an
oc ide
Ġob server
Ġjoint ly
l ay
ĠG n
Ġcon form
ass ium
ley ball
ĠCarl o
lar ge
Ġeditor ial
Ġupgrad ed
ad os
Ġden oted
Ġsupposed ly
J ul
Ġtrans f
Ġadm ission
ĠC ool
Ġpl ains
Ġfavor able
Ġnom inal
Ġstrugg led
k ind
r ice
Ġc os
âĢ ¦
ĠR ac
ĠN AS
Ġide als
Ġmach inery
s ize
Ġ18 24
ĠZh ou
+ +
ĠFl ash
aver n
pat hetic
ĠK ate
ĠV es
ĠLaw s
al ong
Ġn as
os al
Ġde er
oc ate
kins on
ĠTibet an
P G
Ġre iss
Ġl ig
ĠD ylan
Ġdep ot
Ġsil k
Ġdis established
Ġac et
Ġcult ivated
Ind ia
Ġmom ents
Ġconson ant
g il
Ġex empt
ĠSum mit
d ays
Ġh ide
ĠM C
ĠK as
ĠFrank ish
ĠJo el
ĠAthlet ic
Ġadequ ate
ĠB ast
Ġpubl ishers
ĠAd vis
Ġarch ive
Ġprotect ing
ĠAlban ian
Ġf u
pl an
Ġmasc ot
b est
nd ez
ĠWrit ing
A L
Ġl obby
ge e
Ġcon ject
Ġthough ts
ĠAdvent ure
Ð º
Ġcast ing
ĠAmb assador
E st
ain ted
Ġhon ors
Ġrout ine
ĠPubl ishers
Ġrecept or
F ar
ĠNot ting
ĠBet ty
ĠSacrament o
ess es
ĠAn alysis
Ġmot ivated
ĠRet rieved
Ġhe ated
rec ord
Ġrecon cil
ov ing
Ġinnov ative
ĠLib ya
ĠD rug
ĠRe in
E astern
Ġe ase
ĠL ik
Ġcollect ing
Ġamph ib
ĠV il
Ġout comes
ĠCl oud
gen eration
Ġexecut ives
ĠSuff olk
ĠS unn
Ġn a
190 2
Ġt iny
Ġval ve
ĠDion ys
Ġcon clus
Ġflex ible
al an
Ġg ifts
ĠD w
Ġcrit ically
anc ers
ĠFilip ino
x i
ĠHonor ary
N atural
ia g
Ġass im
190 4
ugh t
ĠL Ã©
Ġsm art
ĠAng els
Ġsed iment
Ġp agan
ish n
ĠElect ronic
Ġillust rator
ĠC urrent
ĠInd igenous
Ġwarri ors
ĠT ud
ĠT iger
ur ai
Ġprov iders
Ġplat inum
In c
ĠY emen
Ġbes ie
ã ģ
Ġver bs
z one
ast ings
Ġsecret ly
ĠLear ning
Ġingred ients
N R
ut a
Ġeth ical
W ind
l ook
on ge
Ġeight eens
ingu ished
ĠArchitect ure
Ġd inner
ina e
t r
Ġexp end
Ġr ivals
Ġrein forced
ra h
Ġr amp
ĠSu ccess
bour g
Ġalph a
ĠAr d
is i
Ġvac ant
Ġsub group
b ie
ĠC eleb
ĠAr ms
W in
ĠS ox
ĠM IT
Ġer osion
Ġd ign
ur gy
pl ant
ĠY u
ĠMan ufact
ĠPhil harm
Ad m
Ġproceed ings
Ġtact ical
ĠK ash
Ġen abling
Que en
ĠA j
Ġu pl
Ġcatal og
Ġparam eter
W eb
ĠC ao
Ġch oir
Ġmist aken
Ġswitch ing
ĠEmer gency
Ġhaz ard
J ac
b irds
Ġm ud
Ġlong time
ĠBar oque
eth oven
Ġorigin ating
Ġdece ased
ĠO wn
Ġint act
Ġbu nd
Ġpost al
Ġhost ing
Ġcontinu ity
Ġscript s
Ġcryst all
Ġenc oding
ĠM ater
Ġex cerpt
ex ts
ĠP apers
ĠR ip
ĠR CA
ĠPe ak
Ġshould er
ĠLiter ary
el eration
ĠD over
ĠMac millan
Sp ace
g ated
ĠR he
Ġrec ruit
ĠCorn ell
ĠHard y
Ġanal ys
ol an
ure n
Ġcl oth
ĠGreen land
ĠRom antic
ĠNik ol
Ġst ance
ĠN ile
Ġem perors
ĠInd eed
Ġdecl aring
Ġm igrated
Ġwh ites
ĠPro gress
Ġcell ular
n ov
Ġcon cess
Ġ[ ...]
ĠNort heast
ĠLithuan ian
i ator
ew ard
Ġres olve
ĠJohn ston
Ġsulf ur
B road
ĠE ye
ĠTrans lation
Ġbr ass
B ro
F ederal
p op
ur se
Ġshort ened
ĠLu cy
Ġclimb ing
att a
ĠSat an
ĠBarn es
De velopment
Ġcontact s
ã Ĥ
ĠCorn er
ĠWin chester
Ġviol ation
g ie
er ick
ĠAb original
ĠP ike
ĠL ans
Ġblock ed
ĠRos a
ĠP ray
ab we
ĠMar ian
Ġgu ards
ĠGu adal
Ã¡ l
Ġcomb inations
Ġcru iser
X X
it ches
Ġb achelor
Ġth under
les h
ĠI v
ĠL ines
Ġobject ives
an an
ĠU rugu
Ġspec ulation
unn els
Ġfle e
ĠMcC art
te chn
Ġarm our
ĠWin ston
ĠNass au
ĠR af
ĠL az
ĠL inn
ĠK r
Ġte lev
omet ry
Ġconf ined
h anded
ap hor
iz ational
18 90
Ġpup ils
F S
ĠA e
ra it
Pl ot
ĠRand olph
Ġw are
Ġendors ed
ĠB ag
ĠP iano
ĠH ence
ĠTh urs
Ġhead ing
Ġlegit im
ĠT ow
ass ic
Ġar che
Ġqu e
els en
Ġperiod ic
omorph ism
Ġantiqu ity
9 00
ind ers
ĠEngine ers
Ġaffect ing
F re
S pecial
Ġspe eches
Ġdrain age
ĠF ork
Com pan
i ott
ĠP rad
Ġ17 92
ĠC ome
Ġse as
cent ral
Ġless ons
Ġplant ation
ĠCinem a
H el
Ġde pr
Ġastron omical
ĠChem istry
o j
Ġin k
Ġp av
st ation
ĠM ile
Ġcult ivation
Ġemb ra
Ġw ages
ĠF C
ĠW aters
ĠAl ber
Ġdoub led
Ġdiam ond
y te
Ġcle ared
Ġabsor ption
ĠÃĨ thel
Ġf et
ĠV ista
ron ics
Ġinvest ed
ĠC ic
Ġsp awn
Ġtim ing
ox ide
ĠMer it
Ġharm ony
ĠFact ory
Fore ign
m ons
à ¦
Ġinc ons
T ube
ĠS ep
Ġes p
Al umni
Ġfert ility
Ġm es
ĠP or
Ġ18 18
Ġradio active
Ġpurs uit
ĠC ut
Ġhe red
Ġbe ating
Ġcont ing
Ġsk illed
Ã¨ ne
Ġproceed s
t ailed
ĠCo ch
Ġcompos ite
Ġlo osely
imb abwe
Ġhero es
Ġintellig ent
Ġindu ced
Ġtri o
ĠWe ather
ĠWeek ly
Ġpro jection
so on
Ġsh adow
Ġinfer ior
ĠMinne apolis
Ġtradem ark
ĠM uss
ĠH ull
Ġte legraph
Ġmod ifications
Ġair lines
Ġspr ings
odyn amic
Ġam id
Ġdischar ge
P oint
b ot
oc o
pan i
Ġpass ive
Ġanx iety
ir s
ĠSim ilar
Ġlat itude
Ġwitness ed
H ome
ĠCrom well
Ġb alls
Ġbl amed
Ġannex ation
ĠIsab ella
w ords
Ġg arn
Ġreg ent
ĠAd elaide
ĠWed nes
as se
Ġdepict ions
Ġnoun s
ĠGael ic
L ar
Ġinf ections
ĠArt ist
Ġang ular
is eries
Ġresemb le
Ġforb idden
Ġinequ ality
a ise
c ode
Ã ²
Ġsc al
Ġatt ested
ĠObserv atory
l ated
t or
ĠN u
ac cess
Ġrel ates
Ġcontain er
Ã¨ s
ĠSand y
ĠH ond
op ing
Ġline up
Ġtest imony
u ine
ub le
Ġint ra
ĠJer ome
igh bor
olog ne
Ġenter prise
Ġboard ing
ĠMidd les
h alf
ul as
Ġv eto
ĠV ul
ĠY osh
Popul ation
cliff e
Ġloc als
Ġsl opes
ĠTr uman
S ign
ĠCh ange
Ġsp y
Bus iness
ĠCrim inal
ĠR aw
ĠCast ro
Ġsup reme
m ale
ĠL ic
ec onomic
Ġdem anding
tra k
ĠConstitution al
ĠN T
Ġch ore
Ġdis m
Ġmar ble
ĠAlger ia
Cath olic
ic ating
ĠA N
ĠB j
Ġthr iller
ĠSant iago
ĠFel ix
ĠB achelor
Ġg ig
ĠAt ari
Ġmart yr
Ġmob il
B en
Ġw ound
ĠF ur
Ġcl ause
ĠHer od
Ġo v
ll er
Ġfavour ite
Ġunder m
ĠSuper ior
Ac adem
M ount
ĠD re
ĠTe ch
Ġdraft ed
op y
ĠÃ ĸ
ĠT rophy
ash ing
Ġexpl aining
ĠPers ia
Ġdecre ases
umb ers
Al bum
Ġassass inated
ĠCec il
ĠS ikh
ĠH im
ĠRou ge
W ashington
il iation
ĠC rist
ol io
ĠD ob
ĠTim othy
Ġrelat ivity
ĠS tern
ĠP eg
arn ation
Ġmean ings
Ġportray al
ĠEc u
C ivil
Ġrel ay
ĠBro ck
su pp
Ġst rain
Ġ18 10
ik er
Ġgra ce
ace ut
rew s
Ġminor ities
ra cle
ph on
Ġconj ug
ĠU P
ke eping
Ġval ued
Ġflag ship
it ate
ĠSug ar
ĠCh i
omet own
Ġinvestig ations
Ġri ots
ĠX IV
Ġreven ge
Ġa ided
ot yp
ĠD ud
ll a
ĠAlf onso
Ġelder ly
ĠB ody
amp ire
Ġimm igrant
D ep
Ġder ive
ĠJosh ua
D el
ib an
Ġmin ers
epend ing
Ġpublic ity
ĠMay a
ĠTri ple
ap a
ĠOs lo
yt es
ĠInter ior
Ġec ological
Ġaffili ate
in is
ĠS Ã£o
ron gh
Ġsail ors
Ġmas cul
ĠC osm
ĠGu ang
du e
Ġdis gu
ograph ies
Ġstrong est
ĠT ao
ail able
ĠPro per
ighth ouse
Ġd ressed
Ġdis rupt
Ġ180 3
Ġlabel ed
ĠLaf ayette
ĠRich ards
Ġgrow s
Ġconstit uted
Nov els
Ġincorpor ating
Ġt ill
ĠP ied
Ġdu ke
Through out
qu al
ĠShe ffield
Ġeconom ically
ĠT ourn
Ġant is
ĠEv angelical
ĠFac ulty
l Ã©
Ġg ast
ace ous
Ġend angered
Ġwatch ing
Ġmultipl ication
Ġf art
aus es
Ġw reck
ĠC otton
de en
Ġlength y
iling ual
ĠPom pe
Ġre hears
ere k
Ġcons ul
ĠMc N
Ġconsequ ently
ĠP erson
ĠRe formation
Ġsl ot
Ġdisband ed
. ;
Ġlo ans
run ning
t z
Ġleg ends
c ourse
ĠB un
ĠL on
ĠN em
sh ot
ĠSc outs
led on
Ġrequ ests
Ġhon ours
M ic
ĠI N
ĠAn a
ĠPal at
Ġwire less
Ġrif les
Ġprol ong
Ġn atives
18 99
ĠFre eman
Ġflag s
Ġaccur ately
pher d
ĠB agh
ĠAr g
Pro f
ĠEle anor
ĠBos nia
Ġholid ays
Ġpass ages
ĠCrick et
w en
Ġrep roduction
Ġpromin ently
B orn
er ie
Ġcart oons
Ġpr inces
t w
18 98
Ġsol ved
ĠTol edo
s w
ĠC urrently
im id
ĠE ar
Ġ18 16
Ġtort ure
Ġabund ance
Ġmod ification
Ġcoll ision
B re
el age
Ġan ger
Ġkn ows
ĠTor ah
roscop y
lide an
ĠEd ison
Ġdr unk
ĠSch u
Ġdecl are
ibl ings
Ġbal let
ĠConcer to
ĠR ams
ess ing
Ġtri ps
Ġch ancellor
ĠCom mercial
Ġt ack
Ġf us
Ġth rew
Ġ3 60
Ġne o
Ġdisappe ar
ĠOri ental
Ġin ert
ĠT otal
el o
im en
ĠG az
ob ic
ĠBe aver
Ġtru cks
ĠEcu ador
F orm
f ight
Scott ish
ject ed
ĠWeb b
Ġspect ral
Ġconven ient
Ġfert ile
Ġsp ell
Ġeng ra
Ġcloud s
ĠPrest on
Ġb ol
ĠC H
Ġcont exts
Ġpet roleum
Ġwaters hed
ĠMyster y
Ġp ounds
Ġpl ug
ĠMar itime
ĠH ors
ĠH ollow
ĠJ ob
Ġch orus
Ġ18 28
ade qu
sh ine
Ġacc idents
ĠGand hi
ĠCzechosl ovakia
Ġhar bor
ĠCatal an
s ay
Ġam bit
ĠSpe c
m g
w ill
ĠA ven
ĠV and
Ġvoc abulary
Ġc ivic
ut z
od us
18 95
Ġsum mon
Ġreason able
Ġexerc ises
ĠCamb odia
Ġsurve illance
ĠFlem ish
re cted
Ġd ances
Ġob s
I G
Ġre ef
ĠM ell
ĠF emale
ĠJ ourney
Ġpro c
Ġmark er
ĠGreen wich
ĠÎ ²
ĠTri p
ĠZh ang
ĠWill ie
Ġl over
ĠL ocated
ĠAn imal
Ġmon etary
Ġinf ected
Ġinaug urated
ut ely
Ġfail s
ĠArab ian
His panic
ĠSe le
ĠCount ies
Ġprotect ive
Ġpatri arch
ĠH ort
ed uc
her ical
ĠN est
Ġher b
ĠDiv ine
sen al
ol utions
ĠCh amp
ĠX II
ĠThom son
Ġstandard ized
ĠChap man
ĠTour ism
def ined
d an
Ġex empl
Ġadminist rator
Ġprecurs or
ĠS iege
ĠH ass
Ġsl ope
ĠĠĠĠ Ġ
Ġobserv ers
Ġsen ators
rac use
C y
r il
le ted
ĠT win
ĠB rent
ĠE z
ap le
Ġ18 29
so lete
Ġvers es
Ġpost p
ra pe
ĠNic ol
Ġ }
Ġinfl amm
icon ductor
Municipal ities
Ġs oprano
ab lo
Ġpol ym
ĠEm il
k an
ĠS ask
ĠP R
ĠQu ad
Ġpal m
Ġindu ction
let te
not e
Ġconfl u
ĠSpe aker
anc a
Ġfort ified
L O
s ing
ĠL ives
Ġjo ins
ĠLu ft
ĠMcD onald
at ro
ĠP Ã©
Ġv ine
ink i
ĠProtest ants
Ġneighbour hood
B N
Ġun common
ep pe
Ġpred ators
ĠMcC arthy
Ġcongreg ation
r ically
rib e
yl ogen
Ġgu idelines
ri o
Ġsu ed
ĠAugust a
c ourt
Ġc eded
Ġm arriages
ĠMar ines
form s
ros c
Ġland sc
Ġcampus es
ĠKazakh stan
C onn
Ġdev ised
Ġrot ating
Ġrom ance
Ġl engths
ru e
Ġfa ctions
ian ism
ĠRom ance
roscop ic
Ġrows pan
Ġins erted
Ġcou pled
ĠPlay ers
Ġdetect ive
Ġlux ury
m b
Ġh ol
Ġst omach
op en
c z
d ate
Ġfilm maker
ai us
Ġprot ocols
ĠEston ia
P D
ĠUn ix
ĠJes uit
Ġdispl aced
Ġt une
.. ..
ĠMon th
ĠHy de
Ġload ed
hold er
Ġcontempor aries
ĠH ag
Ġr idge
Ġex iled
ĠRe id
Ġconcept ion
ĠWell es
ret ion
Pl ay
Ġcalcul ations
ĠMong olia
Ġl amp
arri e
Ġsl ower
Ġswe pt
Ġv apor
ĠU z
ĠSt rong
Ġra pe
ici ary
Ġcho osing
Ġb old
aw ks
ick ed
ĠRec ording
ĠBrad ford
ĠBor is
Ġoxid ation
B as
ival ent
be at
Ġprest igious
Ġappe aled
ĠBe ethoven
arian t
Ġrat ified
Ġtot ally
im eter
ĠE state
ĠTw enty
G ood
ĠV oy
ĠLa os
ĠBel le
Ġaccompan ying
Ġecc lesiastical
S O
f inal
ĠDou g
ch y
ĠD ia
og o
Ġinter im
Ġsuccess es
ĠN ame
Ġbl ank
iot ic
F F
T ypes
ĠM B
be ing
w hen
Ġdifferent ly
Ġlik ed
B rien
O h
off s
ĠRe ver
Ġpresent ing
ĠDem ocracy
Ġsee ks
ĠHaw k
og g
ĠV all
ĠStevens on
Ġ18 26
Ġtiss ues
Ġre hab
Ġme al
Ġatt itudes
10 1
ĠX I
Ġinteg rity
ĠR oland
Ġst rongh
Ġall ocated
ĠNorth ampton
Ġemploy s
ĠRel igious
w ave
ag ogue
ĠEl is
Ġspecial ist
Ġins urg
olit ical
Ġdescend ant
ĠT ampa
ĠS inger
port ant
miss ions
r ide
own ers
Ġar ter
ĠPat ric
ĠL ions
ĠRes ources
Ġsustain able
Ġbon us
ĠN ab
Ġpl aque
ĠY ah
och ond
ĠWater loo
ĠEll iott
Ġderiv atives
ĠFull er
Ġcoe fficient
Ġenz ymes
k el
ak ov
Comm on
ĠTrib une
Ġdom ains
ĠM eyer
ĠCo hen
re present
ĠMan it
ĠJust in
oura ge
Ġguarant ee
ĠDoc ument
ĠB ene
ir us
ĠF eder
Ġs her
Ġl ap
ack er
Ġext ensions
ĠDan ube
Ġcalcul us
ĠT at
se in
Ġpe ers
ĠCor inth
Ġmem ories
O ff
Ġh ind
13 5
ĠSch les
Ġtext ile
Ġseem ingly
Ġvolunt ary
Ġ18 19
man s
Ġident ifies
ĠJes se
Ġgal axy
ĠA ug
Ġcon sec
ĠQu in
ĠHindu ism
osy nt
Ġw ives
Ġd ot
ĠC hes
ffic ients
Ġs am
ar ck
Ġres pected
ĠDe er
ĠComb at
Ġd ragon
Ġn ull
ell ite
Ġunc ons
Ġf ut
Ġm apping
ĠAr row
Ġdia gon
Ġtall est
Ġprivile ges
ĠParad ise
R oy
r ights
Ġsus cept
s ol
ro zen
ats u
Ġoccup ies
Ġexpect ations
g iate
p end
Ġst ip
ĠEll en
ĠPier ce
ĠRef uge
ensor ship
j et
ĠPro gressive
c ard
at ile
ĠN eck
Ġrefer enced
ĠRec onstruction
Ġdeb ated
Ġbroad caster
ĠHy per
Ġenlar ged
Ġre per
Ġed s
ĠHel ena
Ġrecip roc
G ram
res cent
ĠU se
Ġpot tery
Pr ivate
ĠSebast ian
Ġcurric ulum
Ġambit ious
com ed
Ġ180 1
ott age
pent er
ĠD awn
inem ann
Ġret ro
E ven
ĠC ul
un al
ĠSt ir
Ġnot iced
raph ic
ĠKos ovo
ĠD ry
Ġtrans cription
Ġmet er
Ġpress ures
Ġwavel ength
Ġp ier
ĠS aw
Ġaccess ed
Ġche ap
Ital y
Ġsubsc ript
ĠC oun
ber ger
Ġobtain ing
ĠShir ley
ĠAr lington
Ġgovernment al
ĠRap ids
ĠFrances co
T R
ĠG ould
ĠS E
ĠG aza
ĠCros by
H O
ĠT ale
int osh
Ġhabit ats
Ġkilomet ers
a an
t re
st en
ch aft
Ġch im
Ġdiscover ies
z ero
Ġeconom ies
Ġconc ludes
Ġanal yst
Ġexhib itions
ĠFern ando
ĠJ ub
Ġtrans action
Ġbox es
ĠN im
Ġtr im
Ġconv iction
Ġaccompl ish
Ġuncertain ty
ĠZ oo
Ġextra ordinary
ĠT ues
Ġl ymph
ĠTh ing
18 96
gest ion
ĠEd en
Ġrepresent ations
Ã¡ il
olk ien
Ã ®
he ll
Ġy ard
ĠMan ager
ĠM ouse
ĠPhilip pe
W al
Ġc ats
ar ius
ĠR ib
ust ain
ott a
ĠJeff rey
Ġconflu ence
L ove
ĠRe formed
Ġcrew s
ĠEp ic
Ġconstra ints
ĠWor cester
Ġto pped
Ġth reshold
ys elf
M od
ĠR um
ĠSt ark
en ge
Ġarch ives
ĠD art
Ġnot orious
ĠComm odore
Ġcommemor ate
p roduction
ort heast
oth ic
Ġnegot iate
Ġcho ices
Ġre jection
ĠF erm
Ġfib ers
Ġcoe fficients
Ê »
il itation
ĠH astings
ĠBo at
N ame
n as
Ġreg iments
Ġbr ill
Ġske pt
al ions
et ically
Ġse iz
Ġcolle ctor
Ġtele communications
ĠAbd ul
P M
em er
Ġillust rations
ig ma
Ġenc ry
Ġdam ages
Ġcompl ained
Ġpl ague
Ġun pre
Ġ17 76
get own
Ġdem ographic
Ġaccept ing
Ind ust
connect ed
Ġbl ade
uc id
Ġgrad ual
Ġsubject ed
ĠĊĊ ĠĊ
ĠPut nam
Ġmonop oly
ĠBelf ast
iag ara
Ġt ag
Ġin ev
rit e
Ġdevelop s
if ted
Ġorgan ize
p ublished
ĠV iv
Ġsub mit
ari at
ĠNot able
ĠW itt
Ġsub d
hen y
Ġ18 13
the y
Ġsynt ax
ĠNotting ham
Ġterror ism
Ġenslav ed
Ġl ion
ĠZ imbabwe
Ġpur ple
Ġadvoc ates
t ail
ĠF en
Ġoff spring
ikh ail
ĠT ir
ĠUn ic
ĠZ IP
ĠTe legraph
Ġmans ion
ĠBur ma
ĠHow e
Ġconson ants
Ġwitness es
Ġl enses
ĠSt ones
Ġrec l
Ġj ournals
ĠCorn ers
ĠHart ford
Ġup coming
ĠYou Tube
mid t
S er
ĠT ac
Ġad oles
Ġnum erical
Ġbu ying
ĠFor bes
Ġcirc a
Ġf ilt
ĠTh ous
ĠCol or
Ġstate wide
lin ary
ĠNapole onic
an us
ed ged
ĠHigh lands
ĠBrand enburg
Ġstead ily
ĠC ret
ĠH ew
Ġ17 93
Ġcoll oqu
Ġvit amin
ĠG iven
Ġdep osed
Al tern
c ultural
y ou
Ġknow ing
e lectric
Ġs aving
ĠV est
Ġsp ark
ĠMur der
Ġb iod
ĠT iber
Ġimag ery
ĠPol k
arent s
Ġbureau c
b rates
Ġc ra
Ġcoast line
Ġtelesc ope
ĠH yp
ĠD j
ĠMar cel
Ġsocial ism
S en
Ġinc hes
Ġwhe never
Ġrob ot
Hung arian
d ep
ĠB Ã©
Ġst amps
ĠJ ed
olog ic
Ġnum eral
Ġam end
Ġsupp ressed
Ġdet on
ĠS ue
ĠD ix
Ġinc umbent
ĠKu wait
Ġunp opul
ogene ous
ra ul
ap arte
Ġserv ers
Ġdo zens
10 4
Ġcost ume
Ġprov ider
Ġscreen ing
Ġresemb les
Ġcancel ed
Ġreserv oir
Ġhang ing
Ġd ose
ĠD ial
Ġfinal s
Ġfort ifications
l ate
Ġinc ent
ĠProv idence
Ġprosec ution
Ġgluc ose
Ġp ac
Ġ17 98
ĠTown s
ĠYoung er
Ġsculpt ures
T F
ĠC ologne
ĠByz ant
ĠCh in
ĠV ery
Ġbatt alion
ov ina
Ġphilanthrop ist
ĠD ir
ĠTh ings
Ġatt ain
eng ine
ĠSac red
Ġrecommend ations
ĠK re
Ġtouch down
Ġp sy
st op
Ġlim iting
ĠConf uc
ĠBad en
Ġsup rem
ĠSi oux
Ġe y
Ġyear ly
Col le
Ġv isc
Ġdep iction
Ġsix ty
ĠJul ie
S pring
sh i
Ġkill er
Ġinvest ments
ĠV a
Ġcapt uring
Ġdig est
Ġcomment ators
Ġc arriage
ul ent
Ġtechn ically
ĠSch ne
Ġregul atory
ĠHo over
ent ric
ĠA th
Ġcomp ass
Ġra ys
ros se
Ġtre ason
Ġden ote
Ġpeak s
ĠMort on
ĠMathemat ics
M ag
ĠSh uttle
ĠPar ade
ĠSu z
ĠPlay Station
ĠB M
pl ate
ok i
Ġreview ed
Ġcommission ers
ĠLiving ston
Ġth y
ra cted
ĠN C
Ġhealth care
ĠHell en
Ġd iving
ers hire
Ġimpl ied
Ġaest hetic
D I
Ġcl usters
ons on
Ġrecept ors
ĠW ords
ĠBrit t
ices ter
Ġdiscipl ines
a er
Ġm ast
qu ality
Ġen force
Ġprocess ed
Ġspecial ly
ĠHa iti
ĠYan kees
Ġon set
Ġfunction ing
Ġpress ed
ĠBris bane
Ġs iblings
Ġsk ating
ĠComb ined
im an
ĠG M
ĠW ik
Ġtra gedy
Ġd rown
ĠM is
se ction
ĠV augh
Ġ16 00
ĠPer kins
Ġspread ing
Ġretain ing
Ġf riction
ĠK ids
ĠHe inemann
ĠPhilharm onic
Ġ1 19
ĠH our
ij k
Ġmountain ous
ĠGram mar
M a
d aughter
Ġen ables
ple x
Ġdom est
Ġpurch asing
in yl
ĠI A
Ġrender ing
ĠEss ays
Ġreg ards
Ġlif ted
Ġpredecess ors
A mer
Ġd ome
ĠS isters
ray ed
Ġ180 6
Prim ary
Ġp H
ĠNew foundland
Ġindu ct
oul t
N orthern
ĠB AS
ĠGu ards
ĠInter view
Ġenter prises
Des cription
E le
c ia
ig on
Ġwar rant
Ġsimpl er
Ġdeleg ation
Ġcounterpart s
Ġpeas ants
lin ear
Ġstorm s
Ġdel ta
Ġsyll able
ar se
Ġcompl ications
ĠIndust ries
rox imately
c ot
ĠT aj
ian i
ov al
Ġen listed
Ġout law
Ġtra pped
Ġten or
ĠT ah
18 93
Ġcurrent s
Ġencourag ing
E nd
s i
y led
Ġf als
ĠI g
ĠChile an
al ous
Ġdecre asing
H ead
f und
Ġl od
Ġen v
ĠIs les
Ġproduct ive
ols he
Ġtop ological
ĠCor on
c ue
Ġvol s
d ia
inn ings
Ġins ert
ĠNot re
mat ical
i ographical
ĠH aus
Ġme g
ĠAnt iqu
Ġsau ce
ou st
Ġv ag
d ed
p ires
Ġd ictionary
With in
Ġin adequ
gu ard
Disc ography
ĠLomb ard
Ġf rig
ĠB order
red it
Ġill um
CA R
ĠClaud ius
Ġun ification
w ana
ĠF ast
Ġ18 27
.. ."
Ġpun ish
Ġalt ar
and ro
Ġcur ves
ĠRen Ã©
Ġalumin ium
v s
Ġam mon
Ġgradu ating
Ġtonn es
Ġlater al
fl ight
11 1
ĠMon ter
chang ed
Ġfemin ine
ĠR id
ĠK ane
Ġsp atial
Ġcult iv
g ren
Ġweaken ed
ĠRabb i
r ath
ĠK om
Ġbus y
Ġcare ers
val ue
Ġwrest ling
-- --
Ġal beit
Ġsett ling
S at
ib al
Ġd airy
ual ity
omet hing
Ġpoint ing
ĠHunting ton
Ġpractition ers
Ġp ub
am en
ĠZ en
ven ile
Ġbattle field
Ġ17 94
Ġinstit ute
Ġliber ty
Ġhydro x
Ġmel ody
Ġemot ions
A E
S I
om ans
Ġh alls
ĠT ake
ĠSur v
Ġalt ogether
O pen
d eg
ĠL anding
ĠV on
Ġmag ical
Ġsuff rage
ĠRest oration
am med
ast ies
ult on
ius eppe
ĠCo ff
Ġmonaster ies
f ig
h orn
Ġh ometown
Ġl umin
ĠB rab
ew ater
ob ia
Ġpossess ions
A round
Ġchalleng ing
N ow
P ac
l as
ĠH ave
Ġfin est
Ġsex ually
Ġutil ized
ĠLock heed
ĠRes p
Ġcontroll er
Ġrepe at
EE E
art a
Ġup grade
ĠRout ledge
R ivers
ĠT i
ĠA ires
ay e
ore an
Ġso ils
Ġdiv is
opp y
Ġbreak through
Ġacadem y
ĠBre ak
Ġharm onic
Ġexceed ed
ic ates
vent ions
Ġpat ents
Ġens uing
Ġmotor cycle
Ġd well
Ġcon ferences
ĠJ as
Ġsp ots
Ġ17 95
ĠWe ber
k ers
ĠR achel
ross ing
Ġline age
Ġsexual ity
L L
y ards
Ġs a
ĠBer ks
Ġplant ations
AF TA
Ġorchest ral
Ġro de
Ġbroad ly
ĠBut ter
fin ished
ch ard
Ġsu ited
Ġdemonst rations
bro ther
ĠAbb as
ĠP ole
ĠL ook
ok o
Ġdis abled
ĠConfeder acy
Ġinnov ations
Ġacc eleration
Ġportra its
bercul osis
ĠM k
ĠB ott
ĠSt arting
og ens
ĠJan et
ĠArt illery
Ġopt ional
Ġinvent ions
ĠSher idan
ĠId ent
ĠConserv atives
Ġappar atus
F er
j in
Ġv ault
Ġesc al
ĠPun j
ĠJoy ce
Ġneighb ors
h aul
o il
Ġcl erk
Ġinter active
ĠJenn ifer
ot on
ip se
Ġsoc ially
ĠCar bon
Ġperm its
ol ini
18 70
Ġextra ction
ĠScandin avian
Ġhered itary
Ġs ab
pr im
Ġlist ening
gr ass
ĠGuatem ala
K Ã¶
Ġre jo
Ġcolon ization
Ġaddress ing
Ġsaf ely
Ġimpact s
ĠSing le
Ġmand atory
Ġcryst als
Child ren
Ġs hed
ar ound
ĠCom ment
ĠSe ym
Ġdirect ing
ĠSen eca
Ġdu pl
Ġremn ants
ĠWednes day
Ġde eper
Ġfrag ment
Ã¢ te
Ġbehavi ors
F O
Ġex agger
ment ioned
18 92
Ġliber ation
Ġovers ee
Ġincom plete
ou b
ĠI M
ĠR if
ĠL oth
um ing
ear ly
Ġcomm ut
ĠHumph rey
ĠR ox
Ġst opping
Ġbut t
Ġsur geon
Ġm ate
ĠT ask
Ġpl um
ĠPar agu
Ġcomb ines
Ġnar rator
ĠRod rig
ĠA ri
ĠE g
Ġround ed
Ġmatch ing
n or
ĠE y
art en
Ġrec all
Ġden otes
Mus eum
Ġsimpl ified
Ġski ing
V er
Ġc ater
ge ons
Ġco aches
Ġ11 3
ĠEn lightenment
ĠRos en
ĠMcK in
Ġencl osed
ĠBagh dad
ĠS ap
Ġz inc
Ġt ap
ĠAss yrian
us p
Ġg reet
Ġcomm uter
Ġsil icon
Ġfoss ils
ĠPars ons
Ġt in
ĠC ock
ĠM eh
ow itz
Ġmed ic
Ġdiscuss ing
ĠNot es
Ġuncons cious
n ame
St at
Ġsuper vision
ĠPul itzer
ĠThurs day
ĠMiddles ex
Ġwh ales
Ġsm oking
Ġcapital ism
Tour ism
ar u
ĠS abb
ĠR ise
ud er
Ġdec ides
ĠReg istry
oven ant
Histor ic
Ġ ~
Ġin quiry
ĠAl am
Un like
) âĢĶ
Ð »
Ġh ij
ĠF ram
Ġcame o
Ġsuper natural
Ġtemper ate
Ġconcept ual
Ġaccident ally
Ġ18 22
Ġcomm anding
Ġic onic
ĠHitch cock
- ,
s ign
Ġst ack
Ġpro secut
ke f
ke ys
ĠEm ily
Ġpopular ized
ĠJer emy
ĠAud io
H ere
Ġt unnels
ĠSh ield
Ġ11 4
Ġdomin ate
Ġess ence
eff ective
Ġcompl aints
W here
ĠF rost
ĠU EFA
ĠHe at
Ġgrand mother
Ġgam ma
ĠHels inki
J ack
on ent
Ġw isdom
Ġp amph
ould er
18 94
Ġfe athers
Res earch
p es
ĠG ross
ier i
ĠVik ings
L ord
18 89
Ġcontinu ation
Ġrac ism
Ġresear cher
On ce
Ġassoci ates
Ġcompr ise
ĠTig ers
, '
Ġp riz
18 91
ĠCal iph
ĠMc Cl
Ġmor ality
Ġinj ection
organ ized
Ġanalog ous
Ġguarant eed
O l
Ġun h
Ġun stable
Ġreal istic
ĠRev ival
ĠDew ey
T or
ĠF an
Ġend e
Ch ief
Ġrock ets
Ġdeterm in
if ax
ĠY ard
Ġ17 00
Ġpul se
ĠChel sea
ĠSeym our
cept ions
Ġspec imens
Ġdocument ation
all a
ĠHer cules
incl air
er ting
Ġab normal
Ġcol ored
Ġcomput ational
Ġdeterm ination
point s
ĠBow ie
ĠT us
Ġant ip
Ġviol inist
Ġfresh water
orig inally
ĠM ant
Ġesc ort
imb ledon
pat ible
ĠS as
Ġdis placement
Ġpr ide
Ġdec imal
Ġqual ify
Columb ia
ard ment
old t
Ġappro aching
abet es
Ġri ot
Ġc ables
ĠH ers
Ġsw orn
Ġinterview ed
Ġcert ificate
ĠMaxim ilian
ĠAgric ultural
ĠK och
ĠV inc
ĠV ersion
Ġk ernel
Ġher ald
Ġep ist
ĠMoz art
ĠH iro
ĠV it
Ġnecess ity
ĠMcCart ney
W ork
Ġflu ct
Ġimpl ications
Ed ward
ĠNon etheless
Ġlocomot ive
es que
og ues
Ġimp ressive
olution ary
Ġbeat en
es ia
Ġl ady
ant um
Ġman ages
Ġcomm ittees
ĠSh in
ille t
ĠLis bon
ĠAber deen
a illes
ĠE SP
Ġwebs ites
Ġkid ney
ĠDra ke
ĠRivers ide
ĠPriv y
ĠH ul
ĠBar th
Ġham mer
ĠFergus on
Ï ĥ
18 97
ax ies
sc ript
Ġdeb ates
Ġdro pping
ĠWork ing
ĠStre ets
ĠBright on
ĠC C
ĠC el
Ġp ix
Ġcolon el
ĠMagn us
he id
Ġf are
Ġm all
Ġele g
Ġexp enses
Ġgroup ed
Ġemploy ing
Ġcast les
Ġnucle i
Beg inning
t arian
Ġf amine
Ġtreat ing
ĠVol ks
Ġdi ary
ĠT olkien
ĠLe one
ĠSy racuse
ĠSpe cies
Ġsens itivity
ĠFle ming
M ur
h ou
sy stem
Ġfav oured
ĠZe pp
R ob
Ġst ressed
Ġloc ks
Ġfre eway
ĠDr um
Ġthreat ening
Ġpros pect
H C
le ading
ĠM aking
ph in
Ġphys icians
ĠGal axy
Ġavoid ing
comm unication
c irc
Ġcharacter ised
ĠBy rd
Ġliter acy
onn y
Ġbig ger
Ġp ent
cer y
Ġaster oid
S port
Ġ17 80
Ġorder ing
ĠSch war
ĠCarth age
D OS
u ph
ro qu
ow l
ĠF ear
ĠOl ivier
odyn amics
Ġp ink
ĠP and
du ction
Ġgen uine
Ġcust ody
fin ition
Ġpione ering
ĠPyth on
Ġcomp aring
ĠCom par
Ġmodel ed
mus ic
ograph s
Ġprint s
Dist rict
Ġcorrel ation
le in
un ctions
Ġb ust
ĠW it
ong o
ĠInd ividual
Ġcub ic
is se
end ale
ateg ory
ĠCrus ade
s che
Ġt ickets
Ġmot ors
Ġ180 9
ĠHor ace
p ole
ĠD und
av i
Ġap olog
ĠGen us
ĠAp art
s chool
ĠT oul
ĠM oss
ĠL ay
Ġint est
ĠClif ford
ĠPorts mouth
L uc
in qu
Ġpro be
Ġdisc overs
cont inental
T ele
Ġpot assium
ĠCher ry
ĠNicarag ua
at as
ĠB iblical
ĠR AM
ĠCh iang
Ġfail ures
ĠTurn pike
ĠÅ ł
Ġad verse
Ġe man
Ġhe aling
Ġret ros
Ġtribut aries
P arks
k n
Ġapp rent
ĠCl ara
Ġprom ising
Ġdeterm ines
ĠAnn iversary
ib ald
Ġput s
ĠNic olas
Ġsatisf y
B ill
Ġm ourn
P ers
Ġp od
ab is
Ġlik ewise
Ġbenef icial
ĠEst ab
ĠTal mud
F ire
ĠD as
ĠZ amb
pect ives
Ġsle e
T w
u ana
ĠGreen wood
ĠLex ington
ĠMorm on
u ating
re b
le en
st ones
Ġg ospel
urn ed
Ġinter fer
Ġinter rupt
Ġreal ism
ĠBon aparte
V I
f ar
Ġun official
Ġlik elihood
U l
Ġf ights
ĠH ert
En vironment
Ġencompass es
Ġaccus ations
Ġg ray
Ġsh oes
Ġpr inter
ĠRe ad
atch ing
n ecess
Ġc elestial
Ġadm ired
ĠBol ivia
Ġanth ology
I mp
Ġ18 17
Ġ180 4
ĠTs ar
Ġm ang
il o
ĠAir bus
ĠMur d
Ġretain s
ĠBour bon
1 17
Ġa uxiliary
ĠCour thouse
ĠHand book
ĠT ell
ĠK urd
Ġout s
Ġvill ain
Ġoccur rence
ĠTra ck
Ġm im
Ġsn ake
c in
ĠF ry
nt on
inn ers
ĠNov el
omm ission
ĠWhit ney
ĠBabyl onian
le z
ĠF ut
ĠIn ner
Ġar row
Ġimport s
Ġmel ting
atern ity
ĠPlate au
atche wan
Ġ17 91
ĠSc ript
ĠPer th
Ġcru isers
Ġdistribut ions
em e
ĠDam asc
Ġquarter back
c ulture
ĠD arl
ond o
18 88
ĠEconom y
Ġdra ined
Ġconstitu ent
ĠPeng uin
it Ã©
Ġm asters
ĠSe venth
Ġmet aphor
ĠGal ile
Ġcalcul ation
o os
s eries
Ġc ro
ĠM ake
Ġqu it
ĠFl int
Ġ umb
Ġd ried
ĠP ain
Ġh ung
ran k
igg ered
Ġf illing
ĠL it
Ġj oy
Ġdiffer ing
ĠKer ry
Å Ł
ĠG N
Ġ4 50
Ġrest ra
Ġancest ral
ĠF ritz
ĠLeg acy
Ġassum ing
ĠFront ier
Ġassign ment
ĠBes ides
Swed ish
Ġadv ancing
Ġconqu er
Ġwalk ed
ĠTrad itional
Ġcoun cill
v re
ig rate
qu a
che z
Ġsuccess ors
Ġhand ful
ĠTra cy
Ġtax ation
Ġceleb rity
h on
Ġm ouse
Ġup set
oot ing
ĠEven ing
B R
ĠV ocal
Ġaver aged
Ġwel comed
K O
iv ial
ĠF est
Ġfl ux
ĠVis ual
ĠWrit ers
ĠStr ategic
Ġs ad
Ġcomp uls
Ġhel ium
Ġ180 8
ig m
ĠAnn ie
Ġhop ing
Ġorient ed
Ġgradu ates
ou k
Ġcomplex es
bre aking
Ġpione ers
Ġrenov ated
Ġapproxim ation
1 18
Ġfire arms
add y
ĠMap le
ĠA G
ĠT ucker
lim ited
Ġfulf ill
ĠBerm uda
ĠTues day
< /
or ff
Ġc ath
ĠP BS
ĠN ak
ograph ically
Ġref usal
ĠLouis ville
Ġexpress ing
g ic
Ġin ability
Ġf ores
che t
aj o
intend ent
Ġturb ine
c s
p he
Ġun related
ĠSh aron
ĠBl uff
ĠQ uran
Ġeng aging
Com puter
ĠMah ar
J eff
k t
Ġint ake
18 80
Ġconf isc
A sh
R ay
ĠM ald
Ġbe et
Ġinst ructed
Ġtr iggered
Ġproduct ivity
H y
ĠS O
ĠL otus
Ġst uff
Ġwh ale
ĠSt rip
Ġpre lim
Ġmat rices
ĠNor wich
ĠBas que
Ġtheor ists
Ġirrig ation
Ġtrans actions
Ġcount ing
Ġob solete
Ġstr at
Ne ill
ĠPione er
h im
Ġt idal
Ġconst ellation
Ġunsuccess fully
T ype
Ġf ission
F lor
Ġthe ft
ĠR ising
Ġcod ing
Ġst ems
err illa
v ideo
ĠM ick
Ġro pe
Ġeconom ists
Ġpresum ably
ĠAss istant
udd y
Ġimm ort
ĠR ah
Ġterm inals
Ġmist ake
ĠAnt ony
bern atorial
V ir
e ous
ĠB ug
ra f
are l
ĠMem ory
Ġlingu istics
ĠP S
ĠW ings
s outheast
qu eh
Ġafter ward
mber g
ĠB irds
ĠK i
ĠK ub
Ġsimilar ity
ĠClare nce
Alex ander
R NA
t rad
Ġf ears
ĠP omer
ĠF o
Ġam ended
ĠTurk ic
Ġl ac
Ġwh olly
uch i
Ġspec ulated
Ġinf ect
most ly
ĠRes ervation
Ġmathematic ians
ot ive
ĠG ore
Ġob l
Char acters
Ġgoddess es
b lo
at ism
ĠThe ss
oh l
C r
M ean
Ġan onymous
if ting
ip edia
Ġ18 23
Ġcor rupt
ĠStand ards
P enn
Ġch icken
ĠDen is
ĠAl most
ĠCompan ion
Ġgra ins
uther ford
ĠQuart et
Ġp uls
Ġd rought
Ġemer ge
Des ign
et es
ĠH P
ran ger
Ġsent iment
App l
ĠT ag
ool s
bo ats
Ġpriv acy
Ġlaunch ing
Ġsampl ing
er oy
Ġp aternal
Ġspe aks
ĠÃ ħ
Ġtoler ance
Ġlocomot ives
Ġempir ical
ĠL Ã¼
ĠF em
Ġgl obe
Ġinf rared
ĠKenn y
south west
ĠCare y
Ġsubstit ute
in ely
im ated
ĠK rish
ĠGu itar
Ġjust ified
m ass
Ġo st
ul se
ian us
ĠPh antom
Ġinflu x
Ġlight ning
Ġrob ust
Ġadvent ures
ĠEuc lidean
ĠM om
ĠR acing
ĠPl anning
Ġdimin ished
Mart in
es ium
Ġbe ef
ec ost
ĠLa ur
Ġcosm ic
Ġstrengthen ed
n ortheast
Ġm igrants
ĠMar in
Ġmod ules
Ġdef unct
Ġrad i
ĠMon mouth
ĠAh med
'' '
number ed
ĠR T
ĠL ars
let cher
ĠAx is
p ark
ĠC ors
Ġcomp iler
Ġrem arks
Ġret rie
Äģ n
ĠHel m
haus en
m il
ough ton
ĠSh i
enc ia
Ġflour ished
M el
v iol
Ġd ip
Ġ2 20
ĠSt ring
Ġ180 7
Ġs erm
Ġd ella
ĠH ank
ĠMarx ist
Ġanticip ated
es a
ol er
ĠGr ass
Ġod ds
Ġoblig ations
ĠSloven ia
he nd
ĠB acon
ĠK od
Ġreg ained
Ġprop osition
ĠGriff in
Ġgrad uation
Ġinse ct
or se
ĠLe icester
Ġcr ater
Ã± o
P ierre
f it
it as
ĠM ikhail
ac ity
ĠTh irty
ĠLat via
Ġche aper
Ġsearch ing
sm all
o ise
18 85
pre hensive
Ġprotect or
ĠLaure nce
ĠPhys ical
ĠNord ic
c en
or b
Ġst rand
ĠW imbledon
Ġrec urs
Ġsomet ime
Ġgener ator
Ġang ry
Ġiniti atives
re p
Ġmother s
ĠAdd itional
Ġselect ive
ĠImp ro
Ġc um
ĠH MS
em per
ĠF ight
ass is
ĠAcadem ic
ĠMic ropolitan
j iang
ount ers
Ġem igrants
Ġbre eds
Ġsym pathetic
ym ns
Ġrang ed
Ant i
ĠP ue
ĠR A
ĠK w
ĠBu enos
ĠBrun o
ĠTud or
b ee
ĠD odge
ĠFranc isc
Ġsurpass ed
it le
ĠS D
ĠLa o
Ġm i
ĠG os
Ġinv itation
Ġdef ic
ĠAh mad
Ġdes per
ĠGra ves
Ġcatal ogue
e i
Ġb eds
le igh
ĠRe e
Ġind e
km en
work ing
Ġapprox imate
ĠF inals
Ġfaith ful
ĠLam bert
R em
Ġse ar
ĠDe al
ĠColle ctions
Ġemb assy
Ġp enn
ĠD in
Ġch ambers
ĠAfrican s
pe z
amb a
ĠCour se
ĠAthen ian
l ance
Ġo mitted
ĠS oci
ĠR ous
Ġaltern ating
ĠI RA
ĠG T
ral tar
ĠVict ory
Ġseg regation
Ġgall eries
Ġunm arried
ar f
ĠT uring
ĠN ig
Ġmin iseries
Ġcor ridor
Ġunder water
ĠSoc cer
Un ion
Ġthick ness
u ations
qu i
Ġout lets
18 87
Ġpubl ishes
Ġmy st
ĠAnt oine
ĠThat cher
Ġflav or
ĠVenet ian
f al
Ġf ox
Ġag ing
Ġmon astic
N ob
Ġdist urb
ĠEv il
Ġreprint ed
ĠBurgund y
Ġbl og
Ġport able
Ch arl
Ġfinancial ly
vis or
Ġreun ion
KÃ¶ ppen
ic ol
Ġfold ed
ĠIn side
Ġvol leyball
an ese
Ġc oh
il ated
ĠS oy
et ric
ĠBoy d
Ġregul ate
Ġarc ade
ĠAzerbai jan
it ial
ĠNe ed
ĠRed s
ĠOb ject
ĠC yp
ĠG og
Ġast r
S E
Ġw atched
Ġp ard
Ġpr one
Ġsub tle
St ates
Ġtur bo
Ġadvis or
ĠMar ÃŃa
ecut ed
Pr ince
ĠTyp ically
er ion
ĠC ell
ĠM ang
Ġres ide
Ġpo etic
ĠPakistan i
as ures
Ġh ipp
ĠF rem
ĠN atal
ant ics
Ġdr inks
ĠSub sequently
Histor ically
uv ian
Ġorb its
Ġp iv
ĠE agles
hed ron
Ġplanet ary
Conn or
ĠL yd
Ġrep airs
ĠHer oes
Ġenc ounters
Ġaccess ion
Ġprohib ition
ĠClay ton
ĠH ague
end e
ole cular
Ġbatt alions
Ġgal axies
ĠP os
Ġsur g
Ġopp ose
Ġtrack ing
Ġpseud onym
ĠNeg ro
Ġle v
ĠCan on
Ġregist ers
Ġstrugg les
Ġreluct ant
ec ute
ĠBever ly
ĠS onic
Ġrel ies
ĠSh awn
ĠHar bour
Ġconv ince
w itz
ĠEl m
icult ural
Ġpray ers
1 14
z el
Ġp ars
ĠC oc
ĠK end
Ġfl ute
Ġmot to
ĠSand ers
Ġabb ey
ĠFl at
add am
Ġlic ensing
C hem
Ġt s
ig l
Ġinter rupted
Ã© d
Ġgirl friend
Ġexerc ised
ĠS inclair
Up on
A ud
L ead
Ġ å
s il
it one
Ġe tymology
Ġ18 11
Ġplay ground
Ġdef iciency
Ġsatir ical
Inf rastructure
M uch
Ġto oth
ae an
Ġste pped
Ġnorm s
Ġchief ly
Ġassum ptions
ĠPopul ation
ĠFitz g
Ġw onder
ĠG auss
ĠAm trak
Ġpast or
Ġ180 2
ĠJack ie
it imate
ĠP ret
ru ce
ced ented
Ġrel iability
Ġret reated
Ġpresent er
ĠLiber als
ĠM ix
ĠD res
ac ies
Ġv iable
ĠSpart a
ob iles
Ġ17 97
Ġtreat ise
ĠHes se
Ġreconst ructed
ĠVisc ount
J ud
Ġth rowing
ĠP ia
Ġsl ogan
ĠJul es
ĠSing les
ĠHal ifax
ĠSiber ia
M em
S outhern
sh aw
ĠEl vis
Ġcreat ure
pro v
Ġec ology
othe rapy
st ore
ter a
Ġal igned
son ian
ĠGod s
' ),
D T
ĠStar r
Ġpione ered
Ġwarri or
Ġrespir atory
r ina
ov iÄĩ
Ġpre historic
ĠPer cy
M o
an as
Ġf rog
ad en
Ġbl ast
ĠEx hibition
Ġstat ute
Ġinstit uted
ĠOs wald
ĠEp isode
ĠLen in
ĠPray er
H L
T erm
Ġre opened
ug a
Ġelim ination
Ġv ass
ĠK aren
Ġmy ths
ĠJen kins
b ral
w affe
Ġsu ite
Ġcan als
ĠBl o
ĠP emb
Ġlif elong
Ġplate au
Ġped estrian
ĠSask atchewan
Ġb ike
ĠT ill
ĠL ut
ĠN iagara
od er
ĠCount ess
ĠS iles
st ates
Ġben ch
ĠK et
Ġres isted
Ġrem ake
16 7
Ġprev ents
dr iven
ĠB uk
ĠF ourier
Ġwar ships
H am
W R
ĠCh air
ĠCh ambers
Ġmer ge
Ġge ological
Ġwood s
iot ics
ĠPasc al
Ċ ĠĠ
oun ce
umb oldt
Ġbare ly
Ġmaneu ver
b at
an za
Ġfunction ality
eb e
Ġgu bernatorial
ĠCongress man
ĠChron icles
ĠTan z
le w
ĠMid west
Ġcrim inals
Ġperfect ly
ad in
ĠR ig
ĠG P
rop ic
Ġprob able
Ġopt imal
Ġens uring
ĠSing h
Ġdepend ence
g irl
Ġw ounds
ic ides
ĠP all
Ġpol es
Ġtra p
ĠCal der
ĠBart on
Ġhelicop ters
Ġe uro
ĠMar ri
Ġagre es
âĢĿ .
v ian
ĠN g
Ġad vers
Ġins ign
ĠBy ron
ĠCommission ers
ĠHead quarters
S cript
a it
Ã ¬
ĠB ant
ĠB ec
Ġsp herical
Ġdivid ing
im i
ĠE b
18 83
ĠWe i
Ġkeep s
Ġbapt ism
H F
L ew
n ick
Ã ½
Ġbi ochem
Ġcart ridge
Ġhomosexual ity
Ġprolong ed
ĠC ove
Ġdis par
Ġextra cted
Ġcoron ation
ĠTrin idad
rape ut
D ig
L M
Ġc aves
Ġp ension
ĠK ais
Ġunder took
ĠFran ks
Ġorgan izational
ĠDo om
J er
R h
ĠN ou
ĠV ald
Ġarm ored
Orig ins
Ġh iking
ĠG erm
âĢ ²
ure l
Ġprof itable
ĠWe ap
Ġaud ition
ĠBasil ica
c ole
l ake
r ified
Ġ á
ĠM t
ĠDe e
Ġoccup ying
Mar ie
ĠR C
ĠG ol
lect ive
St ep
Ġtw elfth
ĠTal iban
Ġo mn
sh ort
Ġgen ocide
to ire
ĠTw elve
iz ards
que z
Ġsus pect
ĠR ules
ug ged
yn ch
Ġhold er
Ġimplement ations
Ġfus elage
J ones
Ġs ap
umb ria
Ġisot opes
C amb
ĠG iuseppe
est o
18 84
ĠSw ift
D M
Ġsymmet ric
18 86
Ġaddition s
Ġbacter ial
ĠAntar ctic
it ia
Ġle ase
Ġdes p
Ġclass room
ara oh
Ġgrant ing
ĠB olshe
ĠZ ap
unt a
Ġspot ted
Ġdecor ative
ĠDirect ory
Ġl acks
ĠSe ga
Ġref ined
Ã¨ ge
Album s
o ge
Ġw ax
Ġv inyl
ĠO bl
Ġbra ck
Ġalign ment
Ġfart her
C am
D ata
ĠS ource
Ġpriv at
Ġstay ing
Ġt ones
ĠH utch
em ar
ĠG av
Ġle isure
ĠRe x
Ġsec uring
Ġwest ward
Ġsurv ives
ĠC T
ad ays
ĠH appy
un i
Ġent ropy
por a
ĠMed ic
Ġsket ches
Ġen forced
Ġsoc io
Ġmot ivation
Ġbur st
Ġhit ting
ro kes
Ġautom ated
Ġethnic ity
Ġmyster ious
ĠC ult
Ġcan cell
Ġprop ulsion
Ġdam aging
te ch
ĠBo one
Ġbal anced
ĠHus sein
R O
ad u
Ġwh is
ru ctor
Ġ17 99
Ġworld s
ĠHol t
kef eller
Ġl ag
ĠH arl
ĠW ant
Ġshort s
ĠPaul o
Ġfree zing
Ġstri pped
Ġsurve ys
Ġspe ar
Ġmag ist
Ġdrop s
g one
ĠH ak
ĠR iv
Ġintrodu ces
ĠSoph ia
Foot notes
ur u
Ġnumber ing
Ã¼ n
ĠWW II
1 15
Ġfe as
ĠSw ord
ĠRes cue
Ġstory line
Ġlegisl ator
Ġexport ed
Orig inally
n m
art on
Ġr ider
ag raph
Rel igious
ĠLaure nt
Crit ical
Ġgamb ling
g ender
ĠPh D
spe c
Ġcompar ative
ĠMaced onian
ĠDamasc us
S erv
ĠB rain
ĠD id
Ġst range
ĠIn spe
Ġins ight
ĠRes istance
Ġcat ast
ĠSix th
Ġrent ed
Ġbes ide
Ġaggress ion
Ġb arn
Ġse ct
Ġsh ores
Ġrec ount
ortun ately
Ġeru ption
Ġe cho
ph il
Ġass erts
Ġorgan izing
Ġdel ays
ĠAut om
Te chn
ĠSav age
T ex
Ġf ingers
ad ors
ĠD rew
ĠY uk
Ġgeneral ized
ĠAust ro
Ġcare ful
ÃŃ s
D er
al one
ra k
ĠAg u
Ġ180 5
Ġflo ors
Bra zil
or os
Ġvis itor
Ġsan ction
ĠT es
ĠW itness
op atra
Ġneur ons
Ġbesie ged
ĠT usc
ĠC rete
ĠG ul
Ġlic ence
ĠEst ates
Ġfeud al
S upp
ul ance
ac etime
ĠX III
ĠPres ley
zz o
Ġran ch
ĠLaure l
ĠIceland ic
Ġoverth row
ĠVers ailles
. -
B ob
ĠS I
ĠA IDS
ans en
Ġread ings
ĠPost al
north west
Ġp osed
ĠF letcher
Ġsp anning
ĠUS AF
Ġdeb ts
aut ical
Ġpath way
Ġprepar ations
B rown
St and
ĠLuc ius
% ;
Ġbus h
Ġcalcul ate
ĠMid lands
ĠWolf gang
b ol
Ġg rap
ĠF res
oss ibly
ĠEl iot
itor ium
ĠD erek
Ġ17 96
ĠDick inson
ĠH i
Ġch ocolate
Ġtra vers
Ġend emic
ĠSte fan
ĠCole man
Ġb arriers
Ġat op
ĠSe pt
Ġcycl ing
ĠDw ight
ut ory
ĠSus queh
at io
us ement
ĠP eck
ĠG ri
ĠEm erson
H T
u ates
ĠH ep
Ġover head
Ġinv ade
ĠPsych ology
ĠBeaut y
Ġprelim inary
Ġdes irable
ĠMer cer
Ġdefend ant
ĠLoren zo
Ġb out
ĠL ands
ĠJ et
man y
10 5
Ġactiv ated
p ay
ĠB ren
ĠK ens
ĠLat ter
af i
ĠSl ov
h ighest
en b
il ers
play ed
ĠSl ovakia
Ġmic rop
flu ence
ĠKy oto
Ġrecommend ation
Ġindirect ly
Ġnutri ents
ĠPatric ia
B ox
v ie
z an
ĠE yes
ĠRe y
Ġshe ets
ĠNe olithic
Ġexped itions
Ġgran ite
Â ·
ĠN othing
Ġhom eland
vol ume
B ay
ĠT il
ĠW ire
Ġband width
ĠParliament ary
ĠGib raltar
Ġt ense
Ġsubd ivided
b irth
he ng
in ians
ĠD iss
act ory
Ġep onymous
ĠSl am
asc ar
ĠMesopotam ia
il ight
ra id
row ave
Ġfamous ly
ĠWal sh
Ġhom age
ĠPear son
Ġd in
ĠY a
Ġoff shore
AT A
Ġpatron age
ĠH ern
ĠE bert
roph ic
Cal ifornia
ĠB ates
op ia
Ġwhere in
Ġchar tered
ĠRail ways
Ġviol ations
Ġden ounced
Ġgra ves
erg ies
H D
Ġver bal
ĠRu pert
J im
p y
ĠG y
ri ka
Ġ17 75
ĠChe v
Ġattract ing
Ġincorpor ates
Ġchlor ide
Ġprest ige
pend icular
Ġbrill iant
t el
Ġf ant
Ġm aker
ce ans
ts ville
Ġcontin ually
ĠOrgan isation
ĠS ou
Ġl an
Ġexcept ional
Ġspecific ations
Ġdefin ite
ba um
ĠWolf e
Ġsleep ing
ĠVeter ans
| }
Ġform ulation
Ġkn ights
Ġhuman itarian
ĠNob le
Ġ(+ /-
ĠUrugu ay
ĠS pl
oc ument
Ġdisc ourse
Ġvalid ity
ĠÄ Ĳ
I ll
Ġtro op
ĠStra uss
Ġunpre cedented
Ġk iss
Ġcolle ague
ĠGar field
Ġsp iral
Ġgen ius
Ġvarious ly
Ġreform ed
Ġdoub les
Ġmand ate
stan bul
L es
ĠAl pine
Ġprop het
Ġlow ered
ograp hed
Ġfirm ly
Ġexplor ers
un ion
ubl ics
18 65
ĠLe Ã³n
ĠAut o
Ġmerch and
h ot
ĠP ersonal
ĠR ole
Ġgas oline
ĠPan zer
Ġglob ally
B E
M ot
all ow
Ġsur prising
Ġcomment ator
ĠLow ell
ĠAltern ative
ĠSt o
Ġadj o
osa urs
r ush
on te
as ium
ĠAthlet ics
ĠVirt ual
N G
ĠM its
Ġins cribed
ĠIm age
ĠWhe eler
Ġvacc ine
ĠFitzg erald
ĠR oma
Ġdef icit
Ġsuper hero
Ġmem oirs
Ġadj usted
G r
p ublic
ĠM ons
ĠP od
Ġun e
Ġatt ribute
Ġinst ability
oph il
Ch ap
ĠLik ewise
Ġw eld
ar row
ĠN avig
pt a
con duct
yt ical
Ġnarrow ly
Ġprol ific
raul ic
16 6
Ġref uses
Ġexperien cing
Over view
Ġshr ine
c amp
e er
ent er
ĠW id
ĠSt range
Ġag enda
ĠWh y
T win
p rop
og ly
Ġen velop
Ġbu ck
Ġsur prised
Ġsl aughter
AR C
ĠCrit ical
Ġbes ides
ĠN O
Ġ17 0
ĠSh a
ĠCl iff
Ġpromot ional
ĠMov ies
Ġdevast ated
us k
ĠF ol
app ropri
d ou
18 82
ĠEm b
ij a
b ore
u ber
Ġp ear
Ġd ining
Ġlit eral
epend ence
Ġstream ing
Ġd ancers
Ġoff set
Ġposition ed
Ġtw ins
Ġcontrovers ies
Ġcru el
ĠTon ight
O H
ub en
18 81
ĠPol yn
Ġtrust ees
Ġpoison ing
ĠSter ling
Å Ļ
Ġp orn
ĠP ir
ich te
Ġplace ment
ĠTo o
ĠWal ton
Ġdon ations
Ġrhet oric
E arth
al ine
ac ial
ac rit
ish a
ĠPol es
ĠCard inals
Ġmob ility
ĠManit oba
Ġsher iff
V C
Ġbre ach
ĠBh ut
Ġshar ply
ĠA A
rit ies
Ġceleb rating
ĠHaw ks
Ġcatal yst
ĠBry ant
Ġw ors
ĠSt yle
ach ute
Ġind ication
inn ess
Ġharm ful
Ġanaly zed
Ġinadequ ate
Ġp ec
Ġres istant
ool og
Ġarch ipelago
ĠHistor ically
Ġs ank
ĠP am
ĠH uss
uk u
Ġdecl ares
Ġflood s
ĠLeban ese
ĠLuft waffe
Ġmon ster
Ġsl ide
ched elic
ĠS ail
ĠB onn
ĠSh annon
ĠPatt erson
w elling
oh an
ĠEs per
ĠXV I
Gold en
Ġcr ude
Ġmeth yl
ĠDud ley
Ġm akers
ur bed
ĠI roqu
ĠAl g
Ġkn ot
Eng land
Ġcommission er
ĠAz tec
Ġkilomet res
Ġn aked
part icularly
ĠAbb ott
Ġc ens
Ġf itness
Ġd ug
Ġh ook
ĠHistor ian
Ġsil ence
w y
ch urch
Ġun iqu
Ġfa una
acc ur
Ġobsc ure
D E
m l
p unk
Ġl av
Ġarm oured
Ġcav ity
h oun
Ġw olf
ĠS ister
Ġpl ag
Ġcomp ress
oci ation
bl ock
Ġcustom ary
I reland
Ġb or
Ġimp ly
ocr at
Ġhard er
ij uana
ias m
Ġsal mon
ĠHem isphere
Ġreprodu ctive
Ġunpopul ar
E gypt
Ġh iding
ĠC apt
ĠF i
iat us
is en
al on
ĠCom prehensive
ĠMon aster
ĠGi ul
ĠElis abeth
ĠC ron
ĠOtt omans
v ae
us hes
Ġon ward
ne ath
Ġloc ked
ĠÅ Į
ĠTourn ament
st orm
Ġv est
18 71
Ġsim ulation
Ġbur den
i ov
Ġrenov ation
G P
Ġt ough
er ated
ar ro
um per
ember g
ĠCl air
ĠWill is
ĠMon aco
Ġcost umes
ĠPied mont
M ill
ct ica
ug u
Ġaccommod ation
ĠAndre a
M id
we b
18 73
ha o
Ġdi abetes
ĠEver ett
R P
Ġc her
Ġor thodox
ri us
Ġmotor way
ĠA way
ĠV ick
Ġcou rage
ĠMy an
ĠDick ens
Ġacceler ated
3 50
4 17
Ø §
he rence
ar ine
Ġun changed
ĠUz bek
Ġt on
Ġse aled
ph a
Ġcor rection
Ġfin ancing
ĠBo oth
Ġlog ar
Ġrat ios
Class ical
Ġ ul
ĠMar athon
Ġatt ained
ĠBro oke
Ġtheor ist
en za
al ogy
Ġd orm
ĠC avalry
Ġr iders
Ġdis establish
Ġ13 5
ĠBr as
Ġsol ving
Rep ublican
m ic
on ius
Ġem ail
ctor ate
Ġresid ences
ĠProgram me
Ġoverl ap
l ich
ĠM are
ĠR utherford
ary n
ight y
Ġsp ur
up on
Ġreson ance
ĠFort une
ĠMcC ain
Ġexplo itation
Russ ia
1 12
ĠB ard
ĠD ust
cont inent
Ġhumid ity
ĠCic ero
z ier
Ġimpl icit
ĠCitiz ens
Ġl ob
ĠF ischer
Ġpersonal ities
Ġhighlight ed
ĠGeneral ly
Ġmodel ing
Ġsat ire
ĠFore ver
Ġjud ged
ĠMyan mar
Ġt ide
ĠP ere
ĠK um
ĠLand mark
Ġtet ra
Ġm osa
ĠC able
iss on
pro cess
Ġprogress ed
Ġbot tle
Ġevac uated
F T
N BA
Ġc ensorship
Ġke en
ĠOak s
ĠRoc kefeller
W el
j ing
Ġpl ots
ĠBe ast
ĠMid land
ol ley
Ġl amb
ĠF ayette
pl ing
Ġra y
l ishes
ĠE rik
ies el
ong a
Ġle ased
18 79
ĠClass ics
Ġreper toire
ĠR as
Ġman or
ĠItal ians
Ġentire ty
ĠGran ada
Ġdream s
Ġcongreg ations
Ġmetall ic
Ġmascul ine
Ġm yself
Ġh ollow
ak is
Ġdis lik
ĠZepp elin
n is
ĠL ip
ĠEx eter
Ġdivid es
F ellows
ĠV ision
Ġcur ved
O lymp
P an
Ġm ol
ĠG est
iet z
Ġfinal e
Ġm aj
ĠS ally
ĠPr int
Ġmil itar
Ġtransl ate
unk er
Ġaltern atives
Ġsens ors
Ġcanon ical
Ġrectang ular
C E
O b
i ency
Ġb il
as aki
pe i
Ġse ize
ism arck
Ġaver ages
Ġsk ate
Ġstruct ured
Ġconstit utes
Ġ ×
ĠV eh
Ġph ones
idd ing
orpor ate
ĠH ost
Ġg ol
ĠIn iti
Ġch aos
olog ue
Ġ17 70
iform es
Ġmit ochond
N P
ar b
10 2
Ġcapt ivity
Ġdiscuss es
Ġstrongh old
w rote
ĠWild e
ĠAlexand ra
Ġkin etic
ĠChall enge
Ġre pt
ĠG A
os o
Ġequ ity
Ġprem ises
Ġabsor b
Ab out
Ġf lesh
ĠB enton
ĠH ed
ĠH arri
ĠF ow
Ġle ap
Ġfoc al
Ġpun ct
ĠSchwar z
L R
P ass
g iving
Î º
Ġc af
ĠS my
ĠC ert
che v
ony ms
Ġcounty wide
Ġord ained
ĠMad ame
Ġstret ching
ĠKnow ledge
at u
ĠL und
for ward
Ġactiv ation
Ġcert ification
ĠK ru
ĠX en
let ter
Ġshif ts
ĠCly de
ge ois
op us
Ġres ervation
18 78
ins ki
ĠAm ph
ĠMac Donald
Ġg aming
Ġp end
ĠT in
ĠF arn
ĠD ru
ĠCom ic
ert iary
ĠHol iday
Ġdramat ist
ĠLif etime
P rop
c ost
r iver
Ġun necess
Ġass et
Ġposs ibilities
ĠLy ndon
Ġsoci ologist
Ġhe ct
Ġsu its
Ġsur plus
Ġret al
omen cl
Ġur ine
ĊĠĊ ĊĠ
Ġchief s
ĠSol id
ĠOdys sey
A st
ĠH BO
ri ac
Ġind ivid
ĠLe igh
ĠSecond ary
ĠCirc us
Ġalleg iance
Ġjew el
l ining
ĠA FL
ĠL ot
ĠW ise
ag ascar
Ġco oked
ĠSp iel
ĠCor p
Ġathlet ics
ble ms
Ġel astic
het ics
Ġal ike
Ġ12 1
Ġpat ch
Ġsan ctuary
Ġgram matical
ĠVolunte er
Compan ies
M O
h istory
l ings
ĠTh an
ĠCal v
Ġrestrict ion
B orough
her st
Ġinc ap
sequ ent
Ġneg lig
Ġcoord ination
Ġdevast ating
ĠESP N
ĠDres den
ĠS we
ĠC ounter
Ġinc idence
18 67
Ġvot er
Ġaff ection
ĠBre ton
ĠHamm ond
Ġculmin ating
d ict
ĠB ears
ĠR ide
ĠLeg al
Ġbehavior al
Ġcrow ds
Ġecc entric
ĠE uler
Ġfl ies
ĠEn c
1 13
Ġa u
ĠP end
ans on
18 60
Ġem igrated
fl ower
Ġgu errilla
Ġdeb ris
At lantic
ĠBritt any
ĠC rane
ĠD OS
ĠD ifferent
Ġdec ommission
ĠCl ap
Ġref using
Ġexplan ations
Ġtu berculosis
Ġw ires
ul atory
ins ic
Ġautom otive
ĠEthiop ian
Ġbotan ist
Ġfier ce
ĠCh att
ph i
ĠSch olars
Ġconsider ations
Ġconcent rate
ih u
Ġalcoh olic
r ants
ĠC ash
ĠI st
ĠF rÃ©
if iable
oc us
Ġinc oming
Ġsp arked
ĠMag dal
lem agne
Ġconstruct ing
Ġsquad rons
ĠA TP
ĠP irates
Ġint ensive
18 61
Ġmet ro
Ġref use
Ġmut ations
Ġjump ing
Ġauthent ic
10 9
Ġmat ched
me aning
gn osis
Film ography
Ġmac ro
Port ug
ĠPrad esh
V en
i ya
ĠT ate
Ġpres cribed
Ġide ological
Ġsens or
ĠI EEE
Ġdist ress
ĠWorld s
Ã¢te au
18 68
Ġconclus ions
en ergy
Ġth roat
Ġg re
Ġbe ans
Ġoffer ings
ĠKh mer
Ġcru c
ĠDream s
ĠKey nes
Hung ary
ed es
ire n
int age
ale igh
Ġjournal ism
Ġacadem ics
stand ard
is ans
ĠM ini
Ġform ulas
Ġext r
Ġmer it
Ġdepos ited
W ild
ĠR ust
if a
ff er
eg ovina
Ġflood ed
Ġhier arch
ĠAppalach ian
Ġantis em
Ġp irates
le ader
ĠB ax
ĠR Ã©
ran king
orth y
33 3
Ġpsych ologist
Ġsurvey ed
Ġbreath ing
ĠP red
im edia
Ġg el
Ġout lined
ĠGeor getown
ĠRes olution
Ġcost ly
Ġdefend ers
ĠB oul
ĠF ulton
ĠW itch
amp ed
ĠMad onna
Ġpack et
ĊĠĊĠĊ ĠĊ
inte g
S ix
Ġd ump
ĠW ide
ew ell
Ġvar iance
Ġcre st
ĠĊĠĊ ĠĊ
ps ons
ĠCle opatra
Ġtransf ers
ib ration
Ġmid night
ĠHard ing
ĠCow boys
Ġperipher al
ĠH ap
Ġappe als
Ġfac ial
Ġhun ter
ĠChand ler
as o
ĠP ie
ĠComm unication
ĠEx cell
Ġobserv ing
Ġborough s
ĠPent ecost
Ġ 00
ĠMar co
Ġviol ated
Pol ish
es on
Ġp roud
Ġkn ife
ĠSouth ampton
Ġcr ushed
You ng
s ided
Ġl augh
ĠMe eting
Ġform ulated
Ġnon etheless
ĠCorn elius
Ġpreval ence
Ġhtt p
L GBT
Ġt ran
Ġh ymn
ĠUn cle
Ġspec ify
Ġhal ted
Ġsubord inate
v ill
ĠT et
ch in
Ġacqu iring
su per
ĠAlleg heny
P erson
c art
ĠAl s
Ġpre vention
Ġcompuls ory
ĠCh oice
Ġ17 50
con i
Ġemphas ize
v ine
less ly
Ġbi ographical
Par is
S ah
Ġf rozen
ĠN J
are a
Ġland marks
ument al
Ġdiet ary
Ġaqu atic
ĠSusqueh anna
f inals
Ġp ocket
ĠChrist ine
ast rous
ĠRec ent
ĠMiss ile
Ġobject ed
Ġvict orious
Var ious
d ependent
f man
l ord
ĠT omb
ĠE cc
ĠK ind
Ġ3 000
Ġper ce
Ġrel ate
Ġnames ake
ĠMass acre
L ive
U R
Ġdec oration
ae a
ĠX avier
Ġpat ented
Ġident ities
Rel ations
ĠKra k
r if
ĠS ina
ĠA I
Ġday time
Ġaff iliation
ogenes is
b as
m ma
à ¥
it ives
ĠT ian
ĠR ural
ne z
ĠPrincip les
ĠScandin avia
F I
Ġd awn
ĠB ibl
ure mberg
ĠÎ ¼
Ġastron omers
Ġtransmit ter
Arch itect
H ard
L ate
c oll
Ġs ink
ĠH ume
ip linary
ĠWilliam son
Ġcrit ique
m u
Ġs ou
Ġp ound
Ġn urse
ear th
Ġsupp ression
Ġresc ued
Ġshif ting
Ġp anc
ĠGarc ia
ĠStir ling
Ġto y
Ġl oses
ĠE MI
til es
ĠDep ot
ĠHor iz
Ġpoly g
Ġcomed ians
Ġstret ches
Ġkne e
Ġrem ix
ĠSh o
Ġtheolog ians
Ġpup il
in ational
Ġlay ing
ĠIll ustrated
C ard
ĠT H
ĠW ee
het ical
Ġteen age
Ġin ception
im us
Ġad herent
Ġmed ication
Ġsign aling
16 00
ĠAc ad
Ġwarm ing
ĠUnic ode
Ġsurg ical
p ace
Ġpro to
Ġair ing
itarian ism
gart en
Ġconve x
Ox ford
ĠCl aus
Ġcop ied
g ue
Ġforeign ers
Ã¨ res
ĠHam let
Ġhapp iness
Ġtransp arent
ĠL ing
Ġex ecute
ĠInn ov
Ġcompat ibility
ĠBark er
ĠVoy ager
ĠN ac
rom atic
18 76
Ġsm ugg
ĠAm iga
Ġswim mer
Ġ Âł
Ġe ars
Ġab rupt
fore st
Ġgame play
ist ice
ĠMathemat ical
M icro
f rey
ĠS ang
ĠB enson
ob o
ĠPl ut
Ġdem o
Ġdem on
s pan
ĠT itus
ĠEm manuel
Ġgol fer
V an
Ġr ides
ĠU V
Ġar ises
Ġconver ts
Ġdoctor ate
Tur k
Ġl ent
Ġe ternal
ĠW et
ĠW ick
ne ction
Ġimp ose
Ġequ als
Ġdeal er
Ġreinforce ments
Ġs perm
ĠL ah
Ġhe ll
Re v
cl osed
Ġp ushing
ĠJ ain
Ġper pendicular
ĠHar ald
Ġce iling
ĠChrys ler
Ġm ice
ĠB le
ĠB org
ĠR andy
ĠN in
Ġ17 83
ĠApp roximately
ĠAsh ley
á» ĩ
Ġun itary
Ġen cyclop
sh a
Ġover night
ĠAr chie
Ġmod ulation
ĠRes ort
Ġresemb ling
Ġdegrad ation
S un
p el
ĠMu gh
Ġsup ersed
N O
ä ¸
18 64
ank ton
ĠBas el
ĠEt rus
ĠAF B
y u
ĠB rom
18 50
ĠSmith sonian
Ġreve aling
Ġflu or
Ġclean ing
ĠMalays ian
Ġtheat res
M u
Ġt ender
ĠS M
ĠW ave
od on
ans om
ven ge
Ġintent ions
f est
Ġd Ã©
ĠH ang
aus ole
ram er
ĠCar penter
Ġdyn am
Ġalumin um
Ġvert ices
Ġpneum onia
Ġmed ications
ĠCal d
Ġdisp osal
Ġcard iac
Sc ient
Econom ic
Ġpharm aceut
I ran
In ternet
Ġinst ruct
Ġdisc s
ĠSen ators
back ground
ĠBah Ã¡
Ġtun ing
ĠQuin cy
ĠH imal
em on
Ġcomp ressed
Ġfl ame
ĠMan ual
ĠFl ood
ĠChe shire
Ġconver gence
Ġpredomin ant
Ġcomfort able
Adm inist
ĠW ash
ors et
Ġ24 0
ĠMon ica
Ġsepar ating
Ġmamm al
Ġpersu ade
Ġswit ches
arr ass
ĠSchles wig
Pac ific
er i
Ġh ate
ĠP u
ĠL ep
Ġsatisf ied
Ġles bian
ĠFace book
ĠJub ilee
' ).
Ġm old
ĠCh ick
Ġar tery
Ġra ck
Ġsc reens
Ġestab lishes
ring e
Ã¼ ck
ĠVaugh an
in z
ar ist
ĠA ce
ĠUS D
Ġhistor ies
Ġadop ting
ĠJackson ville
Ġcontribut es
ĠSom alia
Ġmos que
og ie
ĠDist inguished
ĠDan i
Ġgener ates
G al
g ary
18 75
Ġwork force
oint ed
com puter
agon ists
ĠAndre as
l ov
nd el
ra z
Ġprogress ion
ĠMos que
Ġneut rons
Ġvend ors
ĠR ica
od or
Ġcont empl
rid es
by e
Ġconc lude
ĠSch um
ĠPort rait
ĠProf ile
Ġjur ist
Ġment or
Ġexpatri ates
omencl ature
n ear
in ical
in ctions
an ol
Ġb od
ĠW er
Ġdestroy ers
Ġimplement ing
ĠMat ilda
Ã« l
Islam ic
Ġfilt ers
w agen
Ġw agon
ĠS ag
ĠMac Arthur
with out
Ġupd ate
Ġtrump et
at en
Ġ17 88
tt i
be cca
Ã¼r tt
Ġpupp et
Ġapplic able
L anguages
g rowing
w ife
Ġc ros
Ġto ys
ab ies
Ġint u
ĠL ug
Ġexp ans
Ġcre m
ĠSch midt
Ġimag ination
Ġexchang es
f u
Ġst iff
Ġres ur
Ġtr unk
ĠHispan ics
Ġprem ium
Ġsun light
Ġknock ed
E X
b ably
Ñ ĥ
ĠR iley
ĠD ixon
Ġinter rog
Ġam alg
Ġhoriz on
ĠT ap
Ġl os
ĠE du
Ġmut ation
mont on
ĠPap al
ĠAppe als
y ria
Ġfe els
ĠShe ll
pro t
ĠMin h
Ã¸ y
child ren
Ġanat omy
ĠZ ero
Ġassum es
pur pose
Ġpreserv ing
ĠP oor
Ġcomp are
az y
ĠRod gers
V is
n ian
Ġtra ff
ĠMac intosh
Ġceleb rities
ĠJul iet
Ġut ter
popul ation
Ġdesk top
S et
o zo
ĠC oss
em is
ĠW erner
Ġse als
Ġâ Ī
Ġpip es
ubb ard
ĠBAS IC
ib les
18 72
ĠPer uvian
Ġden y
Ġpromot es
Ġsyll ables
ighbor hood
ĠL ill
Ġ17 5
Ġevery where
ĠEx c
Ġrepl ica
C onst
ĠF ou
Ġdis pro
ĊĊ ĠĊĠĊĠĊĠĊ
Ch urch
Ġphot ographic
Char acter
b ig
t land
st ick
Ġapp end
On ly
Ġload ing
Ġsummon ed
ĠJ ude
ĠK ang
Ġrec y
18 69
ĠCon way
Ġcy an
So ft
ĠD ana
ĠV ander
Ġsp or
Ġenc oded
Ġarchae ology
Ġfor ts
ĠEl i
ĠVir gil
T H
ĠC raft
ĠG iant
ĠDo ctr
Ġinput s
B i
d ated
ĠI stanbul
os aurus
Ġpro ton
ĠAp ache
ĠMir ror
Ġdoctr ines
ĠKer r
ĠCer tain
Ġcon e
Ġreal ize
Ġcal iph
ĠIm ag
Ġve in
Ġflex ibility
Ġdisestablish ments
w ere
ĠD atabase
10 6
Ġbus iest
Ġiss uing
Ġrecogn izes
Ġs inking
art z
air craft
ĠMatthew s
Ġampl itude
Ġris en
ĠL A
ĠGood man
ĠRaid ers
Ġp our
om ac
ĠC ot
ĠG ap
ĠJenn ings
Ġlung s
ĠBuch anan
Ġs oy
Ġpre jud
10 7
ĠOr ion
Ġrad ial
Ġcartoon ist
Ġmanip ulation
ĠSard inia
! !
c ur
oll s
Ġdis astrous
ĠShe pherd
Ġindu ce
Ġsw ords
Ġstre ak
Ġsens ory
Ġheir s
ĠTasman ia
Ġembra ced
or ical
ĠS ino
ĠD ise
Ġtra uma
Ġqu otes
az ar
ĠAv on
Def unct
Ġilleg itimate
Ã¼rtt emberg
u ce
ĠB rag
ur ers
end ish
Ġunder going
de veloped
ĠCop per
Ġh urt
ĠS pani
Ġwe ights
ape ake
Ġfair y
ĠUg anda
F ive
ĠW ade
out ing
Ġoper atic
ge b
L at
Ġb ark
ĠM ood
Ġr ites
ash ire
ott i
Ge org
ĠAssoci ated
ĠChe ng
Ġunus ually
ĠLev i
on ut
Ġj oke
ĠWill ow
ĠCam er
ĠForm ation
and ra
ĠUn ity
Ġoff ense
ĠSh op
ĠRob b
ĠUs ually
Ġbra ke
Ġelim inating
Ġcommemor ated
ĠExpress way
Ġastronaut s
Ġdism ant
ĠCour ts
ĠJud ah
ĠCle m
Ġsimpl est
ĠAppe al
P ower
v ity
ĠB ram
Ġnational ity
ĠBy r
Ġdefin itive
Sp ain
ĠCard iff
Ġearthqu akes
Oper ation
eneg ro
Ġmoist ure
Ġw ards
ĠB oss
ĠThe rm
Ġunder way
enn on
cept s
ĠAf ro
Ġcampaign ed
Ġcontrad ict
G I
R og
ĠV ie
Ġunw illing
Ġhorm one
ĠManufact uring
rapeut ic
h ops
Ġhum orous
Ġjust ification
ĠGreen ville
Ġtravel ers
Ġbank er
Liter ature
ĠHellen istic
Ġsp are
ision al
Ġstret ched
ĠIber ian
ĠC asc
Ġst ir
ĠBl ind
ĠNo ah
ĠUnivers ities
Ġexchang ed
ĠSh ak
16 0
36 0
Ġinstall ations
3 20
ĠBul let
Ġcancell ation
) /
D NA
ĠS F
st reet
Ġas hes
ĠTre vor
s ource
Ġc ipher
Ġb urg
ĠT ank
ĠR ag
ĠF asc
th us
ĠGe ographic
ĠMal i
Ġexam ine
Ġrein st
c us
Ġs acked
st a
ce ae
ĠG le
ĠV HS
Ġintellectual s
Ġstrugg ling
k u
he a
Ġm isc
ĠC F
Ġjust ify
ym pt
Ġpur ported
Ġtrou bles
Ġculmin ated
ĠC obb
pl ays
Ġfore ver
Ġepid emic
f s
Ġf Ã¼r
ĠCl ar
Ġexpl oring
Ch ic
Ġappoint ments
Ġclim ates
Ġin accur
ĠN eum
ĠN inet
ill ation
Ġse ating
Ġex clusion
Ġdec ent
Ġconver ting
Ġpack ages
RA M
ĠOpp osition
Ġindivid ually
D s
op ic
Ġex otic
ĠV ia
Ġdef ects
Ġproblem atic
ĠFellow ship
Ġansw ers
Ġhtt ps
h aven
Ġp ant
ul ators
Ġactiv ism
Ġbur nt
sk irts
ĠSin atra
Ġpropri etary
ĠHerz egovina
Ġamend ments
) ",
D in
Ġc ure
Ġd ive
Ġst ocks
Ġreg ret
Ġcomput ation
ĠAdv ance
e ight
ĠS ites
ĠA id
ol son
im on
ĠG aius
Ġparallel s
Ġoblig ation
ĠCase y
ĠC ivic
ĠN es
com be
ĠHar lem
af a
Ġfin anced
Ġdown stream
Ġminim ize
ĠProvin cial
( )
v il
Ġt ensor
it ious
ĠW ille
ild er
Ġpract ically
ĠCor ridor
Ġdam s
Ġunivers ally
Ġexcav ations
Ġl att
ĠR anger
ĠD ock
ĠK aw
Ġ12 7
Ġadvoc acy
ĠFal con
Ġaxi om
B ern
ver b
Ġinv alid
Ġsomew here
ĠOcc up
K h
d rop
ĠM yr
Ġrebu ilding
Ġprocl aim
Ret urn
Ġconting ent
Ġvir al
Ġgraph ical
Ġresemb lance
Ġsubsc rib
Ġpilgrim age
ĠAur ora
ay ana
ĠG ian
ĠFor rest
ĠVol ta
b iqu
ĠTh orn
ĠSoph ie
I l
Ġs ake
ur ations
un gen
Ġpres umed
Ġph ylogen
ote chnology
ĠJud ith
ĠT os
ĠA ene
ĠG ob
Ġreg ain
ĠNor ris
Ġmist ress
ĠBron x
ĠDeuts che
F i
N ap
p i
it ating
ĠP ip
ĠW ine
ĠK ok
Ġdef enses
ĠMet all
ĠAnn o
âĢĿ ,
Ġbow l
Ġanarch ist
Ġkit chen
ĠM O
ĠI F
ĠL au
ĠW att
Ġ7 50
Ġav ant
wer p
Ġfr ust
Ġexpect ancy
ĠPhilos ophical
) -
Ġref ere
lin er
Ġorigin ates
Ġemot ion
quis ition
Ġinterf aces
ogl ob
ĠCaucas us
Ġconject ure
ĠRaf ael
Ġdiagon al
ĠC aval
ĠN ero
Ġcould n
unn ers
Wh o
Ġaccompan y
Ġdark er
ĠRub y
aum ont
ĠHond uras
m ag
w ear
Ġdem ise
Ġtransl ates
ĠBerks hire
ĠParagu ay
B ul
f jord
Ä Ł
ĠH ok
ĠW en
Ġ12 3
ene gal
Ġbord ering
Ġcooper ative
Ġsuscept ible
Ġunder neath
Ġlit urgical
Ġpurs uing
Ġtelev ised
am ar
ĠR F
ĠL ingu
ĠMer ced
Ġtext ure
ĠJama ican
Ġcoc aine
ĠBud apest
O ur
t us
ĠC BC
ĠE ur
oc les
oc lass
Ġsu cc
ĠMar quis
Ġterm inated
ĠSim psons
Ġf ond
ig raph
ĠH oney
Ġst raw
Ġr am
Ġ12 00
ĠEm ploy
Ġport f
Ġemb arrass
Ġconstitu encies
igg ins
Ġimmun ity
F air
ĠE lection
ell ant
ress ions
Ġtre asure
ĠJose f
ĠNich ols
ĠCarm el
Ġpsychiat ric
le ased
ĠR ings
ĠL oyal
ĠF ors
ĠRober to
ĠSet tlement
L o
Ġf og
le hem
ĠO vid
Ġcomm issions
ĠBar ber
Ġdeliver ing
Ġtempor al
h of
ĠCl arks
cl ock
ĠSm art
Ġcontribut or
utt gart
Ġmarch ing
ĠSut ton
ĠS addam
18 8
ĠWest on
Ġdyn asties
Ġsal vation
olt z
ĠHur on
Ġambig uous
s em
Ġb ail
ĠS TS
ĠM iy
ĠR ough
Ġor nam
Ġne ural
Ġmass ac
Ġpers istent
ĠJud y
Ġir rit
Ġpharm ac
Ġspont aneous
ĠKais er
1 000
Ġc ites
ich ita
Ġun aware
18 59
get t
van a
Ġnetwork ing
L ine
ĠL amp
ib ia
sh an
ts ky
ĠChar lemagne
Ê ¿
st aff
ell an
ens ation
Ġun named
ĠPr ide
ĠCanad ians
Ġju ice
ĠTunis ia
Ġin e
ĠC i
Ġl amps
its ch
Ġrank ings
Ġefficient ly
ĠExper ience
f b
ĠL augh
Ġsc rew
az ing
ĠCal ed
ĠTur kmen
Ġgra pe
pres ident
ry an
fl ies
Ġprom ises
Ġcollect ors
Ġphysic ists
Ġbuff er
Ġdislik ed
g arde
v ous
ĠA in
ĠCl ose
Ġend ings
Ġshort age
Ġbattles hip
Israel i
Ð ²
it at
ĠH umboldt
Ġdesign ing
ĠSam ar
ĠCont est
ĠP ablo
ĠW are
Ġup stream
Ġ17 87
Ġnatural ist
Ġtur ret
Ġcontam ination
ĠEuras ian
H a
T ai
Î ¯
iv ist
all i
ĠSt ream
Ġstation ary
ĠEug en
ĠGaul le
L U
Ġback up
Ġphilos oph
Ġshut tle
ĠD ell
Ġ17 77
eg u
ĠMon ster
Ġhold ings
Ġaccept s
Ġgener ators
ĠMad agascar
Ġnight cl
Ġchromos ome
c is
Ġm ars
ĠA ve
ĠG at
ĠN uremberg
if eration
ens itive
Ġmark ers
ĠEv idence
Ġgarn ered
ĠV ert
ĠCons ul
Ġexceed ing
Ġclar inet
ĠHoff man
r usted
le af
ad t
ib a
Ġinter red
Ġapart ments
Ġje alous
ĠBritann ica
l is
in ear
Ġf atty
ĠT aft
Ġcon gestion
ĠAr senal
Ġeight eenth
Ġpay load
ĠW ey
ry n
Ġocc ult
18 74
und a
Ġinn ocent
ĠCoast al
ĠBoy le
Ġbattles hips
ĠBalk ans
Ġadvertis ements
k ie
av our
Ġ12 2
ĠBot an
ĠSpiel berg
or ie
le et
Ġexpert ise
ĠCreat ive
cest ershire
ĠMcKin ley
Ġout skirts
Ġland ings
ĠMor se
rel s
rell a
Ġpip eline
ĠAntar ctica
ĠSabb ath
Ġshow c
ĠAb el
Ġcycl ist
Ġprosper ous
ĠIniti ative
v ich
op ed
est e
ĠAr cher
ern s
Ġref urb
cip ation
J o
r ÃŃ
Ġd uck
ach im
Ġref lex
Ġcorn ers
ĠB in
ĠW rest
os i
ĠN ice
Ġout let
Ġ/ /
Ġeval uated
ĠAnat olia
Ġconfirm ation
G rad
ĠB ri
ĠP urch
ra x
um ption
ĠReg ent
Ġarg u
Ġprompt ing
ĠAntioch us
e aux
ĠP act
og onal
ax is
ĠVar iety
ĠColomb ian
Ġansw ered
f requ
ĠF rag
18 63
ĠDavid son
Ġded ication
ĠHeart s
ĠBav arian
Ġurg ing
Ġw alks
ĠTh ought
Ġrev ital
Ġfarm land
ais y
indu st
B ase
ĠT orn
ĠD unn
Ġr ush
Ġad jective
Ġser ge
ruct ural
ĠBar rett
clus ive
Ġsubst rate
Ġoblig ed
Ġdeliber ate
ĠQuarter ly
ĠRever end
Ġargu ably
ut ral
ra ising
ĠCl aire
Ġprop oses
ĠEv olution
Ġdiss ent
Ġere ct
ĠLor raine
g rossing
Ġp awn
ĠEd itor
ĠMy ers
Ã¤ n
Ġenthus iasm
ĠMar vin
Ġmy stic
Ġver n
ĠFair fax
ĠBrad y
Ġarist ocracy
Philos ophers
b red
re as
Ġs ultan
ĠB ismarck
ir ming
ĠL us
Ġv oid
mer ged
Ġpot atoes
Ġsnow fall
ĠMaj esty
l ace
Ġthe rap
Ġc anton
el ves
ĠP ep
Ġprincip ally
ĠEgypt ians
Ġinvestig ating
at ches
ul o
Ġlar vae
Ġbi ologist
azz o
Ġblock ade
Ġpropag ation
Ġsubdiv ision
ĠJed i
Amer ica
et ed
ĠB AFTA
ĠR oses
Ġpres ided
Ġapp le
18 77
Ġexp ulsion
Ġ25 6
B B
Ġbut ton
ild e
Ġdec iding
ĠHer acles
ĠPer forming
Se a
IP S
ĠPass ion
ĠRi emann
ĠUlt imate
U se
m and
ad j
ĠR aleigh
os cop
av ior
ill ary
Ġmet re
uc le
Ġob jections
Ġvac ation
emeter ies
prof ile
Ġexcav ated
ĠJ iang
Ġu ph
hor se
cast s
ih ad
ĠNum erous
record ed
ĠD oyle
ĠSt ur
Ġun in
Ġrest ruct
Ġmind s
idel ity
Med ieval
ĠIroqu ois
Ġp aired
Ġg erm
Ġle ak
Ġwell s
ĠChrist ina
amb oo
Ġreal ised
Ġlandsc apes
n ell
t otal
ĠUn ified
Ġdis ability
Ġtra ject
iet al
ee per
Ġpred iction
Sc ot
ĠGrad uate
ĠCN N
c ross
Ġp ond
Ġh alt
Ġvir uses
Ġattract s
Ġscen ario
ĠMans field
ĠFerr ari
ĠCho ct
re asing
ĠR w
ĠCl erk
Ġcommun al
ĠPr att
Ġfun gi
ĠAre as
Ġpast oral
ĠTem per
Art icle
Ġw it
air d
ĠQu inn
Ġevac uation
ar ry
st all
C L
ĠSh am
Ġcor al
ĠHer r
Ġtim eline
Ġscatter ing
Ġunnecess ary
0 83
ĠD oming
av ers
Ġins ulin
Ġsuper vised
Ġdomin ation
Ġens ured
ĠSav annah
Ġreact ors
Ġocean ic
ĠC yn
Ġl ibr
ĠR are
ĠG ert
ale y
ai res
Ġsk ater
Ġroyal ty
ĠInn ocent
unning ham
Ġrep ly
ĠPar th
Ġdisp atched
Ġfranch ises
Ġsuperior ity
Ġt apes
um my
Ġatt ach
Ġbo iling
ĠNorth western
ij ah
grad es
ĠBon if
P et
n ie
w rights
Ġb ells
ĠC over
Ġpr icing
ock ets
ner y
Ġexc luding
Ġhar v
ĠPur ple
Ã©t at
ĠCarm en
M M
il and
ĠH ess
Ġair borne
ĠAir borne
Ġgrad ient
ĠDu ff
ĠBuff y
Mean while
Ġrem inis
pr on
ĠSh Åį
Ġcoord inated
Ġmic rowave
ĠValent ine
ĠC app
ig hed
ĠI R
ĠE gg
ific ent
fl ix
Ġimp ed
iol a
ĠBel mont
Ġdiss atisf
ĠPo et
E c
ĠT ul
ĠP ig
ĠE ducational
Ġsub stitution
Ġorgan ist
Ġfle eing
ĠGo es
ĠGent le
Ġpopul arly
Ġdestroy er
Ġoverl ooking
ĠDaw son
K B
Ġrec apt
olog na
aun ch
ĠLanc ashire
id y
ĠF ed
ĠSt ras
ep ers
ĠCorn ish
Ġmut ually
ĠBenn y
k on
Ġback ward
ek ing
Ġvir gin
Ġtarget ing
Ġaggreg ate
Ġs olic
Ġw ag
Ġc ache
Ġd ent
ĠS W
un ge
ĠHe y
Ġsp ans
ful l
ring ing
66 7
Ġblock ing
Ġa fore
ch at
Ġrec ession
omet ers
Ġrun ners
Ġconc urrently
Ġtro phy
aph ael
ĠHT ML
N ative
Ġw arl
Ġto ile
ĠT ennis
ĠP ist
Ġcap itals
ĠBo er
Ġlog ging
Mus icians
Ġin ex
ĠM ats
ĠB ing
ĠN ike
Ġloc ate
18 0
Ġcommun ism
ĠEm irates
ĠMed ici
Ġh iatus
ĠD iane
ast rian
oh yd
Ġrel ics
18 48
ĠSe al
ĠAd ult
ĠSch olar
r Ã¶
Ġse aw
ĠQ in
ĠEl k
ĠBern stein
worth y
Ġexplo ited
ion age
ĠB it
op ol
Ġbl end
Ġcommercial s
ĠFair field
Ġhab its
Ġnick el
ĠFa ust
Ġpolynom ials
Ġwel come
g rav
ig ue
ĠW yn
Ġwe aker
ĠRain bow
ĠJess ica
Ġol ive
Ġh ire
Ġst ellar
Ġor ch
ĠO mar
Ġgen etics
Ġdiffer ed
Ġcompet itor
Ġhard ly
Ġearn ings
Con f
Ġpostp oned
f alls
ĠT uc
ĠComp etition
Ġsimultane ous
G roup
ĠA val
ĠM ist
im ov
Ġst aple
ĠAl to
ĠAn throp
St an
ĠWe imar
ĠMont enegro
ĠTaiwan ese
star red
ĠSoy uz
ĠI rene
ĠWh ig
Ġgu ilt
Ġsubject ive
Ġindic ator
Rec ent
lyn n
ĠC ork
ch air
Ġbe ats
and ers
ĠK amp
Ġpre fect
ĠCal gary
Ġdest ructive
Ġlearn s
roll er
Ġconv oy
ĠMack enzie
Ġmerc ury
j ou
he e
ĠH ubbard
ĠV ig
ve z
ĠAn s
ĠAn al
Ġprocess ion
Ġhold ers
mon ary
ĠSem inary
Ġspons ors
Ġbrows er
ĠChes apeake
ĠP ow
op ian
ri que
ĠCh atham
Ġdis asters
rate gy
Ġwant ing
ĠEuro pa
c roft
pro of
Ġmetab olism
Kn ights
C op
M ah
n om
ĠK nown
ass adors
erm o
ĠLu igi
ĠWild erness
ĠTerrit ories
ĠCatal onia
Ġcongress man
ĠExp osition
ĠHarri et
I d
om ber
Ġis n
ĠH of
ĠF eld
Ġim print
ĠAm bro
ĠTe en
ĠHistor ia
ĠAg nes
Ġimm ense
ĠLeon ardo
Ġpreced ent
ĠAppl ied
ag ram
Ġche cks
ĠMill ennium
ĠCross ing
Ġlegitim acy
f orth
Ġt rom
cul a
Ġge ology
Ġby tes
Ġj am
ten berg
ĠX i
tt a
ĠLatin os
Ġcompl iance
ĠWild er
Ġid ol
Ġposit ively
m ajor
Ġb ats
Ġcons ume
Ġpat rons
ĠMong ols
Ġecosystem s
D iv
Q L
it ius
id on
ĠK arn
aj i
tain ing
ĠAnt werp
yth ms
Ġmyth ological
iat ric
Ġspect ators
c as
Ġb our
ĠP asha
ĠN P
ri ot
ib i
Ġfl ora
ĠSc ro
St arting
ĠCount ries
ĠFried man
ur us
ĠV A
Ġair field
Ġgu er
Ġwar mer
ves ter
Al bert
Ġlic enses
Ġqual ifying
ĠSultan ate
ĠT rist
ĠM I
ĠH ousing
att ack
fl ict
ĠCal houn
vers ion
ÃŃ o
ĠSl ovak
ĠRome o
Ġconduct ors
Ġdepos it
S ar
Ġc ris
Ġb ubble
Ġun com
Ġcl o
Ġatt achment
ĠEd monton
ĠGar rett
Ġmicrop rocess
m ia
ĠO man
Ġrest ing
Th ird
Ġkind erg
ĠNi elsen
Ġforg otten
Ġdens ely
Ġsuspic ion
Ġt rop
ĠThe res
ĠK ot
uck land
ĠConst ance
Ġconfront ation
ymmet ric
ĠG uth
th am
Ġpe asant
10 3
Ġdiff usion
ĠL od
ĠG raph
ĠG ret
Ġal gae
Ġpro st
Ġall oy
Ġdist ribute
Ġdisp ersed
Ġslow ed
ĠHon our
ĠChief s
Ġtal ents
Ġtask ed
ĠJane iro
ĠExt ra
ĠBox ing
Ag ric
ĠGaz ette
ĠPre viously
ĠStrat ford
8 33
Ġsc roll
ism und
att les
Ġem itted
Ġprofess ors
uls a
Ġwavel engths
Ġsid ew
Ġl ined
ĠI ch
Ġen vision
ĠRe ference
ĠNorth umberland
Ġsl ang
ĠEv elyn
ĠPre c
Ġsal ts
Ġign or
ĠTrib e
Ġmorph ology
Ġtrem end
J ackson
V iet
âĢ ī
ab s
Ġun av
Ġball oon
ĠGreg orian
Ġexha usted
lys ses
N ET
ĠT ip
we ed
18 66
ric o
ĠGl ory
ĠBel ize
ĠFac ility
Ġlaure ates
T s
W S
p as
ĠW izard
ap o
ĠTh anks
Ġtrad es
Ġbr ide
ĠPrincip al
ĠCarn ival
ĠM anning
ĠF ighting
ĠG und
Ġ16 60
ĠGar land
olph ins
Ġsoul s
Ġhunt ers
ĠMonter ey
z burg
ĠT enn
ĠC ree
ĠSe g
ret to
Ġtransform ations
Ġconven ience
Ġrac ist
ĠConvers ely
E qu
K ey
at onic
Ġd iod
ĠI L
ĠBu ilt
ĠEle ments
ĠSum er
Ġrebu ild
Ġanalys es
ĠMuss olini
Ġe ager
ĠB rem
Ġcontain ers
osynt hesis
ausole um
Ġafore mentioned
Ġp ose
ac cept
Ġk ids
Ġhel met
Ġprev ailing
Ġcapt ive
Ġinvent ory
ĠCov entry
exp ensive
r ude
et or
ĠH ick
Ġacc redited
Ġair plane
ĠÃ ĺ
ĠProv isional
Ġprem ature
ĠDomin i
Ġsan ctions
Ġb anner
ut i
ĠD ahl
ĠK ab
ran es
ĠHu bert
ipe g
Ġabsol utely
ĠP seud
ĠJ eh
ass a
vent ional
ĠCan cer
Ġlast s
co e
ĠHaw kins
ĠPatri ots
Vir gin
ĠR andom
Ġbl ades
ĠPh arm
ĠAm herst
Ġpred ictions
ĠBrown ing
ĠTechn ologies
ĠJoh an
aun ton
ĠA u
id as
ĠR FC
Ġar ising
ĠX ML
Ġdi as
Ġdecomp osition
I ts
r ational
ra ged
ĠN ames
qu ist
ĠTh Ã©
Ġco il
Ġball istic
Ġsem iconductor
ĠPot omac
ĠShel ley
Ġhorn s
ĠNAS CAR
ĠA ph
Ġst uck
Ġsw ift
omm el
ĠMat th
ĠBet a
Ġnas al
y enne
im et
ĠL ub
ĠN ights
ĠN ormal
ĠRe becca
ĠMid night
ĠMir anda
Ġyield ing
ĠWhe el
G E
L ee
M att
in ement
Ġe agles
ced ed
ĠĠĠĠ ĠĠĠ
Ġcr ashes
Ġnorthern most
Ġsucceed ing
flu enced
ĠW ah
Ġr all
Ġch assis
ins k
Ġdon ation
Ġveget able
Ġcontra ction
1 16
Ġt iles
ĠH its
Ġfilm makers
Ġprint ers
cell ular
ĠAnim als
Ġh atch
ĠM aps
âĢ ł
Ġun finished
ign on
ident ified
ĠAm es
ĠAm os
Ġcirc ulated
Ġlo ops
Ġrout inely
ĠUt recht
ige on
Ġexplo it
ĠPhill ip
Ġanthrop ology
ietz sche
ĠBudd y
Ġpossess es
ĠWhit man
bet ween
S i
at ivity
Ġp ont
as er
Ġpro stit
ess or
Ġtit ular
Ġill usion
Ġdark ness
Ġintent ionally
ĠPil grim
Ġcass ette
L anguage
op ard
ĠSe qu
ĠHold en
L ight
R N
ac ious
Ġra b
Ġ13 3
ĠKe ys
ns ic
Ġcinem at
or as
18 00
ĠAt omic
ban ks
Ġsax ophone
P ark
re ctions
ĠB iz
ph ase
Ġlin er
Ġcommun e
Ġ12 4
ino le
uff s
Ġpolar ization
Ġknock out
ĠE k
Ġu biqu
aw at
Ġro ok
Ġfin ances
Ġprot ested
ĠSer ver
Ġpic nic
he art
ĠT art
Ġse ated
ĠK abul
ek a
Ġinf ants
Ġcal m
Ġpot ato
Ġhom eless
Ġbenef ited
Ġovers aw
ĠHav ana
ÅĦ ski
m ese
Ġg em
ĠR it
ee le
Ġbomb ardment
Ġinn ings
ĠSerge ant
d eterm
l id
p owder
ĠD ante
ak in
Ġdep osition
Ġsurround ings
Ġdemol ition
Ġcort ex
Ġfu els
C onstruction
ĠP M
ul iar
pe x
ign y
ick er
ari os
ari ations
Ġhyd raulic
ĠAtt ack
ĠBeaut iful
ustain able
j ar
m oor
t itled
ĠT ot
ĠP ag
un ate
ust on
Ġ17 63
Ġrece ivers
di ocese
Ġabbrev iation
G reg
ĠS of
Ã¶ l
ĠTanz ania
F ood
P sych
ĠC rescent
un it
Ġval ves
ĠEv a
ĠMand arin
ĠRus so
ĠHil bert
Ġglac ial
ĠAdvis ory
Ġgen etically
Ġaver aging
Ġaff irm
Ġcorrespond ent
Ġsyn onym
Ġconsolid ation
Ġadherent s
Chic ago
H ill
c urrent
ow e
Ġ2 10
ac s
ĠU ran
Ġspec imen
ĠLat vian
ĠEngine er
Ġrob ots
Ġaxi oms
Ġunanim ously
Ġw rapped
Ġinf ilt
ĠNe pt
ĠNe ville
Ġpan ic
ĠCas ino
I E
L D
Ġn ec
ĠF amous
ĠK ern
18 58
Ġtw inned
Ġinters ect
Î¿ ÏĤ
Ġsupersed ed
M yth
al er
Ġth umb
ik k
Ġob ey
af ia
ĠBr une
Ġhost ility
Ġbackground s
ĠSant o
ĠOm aha
opath y
Ġtriang ular
htt p
ĠM itt
un ks
ĠSt am
Ġsk irm
ĠRena ult
Ġenthusi astic
ĠKrish na
L ithuan
Ġp iston
Ġre velation
ĠN urs
Ġr ats
Ġj aw
ĠChap lin
ĠKir by
Ġju venile
Ġadjo ining
N Y
r s
oc es
ĠLe af
ĠNet flix
Ġresort s
Ġdisag reement
ĠGarc ÃŃa
S a
Ġp ork
ĠA verage
her ty
ĠSt anton
ĠK atherine
Ġqu ote
Ġ17 74
ĠZ oro
Ġprivile ge
Ġw ines
ĠG unn
Ġam en
ros ion
Ġappro ve
ĠLad ies
ĠT z
ĠS v
st orms
ĠK ai
ram atic
Ġhost ilities
ĠSim mons
Ġrout ing
Sy stem
C at
T rack
ed ience
Ġh ist
ĠT rom
ĠP DF
ĠSh ap
ĠArt icles
Ġaccording ly
ĠAff air
Ġble eding
Ġinspe ction
al bum
st ellar
ĠCol t
Ġsever ity
ĠX ia
ĠSte phan
ĠAut ob
Ġflu ores
ĠCy ber
Ġroll er
ĠWes sex
neg ative
Ġaccum ulated
ĠManch u
Short ly
E ff
ĠC M
ac io
ort ing
ĠZ Ã¼
Popul ar
AR T
Ġt ier
ĠP erm
ĠV ine
Ġmed itation
Ġ17 84
Ġchar itable
yl ene
Ġins ult
Ġtake over
Ġpen alties
Ġhang ed
R oute
n ard
am us
ĠW is
eld om
ys c
Ġ12 6
Ġhero ic
I O
K ings
S N
il yn
ĠCl ive
Ġdirect ory
ĠBrand on
Ġampl ifier
G ame
L E
h m
n esty
r ul
Ï Ģ
ig uous
iz za
ach ine
Ġsp inal
ĠCom ing
rel igious
ga ard
n ance
Ġl au
ĠThe bes
Ġhigh lights
ĠEx it
reg n
isl av
Ġund e
Ġsn akes
Ġstrip es
ĠNav ajo
ĠGlad stone
Ġ ure
Ġh aul
ĠG illes
ĠIn ternal
Ġim pe
Ġmus h
ops is
Ġcolumn ist
School s
ĠR ita
ĠG ale
Ġ17 78
Ġdev otion
Ġconsist ency
Ġcontact ed
Ġpoll s
ĠMead ow
is ible
ĠS cy
Ġse af
Ġsp inning
14 0
Th us
Ġarchae ologists
Ġlingu ist
Ġconsec rated
h ang
ĠL ists
ĠO le
Ġgen erous
Ġsub gen
Ġ17 60
ffic iency
Ġcommod ity
Ġsuprem acy
B aptist
P ont
t ures
ĠP ok
ny der
unc redited
Ġexplos ives
Ġdisapp ro
Ġow ed
F inal
S anta
er d
ĠM og
Ġj ets
Ġelect rol
atter y
Ġdiam onds
Ġmedal ist
Ġlith ium
h ound
Ġd oses
Ġlaun ches
ĠTit le
P rodu
r atives
Î ·
ĠS ob
Ġst air
Ġrest oring
Ġchromos omes
rosc ope
j ug
ĠR ash
ĠMed ina
Ġsch iz
Mus lim
ĠHind i
Ġinterf ere
r ar
er get
Ġch ances
ie ve
yl on
ĠGu inness
Ġpress ing
Ġillust ration
Ġmic ropolitan
ĠDomin ion
ĠMoz amb
ĠSt rike
ĠCh am
Ġpart isan
erson ic
Ġvers a
ĠKingdom s
Ġpseud o
Arch ae
ĠCav endish
Ġexpon ential
ĠT ry
ĠC unningham
se au
Ġsh irt
Ġ- -
Ä Ļ
st ring
ĠY es
Ġfl aw
Ġac re
ĠSh arp
ason ry
Ph ysical
ĠLes ter
Ġbrut al
b ecause
ĠP ill
Ġro y
Ġcritic isms
Ġunh appy
C ry
Ġt a
Ġout ward
hold s
Ġele phant
Ġprom ul
Ġpost war
Ã¶ m
Ġsem in
ĠOs aka
ĠRom ney
car bon
Ġportra ys
Ġpy ramid
Ġlogar ithm
ĠDoctr ine
R iver
f ighter
ĠH anna
ĠD ah
Ġcent red
Ġup held
urn al
Ġdr ift
ĠCarl isle
ĠGer ard
ĠAer ospace
Ġharass ment
ĠAlber to
ĠMonaster y
ĠS aul
st ep
ad ies
ĠUn f
ĠSc r
ĠPl us
Ġanal ogy
ĠWood y
Ġequival ence
Ġgreen house
Ġroll ed
En ter
ĠMoh awk
Ġnurs ing
Sah aran
B es
D ire
ud ed
ess el
att i
ĠX in
ĠColle ges
Ġsym phony
Ġpack aging
ĠToul ouse
ĠInspe ctor
ch annel
Ġ2 30
ill in
Ġle an
Ġz oo
Ġz oned
ĠFound ed
Ġcool er
Ġprocl amation
Ġhyper b
B BC
ol ian
od ont
sc aster
ĠPhil ips
Ġinf amous
Ġeast ward
Ġopt ed
ĠPet erson
iw ara
Lew is
ĠChoct aw
m inded
ĠS Ã¡
ir teenth
ĠG ibb
Ġgu ides
ĠBel grade
ucc i
ĠI z
ĠH ouses
ĠL ope
ĠN ue
ac erb
ĠSe v
Ġneg atively
Ġhem isphere
ĠNathan iel
? ,
l ast
Ġb ug
ĠF ey
Ġmethod ology
ĠSn ake
ĠRud olph
Ġwet lands
Trad itional
f ri
s ocial
ad ena
Ġfor um
St ructure
ĠAngel a
Leg al
ĠTro jan
Ġsubdiv isions
Ġdictator ship
ĠWilm ington
ĠBrab ant
ĠPunj ab
3 13
4 50
ĠS overe
Ġcommun ists
Ġcur v
ush i
A z
ĠCh au
Ġunder gone
Ġdef ences
ĠEd ith
Ġsplit ting
Ġpul p
ar er
Ġin effective
el ope
ĠP ull
ĠH og
ie g
Ġen ergies
ĠY ak
ĠAr s
ĠNew sp
Ġsec ession
rop he
oid al
Ġtrain er
Ġcompar atively
ĠBrother hood
a eda
ĠD h
Ġnot ions
18 54
Ġsec re
Ġamb ient
Ġgar age
ĠPap ua
Ġconven ed
Ġgross ed
Ġscen ic
Ġtum or
S ource
en aries
ĠF ri
erm ont
Ġmod ify
ĠAn ch
for cing
ĠMay er
Ġnorth ward
Al ong
ĊĠĊ Ġ
Ġrum ors
9 17
x x
Ġc ov
Ġd ipl
ĠH ole
ĠEd mond
Ġder ivation
ĠLind say
Ġinform ally
ĠArchae ological
p ox
ĠP yr
ow ay
ĠN R
Ġ7 47
Ġcol span
American s
lit erally
umen ical
Ġover view
Ġam usement
ĠHill ary
Ġdiss em
ĠGib bs
Ġmarsh al
ĠCann es
Ġd ental
ĠP ax
ĠL anguages
ph alia
Ġro oted
ĠSp y
Ġtest ified
Ġsucceed s
Ġarchae ologist
ĠC annon
ĠH are
ran ged
old ing
ĠSh ang
Ġland owners
Ġtax i
oura ged
Ġtom bs
B s
K al
Ġhe ights
18 57
Ġcamp ing
Ġdemonst rating
ĠMid way
ĠCyr il
Mat hemat
ĠThous and
? )
d eb
s mith
w aters
Ġf ug
ĠW o
ĠV ale
Ġdo ctoral
Ġ æ
ĠA V
us er
ĠB apt
Ġhe d
Ġr ust
Ġinv ading
ĠPe el
ĠDem et
Ġcann abis
Ġon t
ĠN ut
ec d
Ã© es
Ġmar ries
Ġfund ament
Ġsynd icated
Ġload s
idel berg
Ġsav ings
ĠM ask
ĠL isp
ĠD oor
ĠD epending
ĠOut side
organ ic
Ġpit ched
Ġabb ot
Ġconcess ions
D own
y me
Ġd ye
id able
ĠSt uttgart
ĠK yr
og i
Ġgl ory
Ġspecial ty
ĠPat ton
Ġlab elled
opl asm
Ġdign ity
nd a
Ġl iability
Ġbe es
Ġprov ing
Ġdist ortion
Ġadv iser
ĠWe in
ĠInter est
ĠWood stock
ĠMic he
E nt
Ñ ı
Ġ iv
Ġp umps
Ġb ic
ĠCarl ton
ĠOrig in
Ġimag inary
Ġquart et
Ġa unt
Ġc ents
ens burg
pl anes
18 62
Ġadm it
IA A
Ġsubsid ies
ĠCald well
Ġt ricks
is al
ĠW ichita
ism atic
ĠZ ar
Ġopt ics
Ġsax ophon
ĠMarl borough
re ements
Ġb ibliography
Ġe igen
ĠG iles
ant is
Ġske leton
ĠGate way
Ġfor c
Ġdevelopment al
Pr ime
L u
W ell
ra ble
ĠK D
ade us
Ġ12 9
Ġbas ement
ĠCong reg
Ġdi ocese
Ġconv inc
atab ases
Ġmini ature
ĠLinn aeus
n ership
Ġs oup
ĠC ag
ak k
ĠPl uto
12 8
ĠNe ither
Ġcoast s
eff ect
Writ ing
Ġsoci ology
ĠDod gers
h oe
ell ations
ĠMac au
ĠWat ts
ĠAub urn
ĠPompe y
H yd
ĠSte am
Ġpers isted
Ġad ject
Ġsc rap
Ġme als
Ġadd iction
yl us
eck l
ĠTim ber
Ġdecor ations
Ġbiod iversity
o ffic
ĠB ound
ĠB ash
ĠP OW
Ġinc arnation
Ġcan vas
ĠSar at
Ġvolcan o
Ġl uc
Ġlim bs
Ġannoun cing
ĠShel by
ĠWinn ipeg
c am
ar id
el en
ĠB uren
ĠP RC
rough s
Ġexpress es
Ġcompan ions
Ġparticip ant
ĠEst her
ĠCret aceous
or io
ĠS enegal
ĠA urel
ĠD Ã¡il
Ġhe s
Ġus ur
ph onic
te acher
ĠMar ina
ĠRe ason
cons cious
ĠRan cho
ĠMichel le
Us ing
L en
ĠH au
Ġres ides
Ġmusical s
ĠBol iv
Ġmort g
agu ar
ĠP ash
ĠG an
Ġsub mission
let ion
ĠCo operation
ĠUr s
Ġhun ger
ĠLion el
Ġinvas ions
M ax
W he
Ġo lig
ĠY ar
Ġtrans cend
erman n
ator ium
Ġbeg innings
Ġautom obiles
Ġadvis ory
ĠCitiz en
ĠWarri ors
Ġ idi
Ġoff ence
Ġ13 2
Ġhost age
ĠToy ota
Bu ildings
Ġdecommission ed
H aw
Ġre int
ch io
ĠH onda
ut in
ĠL ima
ĠSh u
Ġrecord er
gy z
Ġinteg rate
Ġund ers
Ġspawn ed
is chen
ĠD au
ĠD raft
Ġcomp elled
Ġneg lect
Ġche er
T otal
Ġd uel
Ġex acerb
Ġ7 37
ĠAng ola
Ġden ial
Ġwood land
ĠOs borne
ĠSat ellite
Ġbr ush
Ġpun ished
Ġprotest ers
ĠBeth lehem
Ġposter ior
H all
Ġp igs
ĠC es
ĠB ologna
ĠN ur
ĠK Åį
Ġtex tiles
Ġmir rors
Ġmanif old
ĠGalile o
Ġmerchand ise
l iving
ĠS aid
Ġl odge
ĠB rief
ĠB iden
ĠP sal
Ġun int
Ġab stra
Ġout line
er ver
Ġth or
ur ian
ĠP ool
Ġse ap
Ġall iances
Ġwater ways
serv ice
Ġlif es
Ġrenew able
ĠA uckland
Ġ17 85
Ġpost master
aut s
Ġhar b
Ġsens es
F iction
G iven
h ome
Ġl ords
Ġen erget
Ġret iring
ĠCo ach
Ġorigin ate
back er
Ġult ra
ĠVenezuel an
ĠIss ue
ĠMonth ly
k ok
Ġev angelical
ĠBrig adier
ĠUlt imately
chem ical
ĠByr ne
h om
Ġs eldom
Ġcon ferred
Ġcomput ed
ĠPers ians
Ġclear ing
Ġsyn onymous
Ġdiplom acy
ĠG el
ĠO j
ud ence
ĠK ell
ĠK yle
the med
Ġpar amil
Ġgra vel
Ġincons istent
at l
ĠW iley
Ġr ud
te f
ĠAr r
18 30
Ġexp ired
Ġref ract
amm ad
Ġcompens ate
5 83
ing le
Ar gent
ache v
Ġdisag reed
Ġcoinc ided
fight ers
Ġf el
ĠU lysses
Ġdis g
18 55
Ġass ists
Ġimpro v
Ġcultural ly
Ġtheore t
Ġquad ratic
Ġconfront ed
: #
ĠL um
ĠL ich
ĠOw ens
ĠHil ton
Ġisot ope
Ġas ylum
Ġdep ended
Ġcell o
Ġdemonst rates
ĠTal bot
ĠTiber ius
H an
U D
ĠS ales
ĠC ary
ra il
Ġar sen
Ġte aches
ĠX er
inder garten
Inter state
ĠSunn i
ĠP oe
op olis
ĠN ed
Ġev id
Ġaddition ally
Ġrock y
ĠTra vis
Ġax es
ĠMoroc can
Eth nic
ĠD ong
ah r
Ġchar ging
ĠDav en
Ġmeaning ful
Ġpsych oan
Ġguard ian
Ġlatt ice
ĠC age
Ġn ests
ad h
ot er
ac id
Ġclass ics
ĠBer ber
ĠInter mediate
Ġbar g
Ġprec ious
government al
ĠPlut arch
D ie
c ad
ĠN ietzsche
Ġinc on
ĠCh il
Ġ17 81
Ġend uring
ĠYork er
Ġportray ing
erse ys
Ġproport ions
ĠCre ed
ĠPue blo
Olymp ic
ĠMugh al
W V
ĠTh ink
ino x
Ġ14 5
Ġsimpl icity
ĠCook e
Ġcoin age
g old
Ġf ederation
ĠR S
eral a
ĠGl oria
ĠGre co
Ġnom adic
Ġrehab ilitation
ess ment
Ġrem aster
Ġbl ame
Ġflu ids
ĠZh u
d ard
in fl
Ġin ch
st ud
Ġfav ourable
Ġcarbon ate
C ross
ĠS unset
ĠH os
ge an
ĠW ins
ast ically
arn a
ĠLight ning
ĠPlant ation
Ġfacilit ated
m ounted
t ank
Â ½
ĠT ut
Ġl ane
Ġr ou
Ġstat utory
Ã¡ ndez
ĠProper ty
ĠSchne ider
ĠTaj ik
3 30
T ri
r ols
Ä Ľ
Ġ iod
Ġle ver
Ġout right
ll o
Ġdifferent iate
ert ation
Ġaff inity
Ġter ra
Ġste al
ĠJo a
Ġunc overed
Ġeval uate
ĠJam ie
ĠH ier
sh am
ĠLe vant
Ġrespect s
Ġsouthern most
ĠLog ic
Ġutil ize
D et
S oc
is o
ĠW ent
Ġass ured
ĠCl ock
Ġfather s
ĠGr im
Ġcompos ing
Ġconsult ant
Ġrede velopment
W alk
Ġo m
le ep
ĠD up
Ġal arm
Ġtrans istor
Ġreport ers
ĠMon k
ĠPalest inians
Ġrelie ve
Ġreminis cent
Ġdias pora
Ġf ake
ĠT R
ĠM oy
ten stein
Ġ15 5
ĠRob ot
Ġh ast
ĠS uez
iv odes
ĠH ahn
nt z
Ġch ords
Ġter rible
Ġcondition al
ĠOk in
Ġaccum ulation
c ry
ĠJ orge
Ġup ward
ĠFl ower
Ġmot iv
ĠMer lin
ĠBra un
Ġrelie ved
B ased
i ably
ĠD orset
se ven
ew ood
ĠV Ã¤
Ġun rel
Ġtra gic
Ġheavy weight
ĠHans on
ĠVis ig
ĠMongol ian
Ġadvertis ement
Ġsubscript ion
ĠKurd ish
Ġo ils
ĠT up
ĠS ach
ĠM VP
ĠL ibraries
âĢĵ )
Ġch ant
uc a
Ġ14 4
isc overed
Ġprop ose
ĠBer l
ĠAg ent
ĠPil ot
Ġflower ing
ĠHann ah
Ġsevent een
ĠBeh ind
M R
v ance
Ġsp ray
ĠSy nd
ih an
ĠSum mers
Ġaccident al
Ġexagger ated
L ab
om at
ch lor
ĠR uf
ass er
Ġcons oles
ĠLeg ends
ĠAthen a
Ġmemor able
ĠComput ing
L ow
b ons
s worth
ist e
Ġdisplay ing
ĠPel op
Ġteen ager
e astern
Ï ħ
id or
ĠH enn
Ġ17 58
ĠRes ource
ĠPat ent
chan ical
ĠTw ilight
Ġtrou bled
Ġphosph ate
ĠAnim ation
Ġf oster
Ġar rows
Ġrecogn ise
ĠSt on
Ġmat urity
Ġphys iological
agn et
ĠSant os
ĠSi em
ĠMult iple
Ġcouncill ors
Î ³
ĠC reation
ĠD ac
ĠW an
ĠW ak
Ġimp air
Ã¡ z
Ġpronoun s
or is
ĠS amp
ĠL och
Ġtr usted
Ġref rig
ĠSch l
Ġsepar ates
unk ers
Ġbed room
Ġbarrel s
N ever
W W
Ġsh ark
Ġsens ation
Pres idents
Environment al
eckl enburg
y ad
Ġb acks
ĠC un
ĠK ip
act ivity
ting en
ĠPe pper
Ġsuggest ions
Ġcapital ist
Ġrob bery
Ġassess ed
ĠAdmiral ty
Ġm m
Ġde ported
ĠÃ ĵ
ĠGra f
Ġlun ch
ĠNig el
N D
ĠW i
ath y
Ġpre ferences
Ġplay wrights
ĠSpr inger
ĠCyr us
Count ry
Ur ban
appropri ate
S elected
Ġdis ks
ĠSy riac
Ġbas al
Ġkill ings
Ġconc urrent
less ness
ĠHaw th
Ġtrans cript
ĠPh ase
Ġpist ol
Ġpriz es
ĠBax ter
Ġf ool
Ġit er
Ġcol oured
Ġneed le
Ġbreak fast
Ġang els
Ġthorough ly
Ġsacrific es
ĠS H
Ġ( #
ĠE ighth
Ġun released
Ġj okes
ĠSe lected
Ġrep aired
ama ic
ĠWe aver
Ġexecut ions
Ġpromot er
Aust rian
Ġsatisf action
ĠFather s
V S
Ġm antle
ĠE in
ip es
Ġdisc ount
Ġlog istics
ĠTom orrow
ĠHo hen
ĠWes ter
Ġb ilingual
ill us
ĠInter active
ĠAut umn
ĠIns urance
ĠBund es
Ġkinderg arten
U M
ol ades
Ġg ren
Ġcomp ose
ĠCan aan
Ġarch aic
Ġyield ed
ĠTheod or
Ġric hest
ĠBahÃ¡ Ê¼
c ool
Ġs tern
Ġm uc
Ġl uck
Ġn iece
ĠE ck
Ġde af
Ġpl aint
Ġint imate
orn o
Re al
Ġhum our
Ġport al
uck le
ĠSer bs
Ġmount ing
ĠWood ward
Ġstra ins
Ġsyn agogue
C ur
ĠZ ag
Ex p
Ġburn s
Ġtalk ed
ĠEz ra
Museum s
R OM
ĠR otten
Ġredu nd
ĠMart yr
ĠRev olt
Ġinstit utes
vis ors
Orig inal
ĠOri ent
Ġapprec iation
3 80
ĠR oh
ys s
ĠOr b
Ġdistingu ishing
ĠPubl ished
indu ced
R om
ĠP ose
ung s
ĠQu aker
ĠSal am
ux ley
ĠCop tic
es ame
ĠD raw
ĠK and
Ġcomp ly
ĠMarc os
Ġarist ocratic
ĠFow ler
C er
R o
Ġre former
Ġl ending
ay ne
ob acter
Ġne uros
ĠLe iden
Ġrefuge e
ĠAle ks
ĠĊĠĊĠĊĠĊĠĊĠĊĠĊĠĊ ĠĊĠĊĠĊĠĊĠĊĠĊĠĊĠĊ
D i
J oh
c row
Ġs aga
ĠS ki
ĠF ind
ne o
18 49
ey e
Ġperiod ically
ĠOver all
Ġbra kes
Ġprem iers
Ġeru pted
Dig ital
ĠA SC
ĠP ug
ĠD ear
ĠCh op
Ġel ong
Ġceleb rates
Ġorth ogonal
Ġf amed
out ed
rad or
Ġequ ator
ĠBur r
Ġacknow ledge
ĠPas o
ĠSp ike
Ġconc luding
ĠLo eb
ĠJacob s
Ġingred ient
A ge
ĠM ae
Ġnational ists
Ġcross ings
Ã§ aise
Cont emporary
ĠSpani ards
Ġin expensive
Ġh ailed
ĠT ulsa
ĠO racle
uk ary
Ġcompl aint
Ġdeleg ate
Ġmus k
sp oken
oper ated
Ġlands lide
Ġsup ers
Ġdisadvant age
ĠL ys
port ion
ĠPaul ine
Ġsuper f
Ġbatt ing
[...]
