{"<|endoftext|>":0,"!":1,"\"":2,"#":3,"$":4,"%":5,"&":6,"'":7,"(":8,")":9,"*":10,"+":11,",":12,"-":13,".":14,"/":15,"0":16,"1":17,"2":18,"3":19,"4":20,"5":21,"6":22,"7":23,"8":24,"9":25,":":26,";":27,"<":28,"=":29,">":30,"?":31,"@":32,"A":33,"B":34,"C":35,"D":36,"E":37,"F":38,"G":39,"H":40,"I":41,"J":42,"K":43,"L":44,"M":45,"N":46,"O":47,"P":48,"Q":49,"R":50,"S":51,"T":52,"U":53,"V":54,"W":55,"X":56,"Y":57,"Z":58,"[":59,"\\":60,"]":61,"^":62,"_":63,"`":64,"a":65,"b":66,"c":67,"d":68,"e":69,"f":70,"g":71,"h":72,"i":73,"j":74,"k":75,"l":76,"m":77,"n":78,"o":79,"p":80,"q":81,"r":82,"s":83,"t":84,"u":85,"v":86,"w":87,"x":88,"y":89,"z":90,"{":91,"|":92,"}":93,"~":94,"¡":95,"¢":96,"£":97,"¤":98,"¥":99,"¦":100,"§":101,"¨":102,"©":103,"ª":104,"«":105,"¬":106,"®":107,"¯":108,"°":109,"±":110,"²":111,"³":112,"´":113,"µ":114,"¶":115,"·":116,"¸":117,"¹":118,"º":119,"»":120,"¼":121,"½":122,"¾":123,"¿":124,"À":125,"Á":126,"Â":127,"Ã":128,"Ä":129,"Å":130,"Æ":131,"Ç":132,"È":133,"É":134,"Ê":135,"Ë":136,"Ì":137,"Í":138,"Î":139,"Ï":140,"Ð":141,"Ñ":142,"Ò":143,"Ó":144,"Ô":145,"Õ":146,"Ö":147,"×":148,"Ø":149,"Ù":150,"Ú":151,"Û":152,"Ü":153,"Ý":154,"Þ":155,"ß":156,"à":157,"á":158,"â":159,"ã":160,"ä":161,"å":162,"æ":163,"ç":164,"è":165,"é":166,"ê":167,"ë":168,"ì":169,"í":170,"î":171,"ï":172,"ð":173,"ñ":174,"ò":175,"ó":176,"ô":177,"õ":178,"ö":179,"÷":180,"ø":181,"ù":182,"ú":183,"û":184,"ü":185,"ý":186,"þ":187,"ÿ":188,"Ā":189,"ā":190,"Ă":191,"ă":192,"Ą":193,"ą":194,"Ć":195,"ć":196,"Ĉ":197,"ĉ":198,"Ċ":199,"ċ":200,"Č":201,"č":202,"Ď":203,"ď":204,"Đ":205,"đ":206,"Ē":207,"ē":208,"Ĕ":209,"ĕ":210,"Ė":211,"ė":212,"Ę":213,"ę":214,"Ě":215,"ě":216,"Ĝ":217,"ĝ":218,"Ğ":219,"ğ":220,"Ġ":221,"ġ":222,"Ģ":223,"ģ":224,"Ĥ":225,"ĥ":226,"Ħ":227,"ħ":228,"Ĩ":229,"ĩ":230,"Ī":231,"ī":232,"Ĭ":233,"ĭ":234,"Į":235,"į":236,"İ":237,"ı":238,"Ĳ":239,"ĳ":240,"Ĵ":241,"ĵ":242,"Ķ":243,"ķ":244,"ĸ":245,"Ĺ":246,"ĺ":247,"Ļ":248,"ļ":249,"Ľ":250,"ľ":251,"Ŀ":252,"ŀ":253,"Ł":254,"ł":255,"Ń":256,"Ġt":257,"he":258,"Ġa":259,"in":260,"er":261,"Ġthe":262,"on":263,"re":264,"Ġo":265,"an":266,"at":267,"en":268,"ed":269,"Ġs":270,"Ġw":271,"or":272,"is":273,"es":274,"Ġof":275,"it":276,"al":277,"Ġc":278,"ar":279,"nd":280,"Ġin":281,"Ġf":282,"Ġp":283,"ic":284,"Ġb":285,"Ġand":286,"as":287,"ing":288,"ion":289,"ou":290,"Ġm":291,"Ġto":292,"om":293,"le":294,"Ġd":295,"Ġh":296,"il":297,"ent":298,"ĠT":299,"ĠS":300,"ĠC":301,"Ġ1":302,"ĠA":303,"ol":304,"st":305,"Ġre":306,"ro":307,"el":308,"Ġl":309,"ct":310,"am":311,"Ġn":312,"ĠM":313,"Ġ(":314,"Ġe":315,"ad":316,"Ġth":317,"us":318,"iv":319,"et":320,"ation":321,"ĠB":322,"ur":323,"ch":324,"Ġwas":325,"id":326,"ly":327,"ĠP":328,"ce":329,"im":330,"ig":331,"Ġfor":332,"ĠI":333,"Ġis":334,"ĠThe":335,"ot":336,"ers":337,"ĠH":338,"ir":339,"ut":340,"ra":341,"Ġon":342,"ow":343,"Ġ2":344,"Ġg":345,"Ġas":346,"ist":347,"ul":348,"Ġbe":349,"ĠR":350,"ith":351,"em":352,"ver":353,"her":354,"ĠL":355,"un":356,"ge":357,"ĠF":358,"ter":359,"ĠD":360,"Ġwith":361,"ay":362,"Ġst":363,"and":364,"ĠG":365,"Ġ19":366,"th":367,"ĠW":368,"op":369,"Ġby":370,"os":371,"Ġal":372,"ĠN":373,"Ġwh":374,"ĠE":375,"rom":376,"Ġcon":377,"Ġan":378,"'s":379,"um":380,"ies":381,"ity":382,"Ġthat":383,"00":384,"est":385,"ĠJ":386,"ian":387,"Ġor":388,"âĢ":389,"ac":390,"Ġfrom":391,"Ġv":392,"od":393,"ere":394,"Ġat":395,"res":396,"Ġ\"":397,"Ġpro":398,"if":399,"Ġde":400,"Ġwere":401,"se":402,"av":403,"ain":404,"oc":405,"Ġcom":406,"ate":407,"ab":408,"Ġit":409,"ri":410,"âĢĵ":411,"Ġare":412,"nt":413,"ill":414,"ĠO":415,"ich":416,"ort":417,"ud":418,"Ġhe":419,"pe":420,"qu":421,"art":422,"Ġr":423,"ĠU":424,"Ġsu":425,"ld":426,"ew":427,"ated":428,"ore":429,"Ġse":430,"ber":431,"Ġex":432,"igh":433,"all":434,"ak":435,"ial":436,"ant":437,"ard":438,"ment":439,"ia":440,"ip":441,"ess":442,"ĠSt":443,"ap":444,"ive":445,"ĠK":446,"Ġhis":447,"og":448,"ag":449,"The":450,"ary":451,"ical":452,"ear":453,"mer":454,"ĠIn":455,"Ġwhich":456,"Ġch":457,"ish":458,"end":459,"Ġinc":460,"gh":461,"ure":462,"ast":463,"our":464,"ine":465,"ord":466,"ome":467,"ction":468,"ov":469,"ther":470,"ount":471,"Ġ18":472,"rou":473,"ell":474,"Ġpl":475,"ost":476,"ong":477,"Ġhad":478,"19":479,"age":480,"Ġu":481,"ĠCh":482,"pp":483,"Ġ20":484,"ens":485,"ran":486,"),":487,"ame":488,"ĠV":489,"pt":490,"Ġy":491,"Ġus":492,"so":493,"Ġle":494,"per":495,"du":496,"ire":497,"iz":498,"ous":499,"ub":500,"Ġun":501,"cc":502,"rit":503,"ĠâĢĵ":504,"old":505,"ight":506,"Ġnot":507,"Ġsh":508,"ican":509,"ave":510,"Ġk":511,"Ġcomp":512,"ks":513,"are":514,"ry":515,"ust":516,"Ġalso":517,"ff":518,"ie":519,"ect":520,"Ġ3":521,"ces":522,"ition":523,"own":524,"ass":525,"ĠUn":526,"out":527,"ign":528,"pl":529,"wn":530,"Ġar":531,"ph":532,"ates":533,"Ġhas":534,"Ġcont":535,"fer":536,").":537,"Ġint":538,"man":539,"ru":540,"ult":541,"Ġper":542,"ations":543,"Ġ200":544,"Ġres":545,"ater":546,"ory":547,"tern":548,"ide":549,"irst":550,"ib":551,"ence":552,"ue":553,"Ġyear":554,"Ġad":555,"Ġits":556,"lud":557,"Ġcl":558,"ĠĊ":559,"over":560,"Ġwhe":561,"land":562,"ual":563,"Ġpart":564,"ĠTh":565,"wo":566,"Ġwho":567,"ice":568,"Ġhave":569,"Ġ4":570,"Ġall":571,"ouse":572,"nder":573,"ond":574,"erv":575,"Ġtheir":576,"ork":577,"Ġ201":578,"ack":579,"ited":580,"In":581,"opul":582,"Ġab":583,"ree":584,"Ġfirst":585,"Ġother":586,"ict":587,"ile":588,"Ġra":589,"Ġbut":590,"hed":591,"ng":592,"ime":593,"ould":594,"act":595,"ang":596,"oll":597,"Ġ6":598,"Ġinclud":599,"merican":600,"ok":601,"one":602,"ite":603,"ep":604,"fter":605,"ress":606,"Ġone":607,"ose":608,"ĠIt":609,"Ġman":610,"ach":611,"ound":612,"ec":613,"Ġpopul":614,"ational":615,"Ġthis":616,"port":617,"Ġim":618,"Ġbec":619,"ubl":620,"ely":621,"Ġdis":622,"ĠAl":623,"te":624,"Ġage":625,"ark":626,"ents":627,"ace":628,"ne":629,"amil":630,"ade":631,"Ġen":632,"able":633,"sh":634,"Ġunder":635,"Ġtwo":636,"Ġrec":637,"ough":638,"Ġbeen":639,"ĠHe":640,"ke":641,"Ġcomm":642,"ĠY":643,"orm":644,"ild":645,"Ġover":646,"Ġte":647,"vel":648,"Ġj":649,"ounty":650,"aw":651,"Ġsp":652,"ĠAmerican":653,"ool":654,"Ġcan":655,"we":656,"uring":657,"Ġpe":658,"ors":659,"ced":660,"les":661,"Ġhouse":662,"Ġag":663,"Ġout":664,"ions":665,"int":666,"Ġyears":667,"ren":668,"ath":669,"amp":670,"Ġmore":671,"ople":672,"ons":673,"Ġthere":674,"Ġdes":675,"ics":676,"Ġpre":677,"ied":678,"ake":679,"orn":680,"ĠAr":681,"Ġsc":682,"hold":683,"iss":684,"ase":685,"ĠĠ":686,"Ġpr":687,"ob":688,"20":689,"Ġro":690,"Ġ5":691,"olog":692,"ail":693,"ĠNew":694,"ood":695,"Âł":696,"ales":697,"Ġ199":698,"Ġcent":699,"Ġhousehold":700,"Ġsy":701,"Ġinto":702,"ance":703,"ased":704,"oy":705,"inal":706,"Ġev":707,"chool":708,"Ġpopulation":709,"Ġafter":710,"Ġcity":711,"ivers":712,"ilm":713,"Ġne":714,"Ġup":715,"ings":716,"reat":717,"Ġthey":718,"eral":719,"Ġfamil":720,"ury":721,"ities":722,"ans":723,"Ġspe":724,"rough":725,"ind":726,"ale":727,"Ġmed":728,"red":729,"ĠUnited":730,"Ġused":731,"ft":732,"Ġact":733,"ĠMar":734,"Ġloc":735,"Ġele":736,"Ġform":737,"Ġplay":738,"Ġcons":739,"Ġtown":740,"au":741,"rans":742,"Ġbet":743,"Ġmost":744,"Ġher":745,"Ġoff":746,"Ġsuch":747,"rib":748,"Ġnew":749,"oh":750,"Ġme":751,"Ġpeople":752,"Ġatt":753,"Ġsome":754,"aus":755,"ĠCom":756,"orld":757,"orth":758,"io":759,"Ġ$":760,"cial":761,"Ġpres":762,"gan":763,"ative":764,"iving":765,"ward":766,"ont":767,"ĠAs":768,"Ġreg":769,"ism":770,"Ġrel":771,"Ġprodu":772,"ious":773,"outh":774,"Ġtime":775,"Ġkn":776,"ember":777,"ween":778,"way":779,"ck":780,"ick":781,"Ġpol":782,"ished":783,"Ġapp":784,"oth":785,"ts":786,"arly":787,"ĠCounty":788,"Ġwould":789,"ific":790,"Ġthem":791,"18":792,"very":793,"ĠStates":794,"urn":795,"ĠRe":796,"overn":797,"ton":798,"ram":799,"Ġthan":800,"Ġ198":801,"raph":802,"Ġgen":803,"ug":804,"Ġind":805,"Ġbetween":806,"ident":807,"Ġsub":808,"Ġwhen":809,"Ġserv":810,"Ġwe":811,"erm":812,"ĠDe":813,"ĠLe":814,"Ġ9":815,"form":816,"Ġonly":817,"round":818,"ĠSe":819,"ered":820,"Ġacc":821,"Ġfilm":822,"ince":823,"rad":824,"ve":825,"Ġpubl":826,"\".":827,"Ġtra":828,"Ġlar":829,"ral":830,"stem":831,"Ġfl":832,"cted":833,"up":834,"ĠThis":835,"iet":836,"Ġno":837,"Ġ197":838,"Ġinter":839,"Ġhim":840,"Ġdec":841,"Ġ7":842,"Ġwork":843,"ĠEng":844,"ten":845,"Ġso":846,"Ġthrough":847,"Ġnum":848,"its":849,"ines":850,"ists":851,"Ġmade":852,"Ġ8":853,"ins":854,"ah":855,"Ġest":856,"ences":857,"lish":858,"Ġduring":859,"Ġph":860,"Ġbu":861,"ĠFor":862,"Ġqu":863,"Ġcol":864,"oun":865,"che":866,"Ġpo":867,"eld":868,"ship":869,"ution":870,"ensus":871,"ix":872,"att":873,"ys":874,"Ġfem":875,"Ġtrans":876,"\",":877,"Ġset":878,"Ġsec":879,"ern":880,"ife":881,"Ġ17":882,"ograph":883,"Ġam":884,"Ġco":885,"Ġ196":886,"ollow":887,"Ġass":888,"ating":889,"Ġrem":890,"Ġincluding":891,"ject":892,"erman":893,"ower":894,"Ġbo":895,"Ġmany":896,"Ġmay":897,"velop":898,"aj":899,"ohn":900,"000":901,"ever":902,"Ġmus":903,"Ġabout":904,"ock":905,"Ġcall":906,"ars":907,"ted":908,"iver":909,"pr":910,"Ġarea":911,"Ġmod":912,"Ġprov":913,"ann":914,"ric":915,"Ġac":916,"ĠAn":917,"Ġ0":918,"roup":919,"Ġwhere":920,"Ġdist":921,"Ġinv":922,"ier":923,"ĠSh":924,"als":925,"arl":926,"ision":927,"Ġknown":928,".\"":929,"hen":930,"pan":931,"ĠIs":932,"ames":933,"Ġliving":934,"ros":935,"Ġsupp":936,"ty":937,"Ġdef":938,"Ġsystem":939,"Ġaver":940,"ex":941,"oss":942,"ures":943,"iversity":944,"az":945,"arri":946,"Ġfe":947,"tain":948,"emb":949,"Ġany":950,"Ġfound":951,"Ġstud":952,"Ġchar":953,"ise":954,"Ġem":955,"istory":956,"Ġgovern":957,"Ġcap":958,"cy":959,"ature":960,"inn":961,"Ġbl":962,"fore":963,"iam":964,"Ġwrit":965,"ĠInd":966,"Ġold":967,"ĠJohn":968,"ron":969,"Ġaverage":970,"Ã©":971,"Ġlater":972,"ley":973,"ize":974,"ik":975,"Ġdo":976,"Ġmet":977,"uc":978,"ĠWar":979,"enn":980,"air":981,"ement":982,"ived":983,"Ġdif":984,"Ġmov":985,"Ġ10":986,"Ġfollow":987,"ĠFran":988,"ield":989,"Ġbecame":990,"Ġfamily":991,"Ġcount":992,"ments":993,"ĠWh":994,"ather":995,"Ġdevelop":996,"ĠCl":997,"Ġend":998,"ĠBrit":999,"ĠZ":1000,"cent":1001,"Ġap":1002,"Ġagain":1003,"Ġthree":1004,"ized":1005,"ĠSc":1006,"ient":1007,"ike":1008,"ĠGerman":1009,"Ġbel":1010,"Ġent":1011,"Ġinst":1012,"ĠCol":1013,"ural":1014,"Ġsur":1015,"Ġ16":1016,"owever":1017,"Ġuse":1018,"Ġincome":1019,"cept":1020,"ause":1021,"Ġwell":1022,"Ġmedian":1023,"Ġthen":1024,"erson":1025,"fl":1026,"ually":1027,"Ġed":1028,"Ġbeing":1029,"ording":1030,"Ġshe":1031,"Ġhigh":1032,"Ġ.":1033,"Ġadd":1034,"ĠCon":1035,"Ġser":1036,"Ġexp":1037,"ined":1038,"other":1039,"Ġart":1040,"ax":1041,"Ġland":1042,"ctions":1043,"ober":1044,"Ġdire":1045,"ional":1046,"Ġoper":1047,"Ġ15":1048,"Ġob":1049,"Ġmain":1050,"uro":1051,"ĊĊ":1052,"Ġthose":1053,"Ġvar":1054,"Ġ194":1055,"elf":1056,"rist":1057,"ology":1058,"row":1059,"get":1060,"uss":1061,"Ġret":1062,"Ġgroup":1063,"son":1064,"Ġcalled":1065,"Re":1066,"led":1067,"Ġlead":1068,"Ġorig":1069,"Ġaut":1070,"pen":1071,"istor":1072,"the":1073,"ĠPro":1074,"Ġ-":1075,"ajor":1076,"Ġwhile":1077,"Ġ195":1078,"Ġboth":1079,"con":1080,"iew":1081,"ically":1082,"ash":1083,"Ġsing":1084,"Ġthese":1085,"Ġhouseholds":1086,"Ġnumber":1087,"inc":1088,"Ġstate":1089,"Ġrep":1090,"der":1091,"Ġestab":1092,"ferences":1093,"Ġsign":1094,"rict":1095,"Ġmon":1096,"ians":1097,"Ġext":1098,"imes":1099,"inist":1100,"ina":1101,"und":1102,"ĠBl":1103,"eb":1104,"ved":1105,"uch":1106,"Ġsm":1107,"Ġsever":1108,"ll":1109,"ible":1110,"Ġchild":1111,"ays":1112,"ility":1113,"ĠSchool":1114,"Ġown":1115,"Ġname":1116,"Ġimp":1117,"Ġearly":1118,"Ġschool":1119,"ages":1120,"urch":1121,"Ġeff":1122,"Ġ65":1123,"Ġcentury":1124,"ium":1125,"rid":1126,"ee":1127,"ĠUniversity":1128,"Ġrele":1129,"Ġappe":1130,"Ġcre":1131,"ven":1132,"Ġevery":1133,"ives":1134,"ey":1135,"Ġpolit":1136,"oman":1137,"ĠQ":1138,"til":1139,"amed":1140,"ank":1141,"my":1142,"Ġpresent":1143,"ĠAt":1144,"10":1145,"els":1146,"ues":1147,"Ġdep":1148,"Ġlin":1149,"Ġair":1150,"ĠPh":1151,"ivid":1152,"rop":1153,"Ġconst":1154,"Ġsecond":1155,"any":1156,"Ġcensus":1157,"rench":1158,"ful":1159,"ĠComm":1160,"gest":1161,"aid":1162,"osed":1163,"urope":1164,"por":1165,"Ġterm":1166,"âĢĶ":1167,"17":1168,"ants":1169,"Ġsim":1170,"ĠEnglish":1171,"arm":1172,"Ġcommun":1173,"Ġfour":1174,"ract":1175,"Ġlong":1176,"Ġgovernment":1177,"ared":1178,"ired":1179,"ĠYork":1180,"vent":1181,"Ġ25":1182,"Ġnon":1183,"ross":1184,"ĠKing":1185,"cl":1186,"Ġvers":1187,"Ġmusic":1188,"oot":1189,"Ġ12":1190,"Ġ,":1191,"ĠAf":1192,"angu":1193,"ular":1194,"ally":1195,"Ġsame":1196,"Ġcontin":1197,"Ġpublic":1198,"ger":1199,"ĠPr":1200,"Ġshow":1201,"Ġoffic":1202,"Ġbefore":1203,"Ġuntil":1204,"ĠWorld":1205,"yp":1206,"for":1207,"arch":1208,"Ġcomple":1209,"Ġsize":1210,"ĠOn":1211,"Ġrecord":1212,"Ġdesign":1213,"hes":1214,"ene":1215,"Ġseveral":1216,"ason":1217,"Ġocc":1218,"une":1219,"Ġ193":1220,"ĠBritish":1221,"ball":1222,"ĠII":1223,"ĠThere":1224,"ull":1225,"ille":1226,"cer":1227,"ting":1228,"Ġdisc":1229,"ital":1230,"ange":1231,"ĠCan":1232,"Ġspec":1233,"Ġmajor":1234,"Ġworld":1235,"ring":1236,"Ġmake":1237,"ĠEurope":1238,"Ġgeneral":1239,"Ġsupport":1240,"ĠHis":1241,"Ġ100":1242,"ctor":1243,"gram":1244,"bum":1245,"ternal":1246,"Ġwill":1247,"ĠOr":1248,"Ġseries":1249,"Ġbro":1250,"Ġnear":1251,"ino":1252,"Ġline":1253,"Ġresult":1254,"ĠAd":1255,"ĠPl":1256,"ccess":1257,"Ġdiffer":1258,"Ġcharact":1259,"to":1260,"osition":1261,"References":1262,"ĠNational":1263,"yl":1264,"ĠFrench":1265,"arn":1266,"Ġmil":1267,"ĠGe":1268,"ĠMay":1269,"Ġagainst":1270,"aking":1271,"Ġsmall":1272,"200":1273,"ica":1274,"Ġsince":1275,"Ġfemales":1276,"ird":1277,"ĠNorth":1278,"Ġ24":1279,"ret":1280,"though":1281,"ised":1282,"yn":1283,"ĠChrist":1284,"Ġpartic":1285,"ĠBe":1286,"ĠCent":1287,"16":1288,"ged":1289,"Ġ14":1290,"Ġcould":1291,"ĠWill":1292,"tle":1293,"Ġdesc":1294,"xt":1295,"Ġoften":1296,"Ġremain":1297,"hem":1298,"ator":1299,"chn":1300,"hor":1301,"ued":1302,"ternational":1303,"Ġolder":1304,"Ġlocated":1305,"ĠJan":1306,"illion":1307,"ices":1308,"ute":1309,"iod":1310,"ography":1311,"ets":1312,"gy":1313,"ensity":1314,"ĠAb":1315,"Ġ13":1316,"ĊĠ":1317,"Ġsl":1318,"rand":1319,"resent":1320,"15":1321,"ĠEm":1322,"Ġeach":1323,"Ġoriginal":1324,"cess":1325,"ission":1326,"ris":1327,"atic":1328,"by":1329,"Ġcontr":1330,"Ġback":1331,"Ġwater":1332,"conom":1333,"oci":1334,"ble":1335,"ĠAust":1336,"Ġopen":1337,"Ġchildren":1338,"arried":1339,"ilt":1340,"Ġconsid":1341,"Ġorgan":1342,"Ġalbum":1343,"embers":1344,"ĠCity":1345,"ĠSp":1346,"read":1347,"Ġgu":1348,"Ġfamilies":1349,"Ġincre":1350,"ony":1351,"Ex":1352,"km":1353,"ove":1354,"isc":1355,"199":1356,"ĠMus":1357,"omet":1358,"Ġlaw":1359,"ĠSouth":1360,"rent":1361,"Ġdeath":1362,"ĠEd":1363,"ĠUS":1364,"hip":1365,"Ġ'":1366,"tal":1367,"12":1368,"Ġdensity":1369,"Ġann":1370,"Ġbecause":1371,"ience":1372,"ook":1373,"Ġlarge":1374,"Ġleg":1375,"Ġinclude":1376,"quare":1377,"Ġdid":1378,"Ġmin":1379,"Ġpass":1380,"Ġclass":1381,"uary":1382,"ai":1383,"ĠRep":1384,"Ġalong":1385,"Ġins":1386,"Ġcur":1387,"Ġlangu":1388,"Ġif":1389,"Ġformer":1390,"rodu":1391,"ĠJu":1392,"Ġsuccess":1393,"Ġequ":1394,"Ġ2010":1395,"Ġpoint":1396,"Ġrece":1397,"Ġsoc":1398,"lished":1399,"oint":1400,"Ġbuild":1401,"ival":1402,"..":1403,"eter":1404,"Ġtr":1405,"Ġbegan":1406,"Ġlife":1407,"reen":1408,"Ġperson":1409,"Ġrev":1410,"As":1411,"Ġaround":1412,"Ġref":1413,"aces":1414,"ugust":1415,"Ġpower":1416,"Ġtrad":1417,"ended":1418,"Ġwar":1419,"ius":1420,"ccording":1421,"ĠCar":1422,"Ġcolle":1423,"ner":1424,"Ġcommon":1425,"ruct":1426,"ality":1427,"lev":1428,"itary":1429,"ividual":1430,"ights":1431,"ively":1432,"aim":1433,"Ġrequ":1434,"iqu":1435,"eg":1436,"omen":1437,"pect":1438,"Ġhum":1439,"ĠMan":1440,"Ġwithin":1441,"Ġprogram":1442,"ified":1443,"ĠRiver":1444,"ample":1445,"ĠHowever":1446,"Ġdifferent":1447,"Ġnamed":1448,"ides":1449,"apan":1450,"21":1451,"Ġrun":1452,"ats":1453,"Ġcar":1454,"com":1455,"iety":1456,"ĠThey":1457,"Ġlinks":1458,"ox":1459,"Ġ11":1460,"ĠNov":1461,"amb":1462,"Ġnorth":1463,"Ġbased":1464,"Ġeng":1465,"Ġcounty":1466,"ott":1467,"Ġperiod":1468,"Ġindividual":1469,"mber":1470,"ization":1471,"Ġallow":1472,"ries":1473,"Ġdet":1474,"Ġ2000":1475,"ode":1476,"Ġband":1477,"orks":1478,"ĠPol":1479,"Ġhome":1480,"raft":1481,"omin":1482,"ĠWilliam":1483,"ĠWest":1484,"ĠGeor":1485,"Ġestablished":1486,"Ġnow":1487,"ately":1488,"Ġpar":1489,"ple":1490,"Ġresid":1491,"Ġcor":1492,"ster":1493,"Ġmembers":1494,"ĠHar":1495,"Ġdr":1496,"ĠAir":1497,"Ġcult":1498,"idd":1499,"estern":1500,"50":1501,"ily":1502,"Ġappro":1503,"Ġrest":1504,"ondon":1505,"ptember":1506,"iven":1507,"ĠAugust":1508,"Ġ&":1509,"ĠAm":1510,"Ġvill":1511,"ĠCal":1512,"Ġfollowing":1513,"ctober":1514,"olution":1515,"Ġlit":1516,"14":1517,"eng":1518,"Ġmat":1519,"urg":1520,"Ġrefer":1521,"Ġteam":1522,"ĠĠĠĠ":1523,"ently":1524,"ĠBro":1525,"ration":1526,"Ġplace":1527,"Ġmark":1528,"Ġreturn":1529,"ĠGu":1530,"Ġhead":1531,"aving":1532,"Ġeffect":1533,"ases":1534,"attle":1535,"ese":1536,"Ġbus":1537,"cember":1538,"ford":1539,"Ġfun":1540,"ĠLat":1541,"Ġtotal":1542,"Ġsong":1543,"Ġlocal":1544,"Ġimport":1545,"Ġinfl":1546,"ided":1547,"gether":1548,"med":1549,"Ġtogether":1550,"ĠAll":1551,"ĠHigh":1552,"Ġstart":1553,"Ġthough":1554,"Ġav":1555,"Ġyou":1556,"External":1557,"cil":1558,"gen":1559,"pril":1560,"Ġprom":1561,"Ġval":1562,"urther":1563,"ples":1564,"Ġsouth":1565,"ĠShe":1566,"af":1567,"Ġhous":1568,"oph":1569,"Ġstand":1570,"ole":1571,"ae":1572,"ĠJanuary":1573,"ĠState":1574,"line":1575,"ublic":1576,"Ġdem":1577,"rican":1578,"ior":1579,"ĠPark":1580,"iness":1581,"ĠĊĠĊ":1582,"Ġhistor":1583,"ĠMarch":1584,"13":1585,"aced":1586,"ĠLondon":1587,"ville":1588,"born":1589,"198":1590,"par":1591,"ĠJapan":1592,"ĠJune":1593,"ĠCanad":1594,"vers":1595,"Ġexample":1596,"ĠX":1597,"Ġdue":1598,"Ġraces":1599,"Ġindu":1600,"rew":1601,"ĠFl":1602,"Ġeven":1603,"day":1604,"ington":1605,"ĠJuly":1606,"Ġcour":1607,"Ġauthor":1608,"Ġposs":1609,"ially":1610,"akes":1611,"Ġopp":1612,"Ġcharacter":1613,"ane":1614,"wards":1615,"Ġmuch":1616,"Ġstr":1617,"Ġprocess":1618,"ĠSeptember":1619,"ham":1620,"Ġlast":1621,"Ġreleased":1622,"Ġport":1623,"ata":1624,"Ġstill":1625,"Ġdescrib":1626,"ĠOctober":1627,"Ġgo":1628,"let":1629,"ains":1630,"Ġeconom":1631,"Ġcrit":1632,"Ġrad":1633,"Ġbuilt":1634,"ĠWhite":1635,"ĠPar":1636,"aster":1637,"Ġsquare":1638,"Ġexpl":1639,"ĠSw":1640,"alth":1641,"Ġhistory":1642,"ness":1643,"Ġlike":1644,"Ġamong":1645,"ĠEl":1646,"Ġreport":1647,"Ġmarried":1648,"Ġelect":1649,"ĠDecember":1650,"ison":1651,"epend":1652,"ink":1653,"Ġfemale":1654,"Ġsaid":1655,"Ġfact":1656,"me":1657,"Ġmales":1658,"Ġvot":1659,"ody":1660,"ĠIsland":1661,"ves":1662,"reek":1663,"ĠRoman":1664,"Ġvery":1665,"Ġadv":1666,"ouncil":1667,"ĠApril":1668,"Ġpopular":1669,"ms":1670,"ords":1671,"ek":1672,"Ġprop":1673,"Ġcountry":1674,"Ġexper":1675,"ĠGen":1676,"bs":1677,"Ġfre":1678,"Ġcamp":1679,"Ġresp":1680,"iber":1681,"ĠNovember":1682,"levision":1683,"Ġshort":1684,"Ġ192":1685,"Ġcou":1686,"ĠTown":1687,"ths":1688,"ief":1689,"Ġusing":1690,"ĠItal":1691,"ĠMc":1692,"ivil":1693,"lect":1694,"augh":1695,"ript":1696,"ridge":1697,"Ġtechn":1698,"Ġ30":1699,"ĠEx":1700,"unic":1701,"Ġtit":1702,"Ġwhat":1703,"There":1704,"Ġpublished":1705,"ument":1706,"ĠRuss":1707,"ards":1708,"ler":1709,"ney":1710,"ges":1711,"Ġhel":1712,"Ġtem":1713,"ĠBar":1714,"Ġread":1715,"Ġaddition":1716,"Ġfin":1717,"Ġtradition":1718,"aul":1719,"ories":1720,"Ġnational":1721,"ĠTe":1722,"Ġhand":1723,"197":1724,"Ġunits":1725,"ipp":1726,"Ġprof":1727,"Ġdown":1728,"ĠAfrican":1729,"On":1730,"Ġinflu":1731,"Ġstat":1732,"Ġvis":1733,"band":1734,"ebru":1735,"Ġpost":1736,"Ġled":1737,"ebruary":1738,"ert":1739,"Ġjust":1740,"Ġheld":1741,"Ġincluded":1742,"irc":1743,"ones":1744,"Ġtook":1745,"Ġes":1746,"oad":1747,"ĠAfter":1748,"ĠSy":1749,"dom":1750,"ense":1751,"ĠBy":1752,"Ġrepresent":1753,"eth":1754,"ĠPres":1755,"Ġvillage":1756,"Ch":1757,"Ġtyp":1758,"Ġpat":1759,"Ġbas":1760,"ead":1761,"ray":1762,"ung":1763,"30":1764,"ĠChar":1765,"ald":1766,"ĠAss":1767,"Ġprot":1768,"ches":1769,"Ġlate":1770,"Ġday":1771,"Ġgame":1772,"Ġanother":1773,"ĠAnd":1774,"Ġleft":1775,"ĠBo":1776,"St":1777,"Ġpolitical":1778,"Ġrepl":1779,"ague":1780,"sc":1781,"Ġgreat":1782,"cing":1783,"ling":1784,"ĠThese":1785,"Ġevent":1786,"ribut":1787,"ze":1788,"stit":1789,"Ġcr":1790,"Ġmag":1791,"ĠSu":1792,"ĠCo":1793,"adem":1794,"ĠColle":1795,"Ġfinal":1796,"Ġbeg":1797,"ĠDav":1798,"ĠPhil":1799,"11":1800,"Ġlist":1801,"ining":1802,"Ġadm":1803,"ĠAustral":1804,"imate":1805,"Ġsk":1806,"ploy":1807,"Ġsingle":1808,"ibr":1809,"Ġep":1810,"ĠPart":1811,"Ġnov":1812,".,":1813,"empt":1814,"bor":1815,"Ġmilitary":1816,"Ġiss":1817,"ological":1818,"Ġhig":1819,"hern":1820,"reet":1821,"orpor":1822,"ffic":1823,"Ġ190":1824,"Ġmodern":1825,"Ġclaim":1826,"side":1827,"ilar":1828,"Ġaff":1829,"Ġorder":1830,"American":1831,"See":1832,"ĠFebruary":1833,"Ġconsidered":1834,"ĠChurch":1835,"Ġla":1836,"ps":1837,"Ġbecome":1838,"rote":1839,"ored":1840,"ĠBr":1841,"Ġter":1842,"Ġrace":1843,"Ġlevel":1844,"ĠHouse":1845,"yle":1846,"Ġindust":1847,"urs":1848,"ĠEngland":1849,"ruction":1850,"Ġcare":1851,"Ġmile":1852,"Ġfive":1853,"Ġfoot":1854,"ĠAmer":1855,"Ġlanguage":1856,"ots":1857,"Ã¡":1858,"Ġbelow":1859,"ured":1860,"orthern":1861,"ĠSec":1862,"astern":1863,"196":1864,"Ġfew":1865,"alf":1866,"ourn":1867,"oks":1868,"Ġ45":1869,"Ġsix":1870,"Ġant":1871,"ery":1872,"Ġchang":1873,"Ġgiven":1874,"Ġdevelopment":1875,"Ġlim":1876,"Ġplayer":1877,"Ġbook":1878,"Ġintrodu":1879,"Ġprev":1880,"alk":1881,"Ġless":1882,"Ġconf":1883,"Ġgl":1884,"Ġcontrol":1885,"Ġservice":1886,"ĠHer":1887,"Ġseason":1888,"Ġ189":1889,"Ġfore":1890,"Ġkill":1891,"Ġperform":1892,"Th":1893,"ĠAng":1894,"40":1895,"ĠFrance":1896,"ĠLa":1897,"Ġcurrent":1898,"Ġvol":1899,"Ġdirect":1900,"Ġconc":1901,"Ġcommunity":1902,"Ġarch":1903,"lin":1904,"ita":1905,"osp":1906,"ering":1907,"Ġturn":1908,"oute":1909,"tt":1910,"Ġfield":1911,"Ġsold":1912,"Ġimportant":1913,"ape":1914,"Ġreceived":1915,"Ġinf":1916,"ope":1917,"ĠNor":1918,"ops":1919,"Ġrole":1920,"formation":1921,"thern":1922,"olic":1923,"Ġ23":1924,"ither":1925,"Ġcompany":1926,"Ġ64":1927,"Ġvarious":1928,"Ġprim":1929,"Ġareas":1930,"Ġson":1931,"inning":1932,"aint":1933,"Ġwithout":1934,"ĠEast":1935,"pecial":1936,"Ġinvol":1937,"Ġway":1938,"Ġmen":1939,"Ġdel":1940,"Ġ44":1941,"usband":1942,"Ġ22":1943,"ination":1944,"century":1945,"umb":1946,"ĠReg":1947,"ĠMed":1948,"Ġeduc":1949,"Ġposition":1950,"Ġindividuals":1951,"eum":1952,"iddle":1953,"Ġactiv":1954,"reg":1955,"Ġtri":1956,"Ġcomb":1957,"less":1958,"Ġtop":1959,"Ġproduction":1960,"outhern":1961,"Ġident":1962,"ĠEn":1963,"ean":1964,"field":1965,"ĠGl":1966,"ĠDist":1967,"ĠHol":1968,"Ġcaus":1969,"avy":1970,"iron":1971,"Ġstar":1972,"arth":1973,"Ġer":1974,"Ġ188":1975,"oon":1976,"ency":1977,"Ġhusband":1978,"here":1979,"Ġpract":1980,"ĠSoc":1981,"itions":1982,"Ġmult":1983,"Ġwrote":1984,"ĠJames":1985,"iction":1986,"Ġ26":1987,"Ġsol":1988,"Ġsimilar":1989,"Ġlargest":1990,"work":1991,"Ġplayed":1992,"Ġhousing":1993,"ĠGeorge":1994,"ogn":1995,"ites":1996,"Ġneed":1997,"Ġ21":1998,"atural":1999,"ably":2000,"bo":2001,"Ġmillion":2002,"Ġbusiness":2003,"ways":2004,"Ġtelevision":2005,"self":2006,"Ġide":2007,"ront":2008,"craft":2009,"Ġsomet":2010,"Ġhowever":2011,"Ġregion":2012,"uck":2013,"Ġinit":2014,"of":2015,"Ġwon":2016,"ĠHen":2017,"alt":2018,"ĠEuropean":2019,"Ġview":2020,"Ġsug":2021,"ett":2022,"co":2023,"Ġphys":2024,"ype":2025,"Ġ27":2026,"app":2027,"ĠLou":2028,"Ġofficial":2029,"Ġlow":2030,"Ġmar":2031,"Ġsum":2032,"riend":2033,"ĠAmerica":2034,"Ġhuman":2035,"lement":2036,"Ġcame":2037,"Ġversion":2038,"ĠIndian":2039,"Ġmy":2040,"Ġwomen":2041,"ĠRober":2042,"Ġmanag":2043,"Ġ28":2044,"uel":2045,"Ġproper":2046,"ĠSch":2047,"acks":2048,"ched":2049,"de":2050,"Ġdeveloped":2051,"Ġbre":2052,"ĠMich":2053,"lex":2054,"Ġsour":2055,"ĠRich":2056,"most":2057,"oyal":2058,"ows":2059,"Ġattempt":2060,"unicip":2061,"Ġsocial":2062,"25":2063,"ĠVal":2064,"ĠBer":2065,"Ġcer":2066,"Ġcreated":2067,"Ġappear":2068,"ained":2069,"Ġgrow":2070,"van":2071,"Ġstruct":2072,"hod":2073,"Ġmakeup":2074,"ĠUnion":2075,"ental":2076,"ĠTr":2077,"ĠPe":2078,"ban":2079,"Ġappl":2080,"Ġexist":2081,"abor":2082,"nect":2083,"Ġalthough":2084,"Ġrelig":2085,"forman":2086,"lear":2087,"Ġcond":2088,"Ġassoci":2089,"Ġrail":2090,"sequ":2091,"ĠRes":2092,"Ġproduced":2093,"Ge":2094,"lands":2095,"Ġel":2096,"Ġdest":2097,"Ġstates":2098,"ĠPer":2099,"Ġreal":2100,"eration":2101,"put":2102,"Ġhelp":2103,"Ġserved":2104,"Al":2105,"rag":2106,"iforn":2107,"istic":2108,"ĠSan":2109,"Ġsym":2110,"ĠRec":2111,"Ġship":2112,"ention":2113,"Ġproject":2114,"omb":2115,"Ġmale":2116,"Ġgr":2117,"Ġhouseholder":2118,"Ġredu":2119,"Ġtimes":2120,"acy":2121,"atures":2122,"ĠMon":2123,"ĠAc":2124,"Ġhaving":2125,"aken":2126,"rated":2127,"Ġspecial":2128,"iation":2129,"Ġbeh":2130,"Ġfac":2131,"Ġpresident":2132,"Ġ187":2133,"na":2134,"Ġdied":2135,"ĠPort":2136,"ĠInternational":2137,"Ġracial":2138,"Ġalone":2139,"History":2140,"Ġthird":2141,"ush":2142,"ifornia":2143,"Ġworks":2144,"Ġengine":2145,"ĠLake":2146,"ander":2147,"Ġsw":2148,"ification":2149,"Ġdev":2150,"ĠPresident":2151,"olit":2152,"ĠCensus":2153,"Ġmater":2154,"pire":2155,"Ġbelie":2156,"Ġmember":2157,"Ġtownship":2158,"ĠQu":2159,"Ġspecies":2160,"ask":2161,"Ġusually":2162,"ĠDistrict":2163,"Ġ186":2164,"Ġeast":2165,"Ġcirc":2166,"According":2167,"wood":2168,"ential":2169,"ĠCollege":2170,"ĠOne":2171,"ificant":2172,"Ġrul":2173,"Ġking":2174,"ĠAnt":2175,"Ġdiv":2176,"inister":2177,"Ġtake":2178,"DP":2179,"Ġwest":2180,"sp":2181,"yr":2182,"ĠPal":2183,"ĠChristian":2184,"Ġwritten":2185,"ĠThom":2186,"Ġrelations":2187,"Ġsent":2188,"Ġcase":2189,"22":2190,"ĠNe":2191,"Ġcover":2192,"ĠGreat":2193,"ele":2194,"ym":2195,"ĠNo":2196,"wh":2197,"ĠSm":2198,"ĠCharles":2199,"Ġfilms":2200,"Ġside":2201,"ĠGeneral":2202,"Ġtw":2203,"itive":2204,"ara":2205,"west":2206,"Ġtest":2207,"val":2208,"Ġhost":2209,"Ġfather":2210,"ule":2211,"Ġsepar":2212,"Ġindepend":2213,"ibrary":2214,"ĠAct":2215,"iol":2216,"Ġz":2217,"artment":2218,"ocr":2219,"bert":2220,"ability":2221,"Ġdistrict":2222,"Ġgroups":2223,"ĠCalifornia":2224,"inese":2225,"Ġestablish":2226,"Ġrese":2227,"ician":2228,"uf":2229,"Ġshould":2230,"burg":2231,"Ġlight":2232,"Ġplaces":2233,"itar":2234,"Ġbest":2235,"Ġfeature":2236,"BC":2237,"Ġright":2238,"Ġinterest":2239,"ĠGermany":2240,"Ġprofess":2241,"Ġtour":2242,"ĠWhen":2243,"yd":2244,"Ġspace":2245,"Ġprevious":2246,"ounced":2247,"Ġmer":2248,"An":2249,"Ġ29":2250,"ana":2251,"Ġdoes":2252,"Ġborn":2253,"ills":2254,"used":2255,"uk":2256,"Ġsignificant":2257,"Ġarg":2258,"ĠJew":2259,"Ġcontinued":2260,"Ġbuilding":2261,"mit":2262,"ĠArmy":2263,"Not":2264,"aff":2265,"Ġsite":2266,"Ġproduct":2267,"Ġmean":2268,"Ġfurther":2269,"ĠDem":2270,"Ġyoung":2271,"Ġnovel":2272,"ĠMor":2273,"Ġ2008":2274,"ream":2275,"famil":2276,"ware":2277,"Ġdescribed":2278,"Ġ2007":2279,"omm":2280,"ister":2281,"Ġothers":2282,"Ġcouples":2283,"Ġbody":2284,"Ġmot":2285,"now":2286,"ĠCath":2287,"aper":2288,"rain":2289,"%)":2290,"ĠNative":2291,"ending":2292,"rest":2293,"Ġsuggest":2294,"ico":2295,"anc":2296,"Ġattack":2297,"Ġdeb":2298,"Ġnet":2299,"Ġmaterial":2300,"apt":2301,"Ġanim":2302,"ances":2303,"Ġcountries":2304,"hel":2305,"ĠBlack":2306,"Ġmust":2307,"ael":2308,"Ġsomeone":2309,"Ã¶":2310,"go":2311,"raw":2312,"Ġbir":2313,"gin":2314,"ĠSte":2315,"Ġjo":2316,"atter":2317,"Ġcompet":2318,"ĠPaul":2319,"Ġmethod":2320,"Ġbi":2321,"Ġavail":2322,"ĠHispan":2323,"Ġspread":2324,"Ġforces":2325,"rap":2326,"view":2327,"Ġpriv":2328,"Ġproble":2329,"Ġ2020":2330,"Ġcomput":2331,"ĠRobert":2332,"ached":2333,"ators":2334,"Ġ2006":2335,"ĠCouncil":2336,"aries":2337,"ĠPress":2338,"Ġder":2339,"Ġperforman":2340,"Ġnext":2341,"Ġsystems":2342,"icle":2343,"Ġdays":2344,"Ġnever":2345,"aut":2346,"panish":2347,"ĠSome":2348,"ĠDavid":2349,"ĠChina":2350,"Ġfunction":2351,"ports":2352,"Ġ2011":2353,"Ġstation":2354,"ĠHenry":2355,"Ġstrong":2356,"Ġfootball":2357,"ying":2358,"Ġstory":2359,"II":2360,"Ġtreat":2361,"road":2362,"cast":2363,"ĠTownship":2364,"Ġemploy":2365,"sy":2366,"ĠBel":2367,"Ġ2009":2368,"ĠChinese":2369,"eh":2370,"Ġearl":2371,"Ġfail":2372,"ĠCor":2373,"Ġinternational":2374,"Ġpress":2375,"etic":2376,"arent":2377,"ids":2378,"Ġmass":2379,"Ġcal":2380,"ĠKingdom":2381,"ĠDuring":2382,"Ġdecl":2383,"ĠHall":2384,"ien":2385,"Ġrock":2386,"ĠLouis":2387,"ude":2388,"ama":2389,"Ġfull":2390,"Ġgood":2391,"ĠParty":2392,"Ġhalf":2393,"ĠBC":2394,"Ġmoved":2395,"Ġ[":2396,"Ġke":2397,"Ġ2012":2398,"ureau":2399,"ĠCour":2400,"Ġstudents":2401,"ising":2402,"ĠStreet":2403,"ique":2404,"Ġmeas":2405,"asing":2406,"Ġbroad":2407,"hers":2408,"Ġformed":2409,"Ġ|":2410,"ĠAsian":2411,"Ġwife":2412,"Ġhimself":2413,"Ġschools":2414,"Ġeither":2415,"ideo":2416,"ĠGreek":2417,"Ġoffice":2418,"Ġ1990":2419,"ĠArt":2420,"rie":2421,"23":2422,"Ġrecogn":2423,"imately":2424,"Ġfrequ":2425,"Ġanc":2426,"off":2427,"incip":2428,"idence":2429,"ming":2430,"Ġoffer":2431,"ication":2432,"ĠHistor":2433,"Ġgames":2434,"Ġhold":2435,"families":2436,"ashington":2437,"ĠCanada":2438,"ĠSer":2439,"Ġanal":2440,"80":2441,"oviet":2442,"ĠMiss":2443,"overty":2444,"Ġmaking":2445,"26":2446,"serv":2447,"anted":2448,"Ġord":2449,"ĠJapanese":2450,"ederal":2451,"ĠHispanic":2452,"ours":2453,"Ġparty":2454,"Ġobject":2455,"Ã¼":2456,"rug":2457,"Un":2458,"24":2459,"ĠDep":2460,"mp":2461,"Ġfounded":2462,"27":2463,"Ġstyle":2464,"Ġbase":2465,"Ġavailable":2466,"rab":2467,"Ġ1980":2468,"oe":2469,"ma":2470,"hib":2471,"Ġcivil":2472,"ĠAward":2473,"195":2474,"Ġphil":2475,"35":2476,"ĠDes":2477,"ky":2478,"ĠGod":2479,"face":2480,"Ġtitle":2481,"order":2482,"ĠQue":2483,"Ġfree":2484,"ampion":2485,"Ġfire":2486,"writ":2487,"Ġtheory":2488,"rown":2489,"Ġsuper":2490,"ĠMount":2491,"play":2492,"Ġtre":2493,"Ġwid":2494,"Ġoccur":2495,"ularly":2496,"Ġnatural":2497,"ensive":2498,"Ġacross":2499,"iers":2500,"Ġmarket":2501,"Ġpoverty":2502,"ĠDan":2503,"Ar":2504,"Ġ50":2505,"37":2506,"36":2507,"pecially":2508,"inter":2509,"ĠTex":2510,"ĠGovern":2511,"Ġ2013":2512,"Ġrather":2513,"Ġfriend":2514,"ota":2515,"ĠCompan":2516,"Ġhow":2517,"Ġcell":2518,"Ġ1970":2519,"iff":2520,"cle":2521,"aps":2522,"Ġsound":2523,"Ġinvest":2524,"ĠCenter":2525,"Ġseen":2526,"Ġroad":2527,"194":2528,"ergy":2529,"ĠLatino":2530,"gress":2531,"Dem":2532,"itor":2533,"Ġsinger":2534,"ĠBureau":2535,"be":2536,"29":2537,"ĠSpanish":2538,"ĠAccording":2539,"Ġsometimes":2540,"alls":2541,"ĠMil":2542,"ĠVir":2543,"itu":2544,"Ġ2005":2545,"not":2546,"Ġdata":2547,"Ġactor":2548,"oms":2549,"Ġcoll":2550,"ĠWashington":2551,"Ġ40":2552,"Ġelection":2553,"ements":2554,"ĠÃ":2555,"Ġ(\"":2556,"itz":2557,"Ġmunicip":2558,"ĠIr":2559,"Ġabove":2560,"ĠRoyal":2561,"Ġopened":2562,"ĠPac":2563,"Ġblack":2564,"ume":2565,"Ġtemper":2566,"Ġgenerally":2567,"pite":2568,"Ġimpro":2569,"28":2570,"ĠTra":2571,"'t":2572,"viron":2573,"omes":2574,"hest":2575,"atives":2576,"Ġagre":2577,"Ġtransl":2578,"ĠMe":2579,"ĠRoad":2580,"isl":2581,"Ġpolic":2582,"38":2583,"Ġplan":2584,"Ġdoc":2585,"ĠEmpire":2586,"Ġcost":2587,"Ġmid":2588,"ournal":2589,"Geography":2590,"Ġgrad":2591,"ĠWith":2592,"Ġmodel":2593,"Ġenc":2594,"Ġterrit":2595,"ning":2596,"Ġtype":2597,"Ġservices":2598,"aign":2599,"mercial":2600,"Ġcross":2601,"ĠYou":2602,"Ġadminist":2603,"Ġleast":2604,"60":2605,"cul":2606,"ÃŃ":2607,"Ġcast":2608,"ĠSoviet":2609,"Ġarr":2610,"Ġstudy":2611,"ĠOther":2612,"Ġevents":2613,"mar":2614,"ĠMary":2615,"ĠItalian":2616,"Ġground":2617,"ceed":2618,"ĠAg":2619,"ĠDu":2620,"Ġdefe":2621,"ecut":2622,"itect":2623,"chie":2624,"Ġsubject":2625,"Ġculture":2626,"year":2627,"Ġepis":2628,"Ġwent":2629,"Ġ2014":2630,"ĠWe":2631,"Ġexpress":2632,"Ġthroughout":2633,"Ġrecorded":2634,"ĠThomas":2635,"ĠWestern":2636,"Ġaircraft":2637,"Ġannounced":2638,"ĠCatholic":2639,"Ġfollowed":2640,"ĠLeague":2641,"Ã³":2642,"ĠRichard":2643,"ĠMex":2644,"Ġinformation":2645,"Ġsett":2646,"ĠAbout":2647,"39":2648,"oney":2649,"Ġforce":2650,"ĠCong":2651,"Ġentire":2652,"De":2653,"Ġresearch":2654,"Ġfind":2655,"Ġfund":2656,"rem":2657,"Ġpossible":2658,"bit":2659,"Ġword":2660,"Ġmeet":2661,"Ġcenter":2662,"Ġincludes":2663,"erous":2664,"Ġaccess":2665,"Ġappeared":2666,"ateg":2667,"Ġpain":2668,"Ġcapital":2669,"Ġcondu":2670,"Ġpot":2671,"Ġ2015":2672,"ago":2673,"Ġwhite":2674,"Ġintroduced":2675,"Ġparts":2676,"ĠMart":2677,"Ġcapita":2678,"Ġcareer":2679,"ĠRed":2680,"rial":2681,"ought":2682,"Ġreported":2683,"ufact":2684,"ades":2685,"Ġterms":2686,"arliam":2687,"Ġstandard":2688,"ĠFrank":2689,"Ġchange":2690,"ographics":2691,"berg":2692,"onst":2693,"atory":2694,"Ġcentral":2695,"ĠGr":2696,"udd":2697,"Ġ2016":2698,"Ġpur":2699,"ria":2700,"rel":2701,"Ġsuccessful":2702,"Ġcities":2703,"Ġmem":2704,"ston":2705,"Ġobserv":2706,"ishing":2707,"Ġlive":2708,"Ġaccept":2709,"Ġversus":2710,"Ġpred":2711,"Ġsch":2712,"Ġespecially":2713,"Ġrange":2714,"34":2715,"Ġ2004":2716,"que":2717,"ĠMont":2718,"oid":2719,"ula":2720,"utch":2721,"Ġconnect":2722,"Ġneg":2723,"Ġradio":2724,"nown":2725,"ĠCompany":2726,"key":2727,"Ġliter":2728,"ĠUK":2729,"Ġhon":2730,"arily":2731,"aves":2732,"ĠRail":2733,"Ġge":2734,"Ġ1960":2735,"Ġ185":2736,"anding":2737,"iest":2738,"ĠSl":2739,"Ġdiscover":2740,"Ġdiff":2741,"Ġresidents":2742,"Ġtaken":2743,"pper":2744,"aur":2745,"heast":2746,"ĠAcadem":2747,"elling":2748,"arliament":2749,"Ġsee":2750,"ĠPat":2751,"iting":2752,"Ġste":2753,"Ġ31":2754,"umn":2755,"roy":2756,"ĠMet":2757,"elt":2758,"ĠPacific":2759,"ĠGreen":2760,"Ġbrother":2761,"Ġdeg":2762,"Ġelected":2763,"orough":2764,"ĠHistory":2765,"Ġpoet":2766,"Demographics":2767,"ving":2768,"Ġconsist":2769,"ĠRepublic":2770,"Ġlaun":2771,"Ġonce":2772,"rael":2773,"ĠMer":2774,"orporated":2775,"aughter":2776,"Ġaccount":2777,"Ġcompos":2778,"33":2779,"Ġphilos":2780,"Ġappoint":2781,"Ġupon":2782,"ĠAlex":2783,"ĠMac":2784,"Ġ2018":2785,"ĠBay":2786,"bers":2787,"ĠPenn":2788,"ranch":2789,"Ġprovided":2790,"duc":2791,"Ġeconomic":2792,"Ġwhose":2793,"Ġeight":2794,"ĠRev":2795,"ership":2796,"Ġhigher":2797,"ĠBra":2798,"Ġlost":2799,"Ġmonths":2800,"icated":2801,"right":2802,"ilities":2803,"ĠSim":2804,"Ġ2019":2805,"Ġcritic":2806,"ĠRoute":2807,"90":2808,"ĠSen":2809,"Ġcourt":2810,"Ġremained":2811,"vironment":2812,"ĠCourt":2813,"Ġ2017":2814,"ĠMag":2815,"Ġfood":2816,"ems":2817,"Ġregard":2818,"leg":2819,"ĠMal":2820,"ote":2821,"Ġeducation":2822,"Ġreturned":2823,"men":2824,"Ġ2003":2825,"oice":2826,"ĠTrans":2827,"Ġstarted":2828,"ores":2829,"ĠFirst":2830,"Ġmovement":2831,"aker":2832,"Ġviol":2833,"Ġprincip":2834,"ĠSam":2835,"itch":2836,"arian":2837,"Ġitself":2838,"ĠCentral":2839,"Ġill":2840,"ump":2841,"Ġleading":2842,"Ġmother":2843,"oor":2844,"Ġfig":2845,"Ġfar":2846,"ecess":2847,"Ġhard":2848,"Ġfav":2849,"ĠInter":2850,"sel":2851,"Ġisland":2852,"Ġmeans":2853,"Ġcertain":2854,"Ġclos":2855,"ĠMuseum":2856,"Ġrights":2857,"70":2858,"Ġcommercial":2859,"ror":2860,"ĠSal":2861,"Ġmaintain":2862,"sych":2863,"rey":2864,"ĠLaw":2865,"Ġrespect":2866,"ĠMales":2867,"ĠIndia":2868,"ĠRussian":2869,"Ġsex":2870,"ux":2871,"Ġclub":2872,".)":2873,"chan":2874,"ĠAustralia":2875,"\")":2876,"Ġnorthern":2877,"ĠMy":2878,"Ġalmost":2879,"âĢĻ":2880,"Ġten":2881,"Ġinstead":2882,"ĠBattle":2883,"Ġchurch":2884,"Ġred":2885,"ĠDay":2886,"peror":2887,"Ġgave":2888,"Ġpers":2889,"ference":2890,"Ġmultip":2891,"rica":2892,"Ġcy":2893,"olf":2894,"Ġarmy":2895,"ĠScott":2896,"atch":2897,",\"":2898,"ected":2899,"Ġden":2900,"rought":2901,"ĠTo":2902,"Ġcop":2903,"Ġconcept":2904,"hood":2905,"icles":2906,"oul":2907,"Ġaud":2908,"ĠFranc":2909,"Ġfeatures":2910,"ĠWil":2911,"head":2912,"ĠTexas":2913,"edy":2914,"Ġcapt":2915,"ked":2916,"Ġknow":2917,"Ġput":2918,"ption":2919,"Ġimm":2920,"ground":2921,"Ġrate":2922,"Ġdam":2923,"cript":2924,"Ġmount":2925,"Ġlower":2926,"Ġcomplex":2927,"Ġcampaign":2928,"ĠSwed":2929,"Ġfoc":2930,"Ġsurv":2931,"Ġcompan":2932,"Ġver":2933,"ĠDemocr":2934,"ĠTur":2935,"Ġmanufact":2936,"olk":2937,"ij":2938,"Ġcoast":2939,"Ġvict":2940,"Ġgener":2941,"Ġdeterm":2942,"Ġcontain":2943,"After":2944,"Ġbar":2945,"Ġ2001":2946,"ĠAssoci":2947,"Ġlik":2948,"ĠCanadian":2949,"Ġoriginally":2950,"ĠAcademy":2951,"rian":2952,"Ġeventually":2953,"ols":2954,"like":2955,"ĠSociety":2956,"ribution":2957,"uments":2958,"ĠGold":2959,"Ġkilled":2960,"aval":2961,"Ġaccording":2962,"ĠPeter":2963,"Ġpolitician":2964,"Ġ2002":2965,"medi":2966,"Ġrelease":2967,"Ġoccup":2968,"ĠBu":2969,"ĠHill":2970,"Ġthus":2971,"Ġsouthern":2972,"Ġphot":2973,"Ġstri":2974,"ĠIm":2975,"Ġren":2976,"ĠParis":2977,"Ġet":2978,"Ġindustry":2979,"ĠVirgin":2980,"ĠStud":2981,"ĠDon":2982,"icult":2983,"olitan":2984,"Ġperformance":2985,"ands":2986,"Ġtraditional":2987,"Ġdesigned":2988,"31":2989,"ĠGrand":2990,"ĠArch":2991,"Ġtax":2992,"Ġreb":2993,"urity":2994,"32":2995,"Ġsuff":2996,"Ġconstruction":2997,"Cl":2998,"ĠOld":2999,"ĠRock":3000,"ari":3001,"ends":3002,"Ġkey":3003,"Ġprivate":3004,"Ġrespons":3005,"Ġadop":3006,"ender":3007,"Ġsaw":3008,"ylvan":3009,"Ġenergy":3010,"ĠList":3011,"Ġ184":3012,"uture":3013,"het":3014,"Ġclose":3015,"antic":3016,"Ġapprox":3017,"eck":3018,"Ġtravel":3019,"Ġschol":3020,"Ġactress":3021,"Ġcolon":3022,"Ġtext":3023,"iment":3024,"Ġable":3025,"Ġincreased":3026,"estival":3027,"action":3028,"ĠAre":3029,"ĠJose":3030,"Ġfront":3031,"ĠTer":3032,"iles":3033,"oming":3034,"Ġprovide":3035,"Ġcharacters":3036,"Ġtro":3037,"ĠNet":3038,"ĠLibrary":3039,"ingu":3040,"Ġvideo":3041,"Ġlanguages":3042,"ĠCommun":3043,"orial":3044,"Ġrelationship":3045,"ĠBur":3046,"unk":3047,"ublican":3048,"ĠAlthough":3049,"Ġaward":3050,"ened":3051,"Ġlab":3052,"Ġassociated":3053,"eleb":3054,"ĠZe":3055,"ĠInstit":3056,"Ġscient":3057,");":3058,"rior":3059,"Ġprob":3060,"oles":3061,"Ġsat":3062,"ĠAfrica":3063,"Ġabs":3064,"ires":3065,"ha":3066,"ĠWhile":3067,"iter":3068,"Ġfight":3069,"ĠIsrael":3070,"ĠCap":3071,"ulation":3072,"Ġthought":3073,"Ġprote":3074,"Ġlog":3075,"Ġtrade":3076,"Ġinfluence":3077,"Ġorigin":3078,"Ġarchitect":3079,"ylvania":3080,"ĠĊĊ":3081,"Ġworking":3082,"Ġdirected":3083,"ounter":3084,"Ġforms":3085,"amous":3086,"Ġpast":3087,"Ġnetwork":3088,"Ġoutside":3089,"Ġdirector":3090,"ĠCDP":3091,"ĠBritain":3092,"...":3093,"ida":3094,"ection":3095,"time":3096,"Ġachie":3097,"Ġreligious":3098,"ications":3099,"iding":3100,"Ġriver":3101,"Ġrank":3102,"Ġreferred":3103,"aged":3104,"itte":3105,"Ġwriter":3106,"Ġallowed":3107,"ĠMichael":3108,"Ġrequired":3109,"Ġresiding":3110,"ĠChe":3111,"Ġparticip":3112,"ĠCont":3113,"Ġhealth":3114,"ift":3115,"rig":3116,"ste":3117,"Ġreplaced":3118,"Ġexcept":3119,"Ġperformed":3120,"atre":3121,"Ġneigh":3122,"lam":3123,"Ġeffort":3124,"Ġfall":3125,"Ġtransport":3126,"Ġsettle":3127,"ĠLatin":3128,"och":3129,"Ġuses":3130,"ributed":3131,"Ġur":3132,"Ġnorm":3133,"For":3134,"ini":3135,"ength":3136,"ĠBut":3137,"ĠSmith":3138,"Ġparticular":3139,"Ġnumbers":3140,"enced":3141,"irl":3142,"Ġsubsequ":3143,"Ġbrought":3144,"vin":3145,"ĠBest":3146,"Ġstated":3147,"Ġpercent":3148,"ropolitan":3149,"ĠDr":3150,"ellow":3151,"ĠâĢ":3152,"ĠValley":3153,"Ġacqu":3154,"opp":3155,"ducation":3156,"ĠAngel":3157,"Ġmix":3158,"bon":3159,"Ġtru":3160,"ki":3161,"ĠVol":3162,"rim":3163,"Ġfarm":3164,"He":3165,"uns":3166,"usion":3167,"inct":3168,"see":3169,"Ġstructure":3170,"ĠEarth":3171,"ĠCarol":3172,"ĠMinister":3173,"well":3174,"Ġlittle":3175,"Ġsay":3176,"cks":3177,"Ġlet":3178,"odes":3179,"Ġ1999":3180,"Ġnames":3181,"unn":3182,"Ġadded":3183,"lymp":3184,"known":3185,"unt":3186,"Ġreading":3187,"Ġaway":3188,"Ġinstit":3189,"gypt":3190,"Ġcreat":3191,"sylvania":3192,"reland":3193,"Ġself":3194,"alled":3195,"ĠServ":3196,"ĠMiddle":3197,"At":3198,"Ġstre":3199,"ĠMad":3200,"anks":3201,"ibility":3202,"Ġparticularly":3203,"Ġguitar":3204,"):":3205,"Ġscience":3206,"igned":3207,"Ġdou":3208,"Ġbooks":3209,"ero":3210,"ĠCongress":3211,"ocal":3212,"Wh":3213,"Ġbattle":3214,"lo":3215,"asc":3216,"mon":3217,"Ġunivers":3218,"airs":3219,"Ġmeaning":3220,"ishop":3221,"Ġconcern":3222,"Ġlived":3223,"state":3224,"Ġwebs":3225,"azine":3226,"Ġexam":3227,"Ġvalue":3228,"Ġmajority":3229,"Ġcases":3230,"Ġaction":3231,"Ġeth":3232,"ĠMark":3233,"75":3234,"Ġevidence":3235,"ĠAp":3236,"ena":3237,"Ġpay":3238,"Ġ35":3239,"ĠDutch":3240,"oses":3241,"Ġchem":3242,"lor":3243,"Ġtrib":3244,"Ġbound":3245,"ĠIII":3246,"Ġweek":3247,"Ġexecut":3248,"Ġcompanies":3249,"ĠMany":3250,"anded":3251,"Ġcaused":3252,"Ġget":3253,"Ġbeginning":3254,"ĠFore":3255,"Ġdifficult":3256,"reater":3257,"ĠMass":3258,"Ġrelated":3259,"ension":3260,"ios":3261,"atively":3262,"Ġgra":3263,"Ġstage":3264,"ysis":3265,"Ġvia":3266,"ĠFrom":3267,"Ġestim":3268,"Ġshows":3269,"Ġâ":3270,"Ġloss":3271,"Ġseven":3272,"Ġsoft":3273,"gl":3274,"Ġsil":3275,"Ġlarger":3276,"Äģ":3277,"uth":3278,"Ġplant":3279,"lying":3280,"owers":3281,"hab":3282,"ises":3283,"Ġwestern":3284,"iences":3285,"ĠIrish":3286,"based":3287,"Ġmach":3288,"Ġlocation":3289,"ĠVict":3290,"Ġtoo":3291,"Ġamount":3292,"45":3293,"Ġelements":3294,"Ġsource":3295,"Ġmiss":3296,"ĠPennsylvania":3297,"Town":3298,"Ġnuc":3299,"Ġsurround":3300,"ĠDepartment":3301,"Ġremov":3302,"Ġceleb":3303,"ĠAssociation":3304,"reme":3305,"Ġsequ":3306,"Ġlo":3307,"Ġbelieved":3308,"iel":3309,"Ġsitu":3310,"Ġcut":3311,"Ġhighest":3312,"Ġprofessional":3313,"ulture":3314,"Ġbur":3315,"ĠCons":3316,"Pe":3317,"mark":3318,"Ġrule":3319,"ĠSuper":3320,"Ġdaughter":3321,"ado":3322,"Ġearlier":3323,"pro":3324,"Ġseat":3325,"lim":3326,"cies":3327,"ulf":3328,"ĠItaly":3329,"Ġincrease":3330,"hing":3331,"|-":3332,"Ġmusical":3333,"Åį":3334,"ĠTV":3335,"stant":3336,"des":3337,"onic":3338,"uit":3339,"Ġpoints":3340,"Ġpark":3341,"ĠCast":3342,"atal":3343,"oke":3344,"ĠIf":3345,"ĠIreland":3346,"ĠOlymp":3347,"Ġdocument":3348,"Ġlearn":3349,"Ġinstr":3350,"Ġcompleted":3351,"ĠMost":3352,"Ġ1998":3353,"Ġlines":3354,"It":3355,"Ġwind":3356,"ancial":3357,"Ġwords":3358,"Ġemer":3359,"ersey":3360,"vention":3361,"ĠAustralian":3362,"ĠBill":3363,"Ġsongs":3364,"Ġ=":3365,"Ġincreasing":3366,"Ġquest":3367,"bury":3368,"aching":3369,"Ġleader":3370,"rate":3371,"ĠEgypt":3372,"itt":3373,"Ġwriting":3374,"Ġinvolved":3375,"Ġjud":3376,"Ġworked":3377,"ĠMo":3378,"porary":3379,"Ġindependent":3380,"mi":3381,"icro":3382,"Ġ1950":3383,"Ġplayers":3384,"Ġprimary":3385,"rick":3386,"Ġfeatured":3387,"elled":3388,"NA":3389,"ĠChic":3390,"Ġforeign":3391,"ĠMod":3392,"istics":3393,"istance":3394,"Ġmedia":3395,"itiz":3396,"Ġemb":3397,"190":3398,"Ġplann":3399,"Ġfuture":3400,"2000":3401,"Ġsymb":3402,"ĠKh":3403,"Ġsurface":3404,"During":3405,"ties":3406,"ĠDiv":3407,"ĠArab":3408,"ampionship":3409,"Ġcand":3410,"ĠSaint":3411,"ĠFort":3412,"Ġgold":3413,"Ġlay":3414,"ĠIts":3415,"isions":3416,"Ġaltern":3417,"Ġmight":3418,"Ġexc":3419,"SA":3420,"Ã¤":3421,"ĠRepublican":3422,"Ġdomin":3423,"Ġconstit":3424,"ka":3425,"ĠKe":3426,"95":3427,"Ġ||":3428,"Ġchanges":3429,"Ġbirth":3430,"den":3431,"ĠCount":3432,"iography":3433,"arriage":3434,"ĠJoseph":3435,"Ġwebsite":3436,"ament":3437,"ĠPublic":3438,"era":3439,"ĠMusic":3440,"istan":3441,"gian":3442,"Ġmechan":3443,"vey":3444,"ĠAtl":3445,"ĠVirginia":3446,"Ġball":3447,"ĠâĢĶ":3448,"Ġinteg":3449,"ĠEr":3450,"47":3451,"Ġreview":3452,"ĠRad":3453,"Ġ1996":3454,"oted":3455,"Ġcause":3456,"pected":3457,"Ġtypically":3458,"Ġdestroy":3459,"Ġwhom":3460,"ĠStar":3461,"Ġsem":3462,"ĠSpr":3463,"Ġancient":3464,"ĠWood":3465,"ittee":3466,"ĠApp":3467,"Ġtoday":3468,"Ġopt":3469,"Ġess":3470,"ĠIll":3471,"ĠGra":3472,"ify":3473,"Ġjoined":3474,"Ġpersonal":3475,"Ġreached":3476,"Ġpurp":3477,"Ġspeed":3478,"Ġenter":3479,"Ġnar":3480,"ready":3481,"itation":3482,"ĠTom":3483,"Ġdivid":3484,"Ġenvironment":3485,"Ġche":3486,"Ġbuildings":3487,"gn":3488,"ona":3489,"ĠFred":3490,"Ġchanged":3491,"Ġlegal":3492,"spe":3493,"86":3494,"Ġpractice":3495,"Ġlonger":3496,"Ġgrowth":3497,"inary":3498,"Ġ1997":3499,"Ġlimited":3500,"ansas":3501,"ĠCamp":3502,"part":3503,"iated":3504,"Ġlegisl":3505,"Ġcomputer":3506,"Ġmiles":3507,"ĠJewish":3508,"utes":3509,"Ġanti":3510,"utions":3511,"Ġhor":3512,"Other":3513,"ĠYear":3514,"Ġcontinu":3515,"Ġdom":3516,"ĠEdward":3517,"ĊĊĠ":3518,"selves":3519,"Ġthemselves":3520,"ledge":3521,"Ġdram":3522,"Ġvir":3523,"Ġtar":3524,"ĠInstitute":3525,"Ġever":3526,"Ġdig":3527,"Ġremains":3528,"itude":3529,"Ġdate":3530,"Ġdise":3531,"Ġbene":3532,"New":3533,"Ġdyn":3534,"Ġapproximately":3535,"Ġmagn":3536,"Ġspecific":3537,"Ġartists":3538,"85":3539,"wide":3540,"sec":3541,"Ġconsider":3542,"ĠPet":3543,"Ġconfl":3544,"uries":3545,"win":3546,"Ġcouncil":3547,"ĠKore":3548,"ĠCivil":3549,"ources":3550,"Ġpolicy":3551,"writer":3552,"ĠBen":3553,"Ġunderst":3554,"Ġcontains":3555,"Ġnight":3556,"Ġtypes":3557,"Ġprec":3558,"Ġsea":3559,"aring":3560,"Ġfamous":3561,"Ġsoon":3562,"99":3563,"oo":3564,"Ġpie":3565,"Ġtroops":3566,"ils":3567,"Ġsummer":3568,"ophy":3569,"Ġclimate":3570,"Ġlack":3571,"ĠMill":3572,"ĠForce":3573,"Ġarm":3574,"Ġalways":3575,"65":3576,"ging":3577,"eff":3578,"Ġens":3579,"onse":3580,"Ġmostly":3581,"ĠSystem":3582,"ĠChicago":3583,"ĠRob":3584,"asons":3585,"ĠOx":3586,"izing":3587,"ĠBrown":3588,"Ġhistorical":3589,"isk":3590,"ĠVictor":3591,"ada":3592,"itted":3593,"ables":3594,"Ġborder":3595,"ya":3596,"Ġproposed":3597,"lected":3598,"Ġbroadcast":3599,"Ġ2021":3600,"shire":3601,"inet":3602,"resp":3603,"ĠNavy":3604,"cher":3605,"ression":3606,"ĠLu":3607,"Ġcome":3608,"Ġprint":3609,"Ġboard":3610,"This":3611,"Ġminor":3612,"igan":3613,"Ġpsych":3614,"ĠInt":3615,"ĠĠĠĠĠĠĠĠ":3616,"ĠDel":3617,"Ġappointed":3618,"Ġoperations":3619,"pre":3620,"ĠJersey":3621,"Ġconver":3622,"Ġgod":3623,"Ġtowards":3624,"Ġnecess":3625,"roll":3626,"ĠRecords":3627,"ĠCamb":3628,"Ġnumerous":3629,"Ġnature":3630,"Ġ1995":3631,"Ġalready":3632,"back":3633,"ients":3634,"Ġround":3635,"amm":3636,"Ġseparate":3637,"bour":3638,"Ġbreak":3639,"Ġuniversity":3640,"anta":3641,"Ġ1994":3642,"Ġplaced":3643,"Ġmathem":3644,"Ġepisode":3645,"Ġdu":3646,"Ġdirectly":3647,"Ġ32":3648,"CA":3649,"aine":3650,"ĠMexico":3651,"ĠDo":3652,"Ġfle":3653,"uman":3654,"Ġ1992":3655,"erve":3656,"Ġproperty":3657,"Ġpurch":3658,"ĠLos":3659,"ĠScot":3660,"Ġrequire":3661,"irit":3662,"use":3663,"44":3664,"ola":3665,"ĠFlor":3666,"board":3667,"Ġcode":3668,"Ġcommonly":3669,"ĠAut":3670,"ultural":3671,"People":3672,"min":3673,"ĠArea":3674,"ĠSpain":3675,"Ġstarring":3676,"Ã¨":3677,"ĠNorthern":3678,"rd":3679,"pped":3680,"88":3681,"Ġproduce":3682,"Ġeastern":3683,"Ġscreen":3684,"inent":3685,"cean":3686,"ĠLiber":3687,"Ġbank":3688,"Ġwriters":3689,"ras":3690,"Ġsection":3691,"ĠKn":3692,"Ġpen":3693,"Ġdiscuss":3694,"Ġtrack":3695,"Ġclaimed":3696,"ĠPri":3697,"ĠCarl":3698,"ĠOff":3699,"Ġeas":3700,"ault":3701,"Ġprevent":3702,"ĠSecond":3703,"ĠRome":3704,"ibl":3705,"Ġera":3706,"Ġcandid":3707,"Ġnewsp":3708,"annel":3709,"Ġcred":3710,"Ġdi":3711,"Ġdecided":3712,"Ġcomplete":3713,"Ġindic":3714,"Ġcommunities":3715,"oma":3716,"ospital":3717,"Ġjournal":3718,"Ġeffects":3719,"rich":3720,"ĠCreek":3721,"ĠMartin":3722,"ĠRevolution":3723,"axim":3724,"Ġveh":3725,"ĠMin":3726,"Ġannual":3727,"tra":3728,"64":3729,"Ġcust":3730,"ĠColumb":3731,"ĠFre":3732,"ĠOl":3733,"aled":3734,"iana":3735,"change":3736,"Ġsources":3737,"Ġhit":3738,"Ġelement":3739,"Ġtransfer":3740,"Ġbetter":3741,"can":3742,"iance":3743,"Ġlength":3744,"Ġsupported":3745,"Ġcollection":3746,"ĠGroup":3747,"ĠQueen":3748,"Ġadditional":3749,"Ġ()":3750,"ĠPrince":3751,"Cities":3752,"ittle":3753,"ipl":3754,"Ġdefined":3755,"Ġpolice":3756,"Ġrap":3757,"uation":3758,"Ġlaws":3759,"Ġop":3760,"Ġthreat":3761,"Ġ60":3762,"Ġacadem":3763,"Ġthr":3764,"ĠLord":3765,"Ġvariety":3766,"azz":3767,"Ġproducer":3768,"Ġcontract":3769,"Ġprovides":3770,"Ġimmedi":3771,"Ġfederal":3772,"Ġcommand":3773,"ĠWal":3774,"Ġhot":3775,"Ġresults":3776,"Ġwidely":3777,"ĠSir":3778,"ĠClass":3779,"Ġwood":3780,"ĠJer":3781,"Ġconditions":3782,"97":3783,"Ġcreate":3784,"Ġmoney":3785,"ĠSince":3786,"Ġclosed":3787,"ette":3788,"aught":3789,"Ġesc":3790,"Ġdeal":3791,"arter":3792,"ĠOh":3793,"venue":3794,"ĠDen":3795,"ĠLeg":3796,"gely":3797,"2010":3798,"Ġlook":3799,"ĠAnn":3800,"Ġwhether":3801,"obal":3802,"Ġaddress":3803,"Ġhyd":3804,"Ġmur":3805,"perial":3806,"ously":3807,"Ġ/":3808,"ato":3809,"Ġmultiple":3810,"Ġnomin":3811,"Ġrecent":3812,"ummer":3813,"Ġpassed":3814,"Ġ36":3815,"onn":3816,"bur":3817,"ĠRo":3818,"ĠLand":3819,"Ġcomposer":3820,"Ġmove":3821,"Ġstatus":3822,"Ġlikely":3823,"pir":3824,"ĠEv":3825,"ructed":3826,"Ġkeep":3827,"Ġmonth":3828,"gle":3829,"Ġedition":3830,"Ġtowns":3831,"Ġ1991":3832,"Ġsmaller":3833,"with":3834,"Ġdefin":3835,"ĠPers":3836,"aland":3837,"Ġcentre":3838,"Ġresponse":3839,"Ġ180":3840,"Ġtemperature":3841,"Ġ1993":3842,"bre":3843,"Ġtraining":3844,"Ġproblem":3845,"Ġparent":3846,"Ġeconomy":3847,"Ġsus":3848,"Ġcultural":3849,"Ġgas":3850,"Ġfinancial":3851,"Ġsociety":3852,"ĠMem":3853,"Ġoccas":3854,"ĠMinn":3855,"Ġquick":3856,"ips":3857,"Ġtechnology":3858,"rying":3859,"Ġvote":3860,"ams":3861,"ĠSea":3862,"respond":3863,"Ġgive":3864,"embly":3865,"Ġprior":3866,"Ġmor":3867,"ĠGo":3868,"where":3869,"aud":3870,"96":3871,"Ġhom":3872,"Ġproblems":3873,"ĠFer":3874,"Ad":3875,"retary":3876,"Ġforced":3877,"ĠAsia":3878,"ĠRussia":3879,"Ġsigned":3880,"ĠHistoric":3881,"Ġnearly":3882,"aches":3883,"Ġpos":3884,"stein":3885,"Ġcitiz":3886,"ĠTor":3887,"ĠDou":3888,"Ġblood":3889,"Ġoil":3890,"ĠAirport":3891,"Ġdistribution":3892,"Ġconflict":3893,"Ġinj":3894,"bl":3895,"itors":3896,"Ġplaying":3897,"Ġactive":3898,"94":3899,"Ġlargely":3900,"ao":3901,"ĠTwo":3902,"Ġterritory":3903,"Ġappears":3904,"ivity":3905,"Ġlatter":3906,"ĠJust":3907,"ĠThat":3908,"ĠĊĠĊĠĊĠĊ":3909,"rative":3910,"Ġ34":3911,"ĠJul":3912,"Ġpreviously":3913,"Ġdeaths":3914,"ĠHow":3915,"ĠSur":3916,"Ġbasis":3917,"ollowing":3918,"Ġpressure":3919,"Ġartist":3920,"nic":3921,"Ġphysical":3922,"Ġrat":3923,"76":3924,"ĠFilm":3925,"Ġstudies":3926,"ells":3927,"Ġreason":3928,"Ġtaking":3929,"Ġnoted":3930,"Ġbox":3931,"inger":3932,"enth":3933,"Ġbehav":3934,"ĠParliament":3935,"98":3936,"ias":3937,"ares":3938,"iant":3939,"Popul":3940,"izations":3941,"Ġissue":3942,"Ġidea":3943,"rief":3944,"ye":3945,"earch":3946,"isation":3947,"astic":3948,"ĠOxford":3949,"Ġissues":3950,"Ġdisplay":3951,"Ġcle":3952,"ĠJud":3953,"Ġ1989":3954,"stra":3955,"ronic":3956,"ĠClub":3957,"za":3958,"ech":3959,"Ġended":3960,"ĠIslam":3961,"ĠBook":3962,"Ġbehind":3963,"Ġmention":3964,"ĠSouthern":3965,"ellig":3966,"Ġdetail":3967,"ĠSun":3968,"rovers":3969,"cel":3970,"esota":3971,"Ġobtain":3972,"Ġheavy":3973,"stitution":3974,"Ġmiddle":3975,"ĠAngeles":3976,"Ġprison":3977,"Ġships":3978,"icted":3979,"Com":3980,"Ġproducts":3981,"Ġcomplet":3982,"igr":3983,"anced":3984,"Ġprograms":3985,"ĊĠĊ":3986,"Ġsaf":3987,"inois":3988,"Ġmission":3989,"Ġweap":3990,"ĠLife":3991,"Further":3992,"55":3993,"ried":3994,"Ġdiss":3995,"Ġadj":3996,"iled":3997,"urt":3998,"Ġfocus":3999,"Ġestablishments":4000,"ĠPre":4001,"Ġwide":4002,"omer":4003,"irm":4004,"million":4005,"oys":4006,"asty":4007,"Ġvari":4008,"ouri":4009,"Ġbenef":4010,"Ġenough":4011,"ĠEastern":4012,"Ġtarget":4013,"Ġaccom":4014,"Ġmetal":4015,"Ġlevels":4016,"ĠCup":4017,"Eng":4018,"ider":4019,"ĠVill":4020,"Ġwin":4021,"met":4022,"Ġimplement":4023,"alle":4024,"ĠHaw":4025,"ĠCommission":4026,"Ġgreater":4027,"ession":4028,"Ġdegree":4029,"ĠMore":4030,"Ġroute":4031,"Ġborough":4032,"Ġwhole":4033,"ĠWind":4034,"Ġdon":4035,"ĠNot":4036,"Ġshown":4037,"uge":4038,"Ġi":4039,"osing":4040,"Ġdisp":4041,"Ġletter":4042,"Ġdivided":4043,"77":4044,"ĠFin":4045,"ĠMur":4046,"ĠHighway":4047,"Ġgrand":4048,"Ġmarriage":4049,"ologist":4050,"Ġlisted":4051,"46":4052,"48":4053,"Ph":4054,"ĠCarolina":4055,"oir":4056,"ĠMel":4057,"Ġadopted":4058,"eds":4059,"Ġhar":4060,"ĠEs":4061,"ĠInc":4062,"Ġpath":4063,"ĠFlorida":4064,"Ġestimated":4065,"Ġast":4066,"Ġ80":4067,"nam":4068,"ĠÂ":4069,"Ġmakes":4070,"Ġ1930":4071,"add":4072,"Ġruns":4073,"Ġfif":4074,"undred":4075,"arters":4076,"Ġunit":4077,"Ġprimarily":4078,"Ġwoman":4079,"ĠGeorg":4080,"Ġchief":4081,"irds":4082,"osh":4083,"ĠBas":4084,"Ġmeasure":4085,"uan":4086,"Ġincorporated":4087,"ĠOrder":4088,"Ġrepresented":4089,"ĠLong":4090,"Ġbomb":4091,"ĠPo":4092,"Ġmagazine":4093,"ĠDuke":4094,"ĠOs":4095,"Ġquant":4096,"kins":4097,"emporary":4098,"umber":4099,"ĠGal":4100,"rol":4101,"Ġ1940":4102,"ĠMinnesota":4103,"Ġcorrespond":4104,"aters":4105,"mond":4106,"house":4107,"bed":4108,"Ġpoor":4109,"Ġdiscovered":4110,"Ġkind":4111,"Ġnearby":4112,"zil":4113,"ady":4114,"fect":4115,"oura":4116,"TV":4117,"Ġcarried":4118,"ĠEmperor":4119,"Ġreform":4120,"Ġdraw":4121,"ĠIllinois":4122,"Ġded":4123,"Ġindustrial":4124,"Ġox":4125,"Film":4126,"ulated":4127,"Ġagric":4128,"Ġdone":4129,"Ġorganization":4130,"Ġconcer":4131,"Ġinterview":4132,"Ġdecision":4133,"Ġcateg":4134,"Ġstations":4135,"Ġcolor":4136,"abeth":4137,"Ġhighly":4138,"Ġpeace":4139,"Ġult":4140,"Ġpil":4141,"Sh":4142,"Ġmunicipal":4143,"ĠDivision":4144,"ply":4145,"ĠJohnson":4146,"Ġ1988":4147,"ĠZealand":4148,"66":4149,"Ġtakes":4150,"Ġowned":4151,"Ġcourse":4152,"ĠOhio":4153,"Ġ33":4154,"Ġund":4155,"Ġwinn":4156,"Ġreve":4157,"Ġconsum":4158,"Ġpaper":4159,"which":4160,"war":4161,"ĠConf":4162,"ervation":4163,"ĠGovernment":4164,"Ġconcent":4165,"ua":4166,"akers":4167,"range":4168,"Ġexhib":4169,"ĠPortug":4170,"Ġsal":4171,"illed":4172,"Ġliterature":4173,"Ġcommission":4174,"Ġinvestig":4175,"Ġcollege":4176,"yal":4177,"ignated":4178,"Ġrout":4179,"Ġpotential":4180,"ĠJes":4181,"Ġregular":4182,"Ġdistinct":4183,"Ġsoftware":4184,"ĠSk":4185,"Ġneighbor":4186,"ext":4187,"ĠDis":4188,"ĠSpe":4189,"Ġoperated":4190,"Ġnation":4191,"zz":4192,"ackson":4193,"more":4194,"Notes":4195,"Ġliber":4196,"omy":4197,"Ġdial":4198,"Ġlaunched":4199,"arden":4200,"92":4201,"Ġfort":4202,"ecause":4203,"lementary":4204,"achus":4205,"arc":4206,"opher":4207,"Ġinitially":4208,"ĠSil":4209,"Ġ1986":4210,"ĠTimes":4211,"ĠSol":4212,"Ġbig":4213,"een":4214,"Ġfailed":4215,"ests":4216,"oper":4217,"etts":4218,"ĠDef":4219,"ĠOper":4220,"ĠLee":4221,"Ġrunning":4222,"Ġbecoming":4223,"Ġteams":4224,"ĠUnder":4225,"Ġheav":4226,"Ġran":4227,"Ġ38":4228,"42":4229,"Ġprotect":4230,"ternet":4231,"Ġcounter":4232,"Ġcompon":4233,"Ġserve":4234,"Pro":4235,"Ġshot":4236,"Ġoffered":4237,"lar":4238,"ĠJean":4239,"Notable":4240,"Ġoperation":4241,"gar":4242,"Ġmainly":4243,"ĠMichigan":4244,"Ġactivities":4245,"ella":4246,"va":4247,"ĠCross":4248,"ĠStat":4249,"Ġcannot":4250,"ĠProt":4251,"Ġ1984":4252,"Ġinhab":4253,"ĠFestival":4254,"Ġ1987":4255,"wer":4256,"ĠJim":4257,"41":4258,"Ġstudio":4259,"Ġhours":4260,"Ġdemonst":4261,"78":4262,"unction":4263,"Ġintended":4264,"Ġclear":4265,"ees":4266,"ĠHel":4267,"aily":4268,"ĠPan":4269,"ĠMat":4270,"Ġspl":4271,"ĠViet":4272,"Ġmedical":4273,"oud":4274,"Ġregist":4275,"=\"":4276,"gency":4277,"ĠService":4278,"ograp":4279,"Ġbecomes":4280,"Early":4281,"olved":4282,"Ġcard":4283,"Ġrare":4284,"ĠBudd":4285,"Ġautom":4286,"ĠJac":4287,"iano":4288,"iscons":4289,"eder":4290,"ĠPolish":4291,"Ġthous":4292,"Ġ1920":4293,"Ġsettlement":4294,"ĠTechn":4295,"Ġcurrently":4296,"ancy":4297,"Ġsen":4298,"ĠOut":4299,"93":4300,"isconsin":4301,"Ġtherefore":4302,"ĠPrime":4303,"Ġexperience":4304,"outheast":4305,"Ġforest":4306,"Ġ1985":4307,"Ġcontrovers":4308,"ĠTre":4309,"Pl":4310,"Ġsens":4311,"Ġmunicipality":4312,"thur":4313,"ĠAlexander":4314,"Mus":4315,"Ġinitial":4316,"Ġfourth":4317,"Ġelectric":4318,"isted":4319,"500":4320,"isco":4321,"ura":4322,"ĠSat":4323,"ĠKent":4324,"Ġconsists":4325,"onia":4326,"ĠBern":4327,"uff":4328,"By":4329,"Ġour":4330,"ĠBridge":4331,"king":4332,"Ġremaining":4333,"Ġtrue":4334,"Ġ1983":4335,"Ġregions":4336,"Ġdivision":4337,"ione":4338,"Ġ1982":4339,"ĠMcC":4340,"Ġresulting":4341,"ĠCorn":4342,"Ġmanagement":4343,"Ġ90":4344,"Ġ37":4345,"vis":4346,"rupt":4347,"Sc":4348,"ĠWall":4349,"ken":4350,"vert":4351,"yth":4352,"Ġ1968":4353,"Ġawarded":4354,"designated":4355,"ĠPost":4356,"Ġcompared":4357,"Ġstories":4358,"Ġ1979":4359,"ĠScience":4360,"edom":4361,"Ġbring":4362,"Ġ1972":4363,"ested":4364,"ĠJones":4365,"ĠAmericans":4366,"Ġvon":4367,"Ġdisease":4368,"Ġearn":4369,"Ġappearance":4370,"Ġsuggested":4371,"Ġstudent":4372,"Ġanalysis":4373,"Ġparties":4374,"edia":4375,"Ġcontroll":4376,"Ġsoldiers":4377,"ĠMu":4378,"ĠCam":4379,"Ġut":4380,"ta":4381,"hens":4382,"Ġcompl":4383,"Ind":4384,"ĠRom":4385,"Ġrepe":4386,"oned":4387,"Ġrapid":4388,"col":4389,"ĠMuslim":4390,"Ġneeded":4391,"Ġfunctions":4392,"Ġsports":4393,"ĠJo":4394,"ĠPeople":4395,"achusetts":4396,"ĠAv":4397,"Ġcenturies":4398,"Ġbrief":4399,"ounder":4400,"ĠWilliams":4401,"Ġdrug":4402,"Ġfa":4403,"Ġhyp":4404,"Ġsuc":4405,"Ġrecording":4406,"Ġarran":4407,"Ġ:":4408,"Ġconv":4409,"ibly":4410,"ĠWisconsin":4411,"Ġstep":4412,"Ġarticle":4413,"Â°":4414,"Ġactivity":4415,"Ġhouses":4416,"Ġ70":4417,"lers":4418,"urb":4419,"ĠJackson":4420,"Ġrecords":4421,"Ġconne":4422,"ception":4423,"Ġrelatively":4424,"vement":4425,"87":4426,"Ġopening":4427,"Ġextended":4428,"Ġprogress":4429,"Ġvotes":4430,"Ġroyal":4431,"Ġwor":4432,"ĠDemocratic":4433,"ĠBBC":4434,"Ġinvent":4435,"rical":4436,"ĠTime":4437,"Ġhonor":4438,"ĠMa":4439,"91":4440,"ano":4441,"Ġtreatment":4442,"Se":4443,"83":4444,"Ġoperating":4445,"Ġturned":4446,"Ġquestion":4447,"ĠStep":4448,"Ġcomposed":4449,"Ġwanted":4450,"ĠJack":4451,"ansion":4452,"Ġ1976":4453,"Ġcomment":4454,"Ġresponsible":4455,"Ġmeeting":4456,"izabeth":4457,"Ġquickly":4458,"Ġmethods":4459,"ĠJeff":4460,"Ġpattern":4461,"Ġnuclear":4462,"ownt":4463,"Ġbirths":4464,"Ġregional":4465,"imal":4466,"Ġapproach":4467,"Ġheart":4468,"Ġdeep":4469,"Ġdirection":4470,"Ġ1974":4471,"Ġimpact":4472,"Ġmatch":4473,"oration":4474,"Ġprovince":4475,"ĠScottish":4476,"Ġ1975":4477,"ĠBet":4478,"Ġbr":4479,"ĠVer":4480,"Ġsucceed":4481,"Ġblock":4482,"âĢĿ":4483,"ĠMr":4484,"ĠTheir":4485,"obile":4486,"Ġlif":4487,"Ġnative":4488,"Ġnews":4489,"Ġassum":4490,"ĠElementary":4491,"ĠKenn":4492,"Ġcounties":4493,"Ġfrequently":4494,"Ġ1969":4495,"When":4496,"Ġmill":4497,"Ġdestroyed":4498,"ĠScotland":4499,"Ġprobably":4500,"Ġ#":4501,"apers":4502,"Ġonline":4503,"su":4504,"ĠCommunity":4505,"Ġpresented":4506,"Ġcrew":4507,"Ġagreed":4508,"ois":4509,"Ġimage":4510,"Ġdebut":4511,"osis":4512,"ĠMassachusetts":4513,"wan":4514,"igen":4515,"Ġ1981":4516,"ĠDire":4517,"light":4518,"ĠRog":4519,"ĠBig":4520,"ortun":4521,"raq":4522,"Ġthink":4523,"Ġmovie":4524,"ih":4525,"Ġlove":4526,"ĠLew":4527,"ĠCambridge":4528,"ĠTheatre":4529,"Ġconstitution":4530,"Ġportion":4531,"Ġarrived":4532,"Ġasked":4533,"AS":4534,"Ġcitizens":4535,"eks":4536,"water":4537,"Ġjob":4538,"OS":4539,"Ġsexual":4540,"Ġspent":4541,"ĠYoung":4542,"Ġleaders":4543,"Ġdespite":4544,"inated":4545,"56":4546,"Ġcorn":4547,"Ġtold":4548,"ĠTim":4549,"luding":4550,"ĠStan":4551,"Ġflight":4552,"mission":4553,"Ġability":4554,"ĠLittle":4555,"ully":4556,"enes":4557,"ĠBob":4558,"Ġshare":4559,"ĠWild":4560,"ĠBrazil":4561,"Ġ1973":4562,"Ġurban":4563,"ĠPlay":4564,"rence":4565,"Ġvac":4566,"Ġconstructed":4567,"ĠBroad":4568,"Ġ+":4569,"Ġmuseum":4570,"ala":4571,"Ġcontrast":4572,"ipment":4573,"press":4574,"Ġmyth":4575,"ĠHam":4576,"iform":4577,"fficient":4578,"ĠRos":4579,"89":4580,"Ġsimply":4581,"Ġflag":4582,"Ġlic":4583,"Ġdepart":4584,"Ġcells":4585,"Ġdead":4586,"ographic":4587,"ĠBre":4588,"Ġauthority":4589,"Populated":4590,"Ġknowledge":4591,"ĠTem":4592,"Ġcampus":4593,"Ġhere":4594,"amber":4595,"Ġreduced":4596,"ĠGovernor":4597,"Ġ1967":4598,"Ġfiction":4599,"Ġsense":4600,"ĠCr":4601,"ube":4602,"ĠĠĠ":4603,"Ġgrew":4604,"ĠHu":4605,"anda":4606,"Ġrules":4607,"Ġdeclared":4608,"ĠCro":4609,"English":4610,"Ġnob":4611,"ĠJews":4612,"olid":4613,"Ġnort":4614,"ĠOffice":4615,"Ġhelped":4616,"43":4617,"uls":4618,"Ġacademic":4619,"aging":4620,"ĠSocial":4621,"ĠGree":4622,"ĠHa":4623,"illa":4624,"Ġhundred":4625,"yt":4626,"Ġaccepted":4627,"AC":4628,"Ġmodels":4629,"gent":4630,"Ġnine":4631,"Ġ1971":4632,"Ġissued":4633,"Ġraised":4634,"ĠVan":4635,"Ġplat":4636,"ĠWater":4637,"Ġsqu":4638,"ĠÎ":4639,"ĠNap":4640,"Ġmemory":4641,"Ġyet":4642,"nce":4643,"isms":4644,"ĠSo":4645,"Ġremoved":4646,"Education":4647,"ĠAnother":4648,"Ġretain":4649,"Ġdefeated":4650,"Ġstreng":4651,"ĠArts":4652,"orter":4653,"sex":4654,"mitted":4655,"Ġnotable":4656,"Ġserves":4657,"acing":4658,"Ġ1964":4659,"ĠHung":4660,"iques":4661,"ĠNews":4662,"Ġrestrict":4663,"Ġir":4664,"Ġscene":4665,"Ġelections":4666,"force":4667,"ieval":4668,"la":4669,"ĠEp":4670,"Ġpresence":4671,"Ġfigure":4672,"Ġentered":4673,"Ġ1978":4674,"ĠBoth":4675,"ĠWales":4676,"ĠColumbia":4677,"Ġofficially":4678,"Ġflow":4679,"istical":4680,"Ġalbums":4681,"ĠBow":4682,"inem":4683,"Ġrisk":4684,"isher":4685,"mann":4686,"67":4687,"Ġoccurred":4688,"ĠIslands":4689,"ounds":4690,"Ġdecre":4691,"Ġchall":4692,"oston":4693,"ĠCharl":4694,"ĠProv":4695,"Ġclassical":4696,"AT":4697,"Ġsubs":4698,"gu":4699,"Ġextra":4700,"rison":4701,"Ġhistorian":4702,"Ġsecurity":4703,"Ġcontact":4704,"Ġanimals":4705,"etball":4706,"rong":4707,"Ġcombined":4708,"pired":4709,"owntown":4710,"velopment":4711,"Ġrailway":4712,"Ġminister":4713,"Ġdistance":4714,"Ġweeks":4715,"Ġscript":4716,"Ġprominent":4717,"Ġmayor":4718,"Ġrot":4719,"Ġordered":4720,"herlands":4721,"Ġtrain":4722,"Ġvoice":4723,"iring":4724,"Ġ1945":4725,"Ġdro":4726,"ĠSub":4727,"ĠPrize":4728,"ĠCommittee":4729,"Ġmess":4730,"ocks":4731,"ĠMissouri":4732,"BS":4733,"uty":4734,"Ġapplied":4735,"ĠRel":4736,"Ġstarting":4737,"ĠWay":4738,"Ġfinally":4739,"ĠSar":4740,"Ġresulted":4741,"Ġnewspaper":4742,"ĠOtt":4743,"lection":4744,"odies":4745,"Ġhy":4746,"Ġinn":4747,"Ġdia":4748,"stone":4749,"ships":4750,"pass":4751,"acher":4752,"Ġreference":4753,"izes":4754,"cont":4755,"ĠFound":4756,"ĠGall":4757,"Ġcat":4758,"Ġsurrounding":4759,"iot":4760,"Ġcollect":4761,"Ġplays":4762,"ĠFair":4763,"fficial":4764,"wick":4765,"itage":4766,"overs":4767,"ĠElizabeth":4768,"anguage":4769,"Ġbranch":4770,"ĠMot":4771,"Ġquality":4772,"Ġfavor":4773,"Ġgraph":4774,"Ġgovernor":4775,"Ġdouble":4776,"Ġbass":4777,"AF":4778,"Ġplants":4779,"orporation":4780,"ighter":4781,"ĠAdm":4782,"Ġrailroad":4783,"Ġlabor":4784,"Ġadministration":4785,"ĠSand":4786,"Ġcontinue":4787,"Ġleaving":4788,"Ġamb":4789,"ĠCle":4790,"ĠRh":4791,"Ġslow":4792,"ĠLove":4793,"Ġpositive":4794,"Ġchart":4795,"ĠLuc":4796,"Ġmathemat":4797,"Ġidentified":4798,"Ġreligion":4799,"ĠBank":4800,"Ġ1977":4801,"uate":4802,"nel":4803,"Ġbelief":4804,"ĠBab":4805,"ector":4806,"ĠNaz":4807,"ĠMen":4808,"Ġhydro":4809,"ili":4810,"Ġcritical":4811,"Ġvoc":4812,"ĠBeach":4813,"Ġtable":4814,"ĠPhilip":4815,"mas":4816,"Ġcondition":4817,"ĠMos":4818,"Ġinfluenced":4819,"worth":4820,"ĠLater":4821,"ĠSenate":4822,"Ġtele":4823,"John":4824,"ĠâĢľ":4825,"ĠPen":4826,"Ġstaff":4827,"ĠSing":4828,"estic":4829,"Ġmaxim":4830,"ety":4831,"Ġarrest":4832,"Ġcapac":4833,"ĠOk":4834,"ĠGro":4835,"ĠOver":4836,"Ġderived":4837,"\"),":4838,"Ġpp":4839,"Ġtheore":4840,"ĠFar":4841,"57":4842,"ĠGar":4843,"Ġefforts":4844,"Ã¸":4845,"Ġfeat":4846,"Ġrespectively":4847,"Some":4848,"Ġoldest":4849,"Ġplans":4850,"Ġcoal":4851,"ĠMajor":4852,"ora":4853,"ĠAlbert":4854,"Ġmanager":4855,"Ġcru":4856,"Ġcreation":4857,"Ġadapt":4858,"ixed":4859,"Ġsites":4860,"Ġinstrument":4861,"Ġaband":4862,"Ġbatt":4863,"ĠIraq":4864,"Ġofficer":4865,"ĠCat":4866,"ressed":4867,"Ġsimple":4868,"Ġactually":4869,"Ġ1965":4870,"orph":4871,"ario":4872,"Ġversions":4873,"Ġchemical":4874,"ĠGeorgia":4875,"bra":4876,"Ġconstant":4877,"Ġearth":4878,"burgh":4879,"Ġstars":4880,"pret":4881,"Ġreplace":4882,"Ġindependence":4883,"phas":4884,"ĠBus":4885,"Towns":4886,"Ġmis":4887,"aven":4888,"Ġnormal":4889,"Ġmachine":4890,"thing":4891,"Ġbridge":4892,"Ġreign":4893,"asion":4894,"adel":4895,"Ġofficers":4896,"Ġsymbol":4897,"Ġplanned":4898,"Ġvictory":4899,"ĠChampionship":4900,"Ġsettled":4901,"ĠMic":4902,"Bl":4903,"inity":4904,"ĠFour":4905,"Ġavoid":4906,"Ġhistoric":4907,"Ġstay":4908,"Ġattra":4909,"FL":4910,"ĠSwedish":4911,"Ġsubsequently":4912,"Ġsister":4913,"tters":4914,"Ġspirit":4915,"Ġequipment":4916,"Ġequal":4917,"ionally":4918,"ĠLab":4919,"ĠUN":4920,"clus":4921,"ĠFreder":4922,"ĠTreat":4923,"84":4924,"Ġreject":4925,"ĠAdd":4926,"icians":4927,"Ġimmediately":4928,"ĠResearch":4929,"ĠFrancisco":4930,"Ġcalcul":4931,"BA":4932,"Ġblue":4933,"Ġspeech":4934,"inally":4935,"Ġdim":4936,"Ġclaims":4937,"ĠSweden":4938,"tainment":4939,"Ġpal":4940,"ĠHoly":4941,"ĠHor":4942,"Ġpresidential":4943,"Ġice":4944,"Ġscientific":4945,"oln":4946,"ĠSup":4947,"oured":4948,"Ġworkers":4949,"Ġgoing":4950,"ĠWeb":4951,"urches":4952,"ĠVen":4953,"ctr":4954,"Ġbord":4955,"Ġrise":4956,"teen":4957,"ĠHon":4958,"Ġvalues":4959,"adium":4960,"ĠJr":4961,"aska":4962,"ĠBoard":4963,"yer":4964,"ĠBerlin":4965,"elligence":4966,"ĠEll":4967,"Ġwinter":4968,"Ġpromot":4969,"Ġancest":4970,"ĠNations":4971,"Ġlibrary":4972,"erc":4973,"ĠCommon":4974,"gor":4975,"ny":4976,"ĠBoston":4977,"Ġflu":4978,"Ġleague":4979,"urrent":4980,"Gen":4981,"ĠBlue":4982,"Ġallows":4983,"wise":4984,"Ġorganized":4985,"Ġgender":4986,"Ġfollows":4987,"Ġ1966":4988,"Ġsaying":4989,"Con":4990,"inate":4991,"Ġheadqu":4992,"itable":4993,"ĠNetherlands":4994,"ĠRadio":4995,"Ġequival":4996,"Ġopposed":4997,"Ġproperties":4998,"Ġve":4999,"ocated":5000,"\").":5001,"rect":5002,"Ġupper":5003,"Ġagreement":5004,"Ġcerem":5005,"Ġface":5006,"ĠAD":5007,"ervative":5008,"Ġargued":5009,"Ġmaterials":5010,"encies":5011,"ĠGood":5012,"Ġaspect":5013,"Ġx":5014,"Mar":5015,"ĠLy":5016,"Ġcart":5017,"enger":5018,"Ġexpected":5019,"Ġperman":5020,"Is":5021,"81":5022,"idents":5023,"ĠHan":5024,"Ġmatter":5025,"United":5026,"Ġadult":5027,"49":5028,"ĠSong":5029,"ĠFederal":5030,"acent":5031,"Ġgun":5032,"ĠTw":5033,"Ġgiving":5034,"ĠAtlantic":5035,"Ġrecognized":5036,"ishes":5037,"iro":5038,"edd":5039,"imb":5040,"ga":5041,"Ġsynt":5042,"ĠCoast":5043,"Ġattend":5044,"pton":5045,"Ġpun":5046,"Ġgrowing":5047,"ĠMid":5048,"Ġcontent":5049,"Ġnecessary":5050,"ĠBell":5051,"ĠKansas":5052,"ĠCy":5053,"Ġethnic":5054,"iplom":5055,"enty":5056,"Ġpowers":5057,"Ġarms":5058,"Ġcontribut":5059,"Ġserious":5060,"amin":5061,"Ġattended":5062,"acter":5063,"ĠHot":5064,"Ġletters":5065,"hew":5066,"Ġweight":5067,"Ġaim":5068,"ĠWars":5069,"ĠRepresent":5070,"ĠPoland":5071,"ĠRailway":5072,"luded":5073,"Ġacid":5074,"Ġexpansion":5075,"ĠDi":5076,"agon":5077,"Ġearliest":5078,"ĠRay":5079,"Ġconnected":5080,"ĠNob":5081,"ĠAlso":5082,"aling":5083,"Ġcollabor":5084,"ippi":5085,"Ġwithd":5086,"Ġstructures":5087,"Ġenem":5088,"Ã§":5089,"Ġcharge":5090,"Ġseats":5091,"Ġobjects":5092,"iced":5093,"Ġgranted":5094,"Ġcam":5095,"ĠSecretary":5096,"ID":5097,"Ġislands":5098,"Ġlabel":5099,"Ġcompar":5100,"ĠIran":5101,"Ġrecover":5102,"One":5103,"Ġbelong":5104,"chester":5105,"Ġmole":5106,"uther":5107,"Ġattention":5108,"ĠIV":5109,"ĪĴ":5110,"Ġinside":5111,"Ġpict":5112,"Ġ...":5113,"ĠAwards":5114,"orado":5115,"82":5116,"ĠUp":5117,"Trans":5118,"odox":5119,"ns":5120,"Ġ)":5121,"ĠThree":5122,"aped":5123,"Ġmut":5124,"Ġsuppl":5125,"Ġpack":5126,"Ġmentioned":5127,"Ġburn":5128,"Ġcoach":5129,"illy":5130,"Ġpra":5131,"incoln":5132,"ĠIndepend":5133,"Ġfast":5134,"ennes":5135,"%,":5136,"Ġallowing":5137,"Ġstra":5138,"ĠLine":5139,"Ġharm":5140,"rance":5141,"Ġsyn":5142,"ĠTri":5143,"Ġserving":5144,"Ġpoll":5145,"ĠArthur":5146,"awa":5147,"ogue":5148,"Ġportray":5149,"Ġgained":5150,"Ġattacks":5151,"Ġrefused":5152,"ĠIslander":5153,"SC":5154,"Ġformal":5155,"ĠAvenue":5156,"With":5157,"Ġvirt":5158,"ici":5159,"Ġimpl":5160,"no":5161,"ĠField":5162,"ĠProf":5163,"ĠEarl":5164,"Ġcontemporary":5165,"Ġbaseball":5166,"Ġsail":5167,"ĠDespite":5168,"Ġfuel":5169,"oring":5170,"ĠFe":5171,"sey":5172,"Ġmonarch":5173,"ĠAssembly":5174,"Ġmarked":5175,"ĠAndrew":5176,"Ġgreen":5177,"Ġdedicated":5178,"Ġcovered":5179,"ĠFire":5180,"ĠUnivers":5181,"align":5182,"Ġorganizations":5183,"Ġgives":5184,"Ġconqu":5185,"ĠElect":5186,"lines":5187,"ĠPope":5188,"eding":5189,"Ġtend":5190,"Ġcaptured":5191,"icine":5192,"Ġfell":5193,"works":5194,"Ġshowed":5195,"ĠSher":5196,"hedral":5197,"List":5198,"bro":5199,"Ġcomedy":5200,"Ġnotes":5201,"Ġopposition":5202,"gr":5203,"Ġeditor":5204,"Ġprovin":5205,"Ġconducted":5206,"ĠMarsh":5207,"class":5208,"Ġpeak":5209,"Ġeffective":5210,"ĠMississ":5211,"Comm":5212,"inson":5213,"Ġstop":5214,"Ġpolitics":5215,"ĠTod":5216,"formed":5217,"Ġfacilities":5218,"Ġacquired":5219,"ĠFle":5220,"Ġrecomm":5221,"Ġcompetition":5222,"Ġetc":5223,"Ġfeaturing":5224,"Ġslight":5225,"Ġparents":5226,"63":5227,"wa":5228,"Ġfully":5229,"chestra":5230,"gal":5231,"Ġsac":5232,"Ġ1963":5233,"Ġreach":5234,"aph":5235,"Ġdamage":5236,"Ġpurpose":5237,"ev":5238,"Ġprime":5239,"Ġscholars":5240,"Ġrecently":5241,"ĠÂ£":5242,"Ġalternative":5243,"igration":5244,"asy":5245,"Ġexpanded":5246,"Ġpaint":5247,"Ġleave":5248,"iger":5249,"ĠDec":5250,"ĠGolden":5251,"ĠFoot":5252,"ĠTay":5253,"agn":5254,"ani":5255,"ĠSpring":5256,"Ġcontaining":5257,"uer":5258,"Ġcompletely":5259,"Ġbrand":5260,"ĠChief":5261,"ĠNorway":5262,"Ġfr":5263,"Ġsecret":5264,"Ġ39":5265,"olt":5266,"Ġqual":5267,"Ġsplit":5268,"Ġcry":5269,"ĠBase":5270,"ĠAsh":5271,"dis":5272,"ructure":5273,"52":5274,"ĠBul":5275,"onym":5276,"Ġtree":5277,"Ġtraffic":5278,"ĠMatt":5279,"gg":5280,"Ġastron":5281,"wing":5282,"Ġfields":5283,"From":5284,"ĠStephen":5285,"ilding":5286,"verse":5287,"54":5288,"Ġsupply":5289,"Ġrefers":5290,"Ġgirl":5291,"Ġ1962":5292,"ĠAlf":5293,"',":5294,"ĠEconom":5295,"sk":5296,"Ġdistingu":5297,"Ġinspired":5298,"ador":5299,"uten":5300,"Ã³n":5301,"Ġconduct":5302,"Ġfigures":5303,"Ġoccurs":5304,"opes":5305,"life":5306,"Ġheat":5307,"Ġglobal":5308,"Ġfriends":5309,"Ġemphas":5310,"Ġgain":5311,"Ġcomes":5312,"Ġadvant":5313,"Ġbasic":5314,"68":5315,"61":5316,"ĠRailroad":5317,"Ġjoint":5318,"ĠChap":5319,"Ġranked":5320,"antry":5321,"Ġillust":5322,"iral":5323,"ĠWilson":5324,"ĠArm":5325,"Ġcomposition":5326,"51":5327,"Ġideas":5328,"Ġfelt":5329,"ĠSpace":5330,"Ġprep":5331,"Ġfeel":5332,"zer":5333,"Ġshoot":5334,"Ġactors":5335,"Ġunique":5336,"ifically":5337,"lav":5338,"ĠShow":5339,"throp":5340,"Col":5341,"ictional":5342,"Ġmoving":5343,"Ġpowerful":5344,"72":5345,"hesis":5346,"Ġinternal":5347,"53":5348,"ĠClark":5349,"ĠConstitution":5350,"62":5351,"ects":5352,"omers":5353,"Ġprotection":5354,"Ġiron":5355,"Ġsuffered":5356,"ĠAge":5357,"allel":5358,"ĠMah":5359,"ager":5360,"Ġax":5361,"Ġexamples":5362,"ĠForest":5363,"ĠTour":5364,"ennis":5365,"Ġthings":5366,"Ġresources":5367,"ĠSever":5368,"Ġweapons":5369,"rm":5370,"71":5371,"bell":5372,"grad":5373,"ĠMountain":5374,"Ġpaid":5375,"ĠNight":5376,"ais":5377,"Ġdra":5378,"ĠUl":5379,"ĠBoy":5380,"kes":5381,"thodox":5382,"icks":5383,"Ġunknown":5384,"Ġbal":5385,"Ġmom":5386,"Ġwear":5387,"Ġminutes":5388,"Ġdecades":5389,"Ġmotor":5390,"Ġaccompan":5391,"under":5392,"Ġsets":5393,"ĠSupreme":5394,"ĠPhilipp":5395,"Ġattempted":5396,"AR":5397,"Ġrang":5398,"itzer":5399,"Ġ1944":5400,"ĠCastle":5401,"down":5402,"ĠStation":5403,"aver":5404,"58":5405,"Ġphilosophy":5406,"Ġple":5407,"ĠMain":5408,"icit":5409,"umni":5410,"Ġpartn":5411,"Ġexperim":5412,"mm":5413,"Ġvan":5414,"idge":5415,"omic":5416,"Ġelev":5417,"Ġ42":5418,"Ġwild":5419,"Ġgoal":5420,"German":5421,"ulpt":5422,"ĠFree":5423,"Ġoverall":5424,"ĠHolly":5425,"Ġnegot":5426,"73":5427,"Ġrenamed":5428,"Ġmountain":5429,"amily":5430,"Ġwinning":5431,"%.":5432,"Ġroom":5433,"Ġsubsequent":5434,"Ġnegative":5435,"kin":5436,"thlet":5437,"arrier":5438,"All":5439,"Ġkept":5440,"100":5441,"Ġregarded":5442,"sen":5443,"Ġoccupied":5444,"Ġbillion":5445,"Ġtried":5446,"Ġsales":5447,"rix":5448,"ĠMov":5449,"ĠMississippi":5450,"Ġbask":5451,"Ġpet":5452,"Ġcarbon":5453,"Ġlands":5454,"Ġseem":5455,"Ġmicro":5456,"Ġvolume":5457,"74":5458,"Ġarchitecture":5459,"ĠSeries":5460,"ening":5461,"EC":5462,"Ġmetropolitan":5463,"owa":5464,"Ġinhabit":5465,"Ġang":5466,"ĠOcean":5467,"ĠLincoln":5468,"Ġopportun":5469,"heim":5470,"ucky":5471,"ounded":5472,"ĠAbb":5473,"ĠLewis":5474,"Ġsearch":5475,"Ġfish":5476,"Ġassist":5477,"agan":5478,"Ġmeant":5479,"Ġdepartment":5480,"Ġ1961":5481,"Ġrain":5482,"Ġextensive":5483,"endar":5484,"gers":5485,"Ġscale":5486,"Ġwealth":5487,"ĠPoint":5488,"Ġmind":5489,"Ġbehavior":5490,"ati":5491,"haps":5492,"BM":5493,"Ġdark":5494,"Ġdistricts":5495,"79":5496,"awn":5497,"Ġexistence":5498,"Ġobserved":5499,"Ġairport":5500,"emeter":5501,"osen":5502,"Ġfer":5503,"Ġpurs":5504,"eller":5505,"ĠOf":5506,"Ġdynasty":5507,"Ġfinished":5508,"Ġgreatest":5509,"also":5510,"ĠPubl":5511,"Ġdefeat":5512,"Pr":5513,"Ġoperates":5514,"Ġcapacity":5515,"Ġcorpor":5516,"ĠColl":5517,"unting":5518,"Ġspring":5519,"erse":5520,"Ġwalk":5521,"olis":5522,"Be":5523,"ca":5524,"Ġways":5525,"Ġmixed":5526,"itled":5527,"erved":5528,"Ġscholar":5529,"Ġformation":5530,"Ġprojects":5531,"Le":5532,"ĠInternet":5533,"istry":5534,"Ġwave":5535,"Te":5536,"Ġjur":5537,"place":5538,"Ġexecutive":5539,"Ġofficials":5540,"org":5541,"Ġsituation":5542,"osite":5543,"ifying":5544,"Ġunc":5545,"Ġapparent":5546,"Ġmusician":5547,"59":5548,"ĠChild":5549,"Ġmaster":5550,"Ġvary":5551,"Ġrevolution":5552,"Ġinterpret":5553,"Ġproviding":5554,"Ġsays":5555,"Ġlimit":5556,"Ġstreet":5557,"Ġarts":5558,"rations":5559,"ima":5560,"Ġwrite":5561,"Ġexchange":5562,"Ġdigital":5563,"Ġmurder":5564,"ĠBuddh":5565,"Ġdiplom":5566,"uts":5567,"risis":5568,"itness":5569,"former":5570,"Ġfounder":5571,"Ġphen":5572,"Ġnovels":5573,"ĠJournal":5574,"ockey":5575,"ĠCorporation":5576,"Ġ1948":5577,"wegian":5578,"Ġstore":5579,"ĠOpen":5580,"incorporated":5581,"ithm":5582,"Ġapplications":5583,"bu":5584,"Ġepisodes":5585,"69":5586,"hi":5587,"agement":5588,"Ġinstitutions":5589,"ĠEle":5590,"Although":5591,"Ġbey":5592,"Ġneut":5593,"Ġseg":5594,"Ġprice":5595,"Ġmusicians":5596,"Ġ1941":5597,"Ġpan":5598,"actions":5599,"Ġexpressed":5600,"ĠCub":5601,"ĠNic":5602,"Ġregul":5603,"Ġdefinition":5604,"ĠSanta":5605,"ĠPier":5606,"ĠSus":5607,"oken":5608,"iate":5609,"ĠTop":5610,"Am":5611,"ĠKen":5612,"entially":5613,"Ġven":5614,"ĠCentre":5615,"indu":5616,"aret":5617,"ĠBecause":5618,"Ġrough":5619,"rates":5620,"inals":5621,"Ġprogramming":5622,"Ġbeyond":5623,"oes":5624,"nes":5625,"Ġselected":5626,"Ġfootballer":5627,"Can":5628,"kee":5629,"ĠRegister":5630,"ĠLes":5631,"Des":5632,"Ġroll":5633,"IC":5634,"Ġ41":5635,"da":5636,"Ġ1942":5637,"ĠGuard":5638,"ĠComp":5639,"IS":5640,"Ġtechniques":5641,"ĠThus":5642,"portation":5643,"Ġalt":5644,"Ġcreating":5645,"Ġkingdom":5646,"Ġhands":5647,"Ġparliament":5648,"Ġcauses":5649,"ĠMexican":5650,"ums":5651,"Ġresident":5652,"Ġfolk":5653,"inus":5654,"Ġpoly":5655,"ĠOlympic":5656,"ĠVietnam":5657,"Ġfair":5658,"Ġflood":5659,"rons":5660,"ii":5661,"Ġcab":5662,"Ġexisting":5663,"Ġsignal":5664,"Ġmotion":5665,"ĠEnter":5666,"Ġexact":5667,"Ġbegins":5668,"Ġhero":5669,"Ġleadership":5670,"Ġresistance":5671,"ĠJon":5672,"Ġdepend":5673,"ĠOrgan":5674,"Ġlies":5675,"Ġ98":5676,"ĠModern":5677,"chen":5678,"Ġreflect":5679,"ped":5680,"Ġfactors":5681,"ĠTreaty":5682,"iang":5683,"Ġliterary":5684,"icon":5685,"Ġseek":5686,"ĠHome":5687,"ĠConstant":5688,"Ġsequence":5689,"Ġbelieve":5690,"glas":5691,"ographer":5692,"Ġhumans":5693,"ĠIndiana":5694,"ĠMemorial":5695,"ĠDie":5696,"Ġfailure":5697,"Ġ1939":5698,"Ġconcert":5699,"Ġsought":5700,"ipped":5701,"Brit":5702,"Ġreceive":5703,"ava":5704,"ĠUr":5705,"cient":5706,"Ġrespond":5707,"Ġdescent":5708,"Ġidentity":5709,"present":5710,"western":5711,"Ġ1956":5712,"Ġreduce":5713,"vest":5714,"Ġapplication":5715,"yan":5716,"Ġinvasion":5717,"Ġextrem":5718,"ĠBon":5719,"ĠHealth":5720,"Ġages":5721,"Ġ1958":5722,"otic":5723,"uese":5724,"point":5725,"rec":5726,"ĠGame":5727,"Ġdowntown":5728,"Ġhab":5729,"uration":5730,"Ġtitled":5731,"irmed":5732,"Ġtim":5733,"Ġvisited":5734,"Ġsomething":5735,"ĠLar":5736,"ĠCorps":5737,"Ġ48":5738,"Ġcritics":5739,"equ":5740,"osa":5741,"ĠBir":5742,"adelph":5743,"iat":5744,"Ġinstance":5745,"ĠUs":5746,"Ġactions":5747,"Films":5748,"Ġ1959":5749,"Ġlives":5750,"ĠBarb":5751,"Ġjournalist":5752,"ĠHuman":5753,"rast":5754,"ĠWel":5755,"oly":5756,"riz":5757,"Ġ500":5758,"ĠGames":5759,"Ġphase":5760,"Ġoffers":5761,"ĠPrinc":5762,"antine":5763,"Ġfleet":5764,"ĠEnd":5765,"ĠTaylor":5766,"Ġsides":5767,"inton":5768,"Ġadap":5769,"miss":5770,"ĠDun":5771,"ali":5772,"Ġdescript":5773,"Ġlaunch":5774,"Ġdog":5775,"rees":5776,"Ġunion":5777,"Ġproved":5778,"ĠSpecial":5779,"ĠKorea":5780,"Ġtoward":5781,"racy":5782,"ĠHay":5783,"Ġbul":5784,"roduction":5785,"ĠCa":5786,"Ġpositions":5787,"ĠEducation":5788,"Ġnewly":5789,"ĠVillage":5790,"Ġelse":5791,"Ġcold":5792,"related":5793,"Ġdetermined":5794,"ederation":5795,"ĠMarg":5796,"aming":5797,"ĠInst":5798,"Ġengineering":5799,"ĠDet":5800,"Ġsusp":5801,"Ġminim":5802,"Ġconsequ":5803,"Ġattempts":5804,"ĠFrederick":5805,"Ġenj":5806,"Ġsculpt":5807,"ĠFrancis":5808,"Ġdesignated":5809,"Ġworldwide":5810,"isf":5811,"tical":5812,"Ġcolumn":5813,"airman":5814,"ĠJesus":5815,"song":5816,"amples":5817,"akistan":5818,"ĠGreg":5819,"Ġpurchased":5820,"RA":5821,"ĠEngine":5822,"Ġsettlers":5823,"Ġforward":5824,"ĠWin":5825,"lah":5826,"ĠMir":5827,"ĠFollowing":5828,"Ġstone":5829,"Ġanimal":5830,"Sp":5831,"ĠLady":5832,"aded":5833,"ĠFox":5834,"ĠDam":5835,"fin":5836,"Ġtranslation":5837,"Ġsport":5838,"ropri":5839,"ading":5840,"ensions":5841,"Ġalle":5842,"udget":5843,"inian":5844,"Ġcycle":5845,"ĠDar":5846,"ĠDig":5847,"umes":5848,"ĠAnton":5849,"ĠSund":5850,"ĠFame":5851,"1990":5852,"ĠRod":5853,"Ġce":5854,"ĠProject":5855,"Ġcho":5856,"Ġacts":5857,"ĠArk":5858,"Or":5859,"omew":5860,"mouth":5861,"Ġaged":5862,"Ġequivalent":5863,"mosp":5864,"Ġaudience":5865,"ĠJoh":5866,"ogen":5867,"Ġrural":5868,"ambig":5869,"zy":5870,"Ġstandards":5871,"ĠCD":5872,"rete":5873,"Ġimportance":5874,"Ġmanaged":5875,"ÅĤ":5876,"Ġinhabitants":5877,"ĠDev":5878,"Ġring":5879,"Govern":5880,"Ġopposite":5881,"Ġ1947":5882,"ĠHy":5883,"Ġperformances":5884,"zech":5885,"ĠColorado":5886,"Ġchap":5887,"Ġstrug":5888,"Ġdaily":5889,"ĠJoe":5890,"Ġsecondary":5891,"III":5892,"Ġbasketball":5893,"iling":5894,"Ġhospital":5895,"Ġreaction":5896,"icy":5897,"Ġroles":5898,"Ġcontained":5899,"adelphia":5900,"Ġec":5901,"Ġachieved":5902,"standing":5903,"Ġstudied":5904,"aria":5905,"Ġencoura":5906,"Ġ49":5907,"including":5908,"IA":5909,"ĠBrad":5910,"Ġchurches":5911,"Ġplatform":5912,"Ġ1957":5913,"Ġheadquarters":5914,"eries":5915,"arp":5916,"Ġstock":5917,"Ġscore":5918,"Ġhap":5919,"stream":5920,"ĠRam":5921,"Ġregistered":5922,"ruit":5923,"Since":5924,"orning":5925,"rat":5926,"ĠPlaces":5927,"Ġparallel":5928,"comm":5929,"ĠBooks":5930,"Ġsn":5931,"US":5932,"Ġstream":5933,"Ġclasses":5934,"ĠHarry":5935,"Ġnortheast":5936,"ieties":5937,"Ġformat":5938,"ĠStone":5939,"Ġtrial":5940,"Ġentirely":5941,"Ġpron":5942,"Ġmaintained":5943,"Ġalongside":5944,"yes":5945,"Ġvess":5946,"organ":5947,"Ã±":5948,"Ġdevice":5949,"ĠCE":5950,"Ġfrequency":5951,"ĠGre":5952,"enna":5953,"ĠUt":5954,"ĠRoll":5955,"died":5956,"igrants":5957,"ĠStand":5958,"Ġcontinues":5959,"Ġdance":5960,"rome":5961,"ĠLeon":5962,"Ġshared":5963,"Ġprefer":5964,"aka":5965,"Ġdomestic":5966,"ĠCard":5967,"Ġmedieval":5968,"Ġ1946":5969,"Ġvisit":5970,"book":5971,"ĠMax":5972,"ĠJustice":5973,"Ġheavily":5974,"Ġprincipal":5975,"Ġvehicles":5976,"Ġowner":5977,"onald":5978,"CC":5979,"ader":5980,"Ġdoub":5981,"Ġcore":5982,"Ġrevealed":5983,"ĠEst":5984,"While":5985,"Ġdescribes":5986,"ashion":5987,"such":5988,"iar":5989,"Ġsetting":5990,"Ġnorthwest":5991,"Ġrates":5992,"Ġrh":5993,"ctors":5994,"Ġpublication":5995,"pat":5996,"Ġfighting":5997,"uing":5998,"Ġconvers":5999,"Ġtrees":6000,"ĠFoundation":6001,"Ġrelative":6002,"Ã¡n":6003,"ĠPict":6004,"ennessee":6005,"char":6006,"ĠAustria":6007,"Ġcool":6008,"Ġmanufactur":6009,"Ġopera":6010,"cription":6011,"ker":6012,"Polit":6013,"ĠBru":6014,"ĠGreece":6015,"Ġactual":6016,"bec":6017,"resh":6018,"ĠNorwegian":6019,"Ġsubstant":6020,"ĠKong":6021,"Ġ97":6022,"Ġcrime":6023,"Ġpiece":6024,"Ne":6025,"Ġgot":6026,"emetery":6027,"ieuten":6028,"||":6029,"Ġdifference":6030,"ĠMP":6031,"Ġchosen":6032,"oven":6033,"ĠFord":6034,"eman":6035,"Ġmaximum":6036,"ĠEarly":6037,"Ġtracks":6038,"Ġmel":6039,"Ġmap":6040,"Census":6041,"Ġcancer":6042,"ĠImperial":6043,"Ġpick":6044,"ĠMoon":6045,"Ġbackground":6046,"Ġcolonial":6047,"ĠCop":6048,"ibliography":6049,"Ġaccur":6050,"ba":6051,"Ġbit":6052,"Rec":6053,"Ġburied":6054,"Ġclosely":6055,"ĠTerrit":6056,"rog":6057,"Ġfactor":6058,"ĠOak":6059,"Ġquarter":6060,"Ġshape":6061,"una":6062,"ĠDevelopment":6063,"Ġpainter":6064,"cious":6065,"ĠDouglas":6066,"Ġbands":6067,"Ġham":6068,"Ġsucceeded":6069,"Ġbad":6070,"Ġpossibly":6071,"lahoma":6072,"Ġintroduction":6073,"itting":6074,"lig":6075,"ĠWalk":6076,"uted":6077,"Ġopin":6078,"Ġnor":6079,"Death":6080,"Ġcombat":6081,"Ġviews":6082,"ĠMarc":6083,"fall":6084,"Ġauthorities":6085,"law":6086,"Ġ1949":6087,"Ġcandidate":6088,"issance":6089,"Ġbra":6090,"We":6091,"Ġfifth":6092,"Ġ1943":6093,"igenous":6094,"Ġcrim":6095,"Ġsouthwest":6096,"ĠOrig":6097,"ĠPower":6098,"Ġ1955":6099,"ĠOb":6100,"ĠHollywood":6101,"Ġchannel":6102,"Ġreasons":6103,"ĠEach":6104,"Ġoutput":6105,"anger":6106,"Ġemperor":6107,"ĠChristmas":6108,"Ġtranslated":6109,"ĠAtt":6110,"Ġhorse":6111,"01":6112,"ĠHard":6113,"ĠTai":6114,"ĠTurk":6115,"ads":6116,"Ġjoin":6117,"Ġsle":6118,"Ġbond":6119,"Man":6120,"ĠPortuguese":6121,"illing":6122,"Ġengines":6123,"odern":6124,"Ġlocations":6125,"ouch":6126,"Ġuniform":6127,"iny":6128,"ĠAst":6129,"ceived":6130,"National":6131,"ibb":6132,"cycl":6133,"Ġslightly":6134,"IP":6135,"ila":6136,"Ġcontext":6137,"ĠDavis":6138,"Ġfestival":6139,"ĠStra":6140,"ĠWomen":6141,"ĠDaniel":6142,"alo":6143,"utation":6144,"Ġformerly":6145,"obe":6146,"hire":6147,"anna":6148,"ĠDer":6149,"rows":6150,"Ġ1952":6151,"Ġcalendar":6152,"Ġcars":6153,"Ġdevices":6154,"amic":6155,"Ġcarry":6156,"arks":6157,"Ġreports":6158,"Ġcombination":6159,"ĠLo":6160,"Ġterritories":6161,"Ġneighborhood":6162,"iable":6163,"ĠIndust":6164,"ĠVictoria":6165,"ĠIslamic":6166,"Ġdifferences":6167,"Ġexperien":6168,"ĠPhiladelphia":6169,"Ġswe":6170,"usal":6171,"inder":6172,"han":6173,"Ġvoted":6174,"TA":6175,"Ġcontrolled":6176,"set":6177,"Ġfirm":6178,"ĠByz":6179,"ambiguation":6180,"Ġ95":6181,"Ġorders":6182,"ource":6183,"ĠOrthodox":6184,"Ġaid":6185,"Ġevolution":6186,"ĠFootball":6187,"Ġschem":6188,"Ġsolid":6189,"Ġconvent":6190,"Ġalgor":6191,"Ġ1900":6192,"fort":6193,"Ġwall":6194,"Ġincreasingly":6195,"ĠTest":6196,"Ġrob":6197,"Ġconnection":6198,"iac":6199,"Ġpair":6200,"ques":6201,"Ġtex":6202,"insula":6203,"Ġnone":6204,"Ġruled":6205,"VD":6206,"Ġpione":6207,"Ġemployed":6208,"General":6209,"ĠTurn":6210,"Ġfacility":6211,"Ġpieces":6212,"Ġacting":6213,"ĠHills":6214,"active":6215,"Ġpossess":6216,"ĠHistorical":6217,"ĠProtest":6218,"ĠMetropolitan":6219,"Ġroads":6220,"Ġdeveloping":6221,"coh":6222,"Ġhop":6223,"hat":6224,"Ġ;":6225,"Ġpop":6226,"ĠTennessee":6227,"Ġeasily":6228,"ĠBand":6229,"Ġprem":6230,"Ġcoord":6231,"ĠSav":6232,"ĠInf":6233,"Ġleads":6234,"MS":6235,"ĠPlan":6236,"ĠKir":6237,"ĠTal":6238,"athan":6239,"ĠCountry":6240,"abb":6241,"ko":6242,"Ġtitles":6243,"Ġobtained":6244,"Ġsnow":6245,"Ġfaith":6246,"Ġultimately":6247,"term":6248,"Ġcoming":6249,"Ġapproved":6250,"Ġtal":6251,"Ġexped":6252,"ĠId":6253,"inistry":6254,"Ġdrama":6255,"Ġadvantage":6256,"ĠOt":6257,"ĠSummer":6258,"real":6259,"Ġadvanced":6260,"hetic":6261,"ds":6262,"iversary":6263,"Ġ1954":6264,"zo":6265,"Ġnarrow":6266,"ocol":6267,"Ġelim":6268,"Ġholds":6269,"Ġabandoned":6270,"ĠPolit":6271,"Ġbodies":6272,"Ġtypical":6273,"Ġ1953":6274,"Ġ43":6275,"ĠPalest":6276,"Ġsignificantly":6277,"Ġsolo":6278,"British":6279,"Ġpopularity":6280,"ims":6281,"Ġfixed":6282,"ĠBal":6283,"vard":6284,"Ġenjoy":6285,"ĠPakistan":6286,"Ġauth":6287,"To":6288,"Ġrejected":6289,"Ġcausing":6290,"Ġsolution":6291,"Ġpropos":6292,"Ġvocals":6293,"eed":6294,"Ġvoters":6295,"Ġeld":6296,"ĠPass":6297,"Ġspecifically":6298,"If":6299,"ĠOklahoma":6300,"Ġlake":6301,"room":6302,"ĠSqu":6303,"ĠConference":6304,"Ġpolicies":6305,"ĠSum":6306,"Ġsoutheast":6307,"Ġdecline":6308,"Ġbirds":6309,"ĠAmong":6310,"ĠWalter":6311,"Ġpermanent":6312,"Ġedge":6313,"Ġsubst":6314,"Ġcomic":6315,"prise":6316,"Ġmoment":6317,"avig":6318,"'.":6319,"Ġatmosp":6320,"Ġtemperatures":6321,"ĠBa":6322,"Ġrein":6323,"ĠLouisiana":6324,"ĠColon":6325,"Ġhomes":6326,"osm":6327,"ieutenant":6328,"Ġmic":6329,"Ġnotably":6330,"Ġjazz":6331,"aug":6332,"ials":6333,"ragon":6334,"Ġadapted":6335,"Ġchoice":6336,"Ġrepeated":6337,"car":6338,"Ġtransferred":6339,"anning":6340,"ologists":6341,"Ã©e":6342,"mers":6343,"ĠMaria":6344,"Ġglass":6345,"Ġsafety":6346,"Ġinstruments":6347,"Ġunable":6348,"Ġdrive":6349,"ghan":6350,"oto":6351,"Ġagricultural":6352,"Ġsilver":6353,"ĠKorean":6354,"ĠOnt":6355,"Ġtheme":6356,"itionally":6357,"ologies":6358,"Ġwa":6359,"Ġones":6360,"ulate":6361,"Ġroutes":6362,"May":6363,"ĠHart":6364,"Ġthousands":6365,"ocracy":6366,"pson":6367,"ĠIS":6368,"ĠAnne":6369,"2005":6370,"ĠDak":6371,"roph":6372,"Ġgeneration":6373,"ĠArgent":6374,"ĠIowa":6375,"Ġdeliver":6376,"mat":6377,"town":6378,"Ġpersonnel":6379,"Ġgoods":6380,"Ġpros":6381,"ĠHug":6382,"Ġthrone":6383,"phone":6384,"Ġkilling":6385,"Ġproceed":6386,"amilton":6387,"ĠBrook":6388,"Ġcomponents":6389,"Ġsynd":6390,"Ġproced":6391,"Ġload":6392,"Ġtwice":6393,"ighth":6394,"Ġwant":6395,"uses":6396,"ĠCzech":6397,"ĠCO":6398,"Ġliqu":6399,"iy":6400,"ĠLind":6401,"ĠDor":6402,"itional":6403,"Ġprofessor":6404,"ĠBall":6405,"ĠFinn":6406,"andom":6407,"FA":6408,"lets":6409,"Ġrom":6410,"Ġ51":6411,"Ġmerch":6412,"Ġdates":6413,"Ġcommander":6414,"Ġyounger":6415,"enh":6416,"ĠHal":6417,"elve":6418,"ĠCaptain":6419,"heastern":6420,"Ġbill":6421,"Ġvehicle":6422,"Ġaffected":6423,"etime":6424,"Ġflat":6425,"Ġdraft":6426,"uated":6427,"Ġimages":6428,"1980":6429,"eline":6430,"Ġsuggests":6431,"from":6432,"Ġ96":6433,"Ġfought":6434,"Ġbroke":6435,"Ġ47":6436,"Ġfeet":6437,"ira":6438,"03":6439,"Ġbegin":6440,"Ġcrown":6441,"Ġ1951":6442,"Ġlearning":6443,"oen":6444,"Ġhosted":6445,"Ġrequires":6446,"Ġ1936":6447,"Ġalumni":6448,"ĠPolice":6449,"ĠLight":6450,"Ġphr":6451,"ses":6452,"Ġestate":6453,"Ġenvironmental":6454,"ifications":6455,"ĠDisney":6456,"ĠFranklin":6457,"disambiguation":6458,"ears":6459,"2001":6460,"Ġcorrect":6461,"Ġadministrative":6462,"ĠFurther":6463,"Ġcircum":6464,"Ġconverted":6465,"ĠAnth":6466,"ĠSamuel":6467,"Ġbott":6468,"ĠCirc":6469,"Ġending":6470,"Ġwarm":6471,"Ġstrength":6472,"ĠWork":6473,"ĠGram":6474,"Ġregarding":6475,"Ġprocesses":6476,"05":6477,"Ġdiam":6478,"Ġimproved":6479,"opping":6480,"Ġdry":6481,"Ġassigned":6482,"Ġhypot":6483,"Ġ52":6484,"ĠDenmark":6485,"ilarly":6486,"Ġcontributed":6487,"Ġdocumentary":6488,"Nov":6489,"Ġcopies":6490,"Ġviolence":6491,"ĠJacob":6492,"2003":6493,"ĠHospital":6494,"ĠCas":6495,"ivals":6496,"Ġstrateg":6497,"Ġpasses":6498,"Ġhappen":6499,"gon":6500,"Ġarmed":6501,"ĠSeveral":6502,"ela":6503,"ĠProfess":6504,"cers":6505,"Ġcorner":6506,"ĠHoward":6507,"Ġdecade":6508,"Ġsun":6509,"2007":6510,"ĠRet":6511,"unte":6512,"Ġdemand":6513,"Ġproducing":6514,"Ġengineer":6515,"ĠRoss":6516,"His":6517,"ĠAk":6518,"Ġheight":6519,"Ġphenomen":6520,"mes":6521,"text":6522,"Ġpurposes":6523,"ito":6524,"Ġconfirmed":6525,"Ġpilot":6526,"ographical":6527,"Ġdescribe":6528,"Ġrestaur":6529,"ĠOd":6530,"Ġ300":6531,"ĠGil":6532,"French":6533,"Ġhall":6534,"fully":6535,"Ġlaid":6536,"Ġtwenty":6537,"oples":6538,"2006":6539,"04":6540,"ello":6541,"uj":6542,"Ġfreedom":6543,"reation":6544,"06":6545,"PA":6546,"ĠUk":6547,"Ġelectron":6548,"Ġign":6549,"Ġstatement":6550,"Ġproport":6551,"Ġprinciple":6552,"ĠEven":6553,"rÃ©":6554,"Ġexerc":6555,"Ġpage":6556,"Ġtalk":6557,"Ġnations":6558,"Ġtheatre":6559,"Ġspect":6560,"Ġmanufacturing":6561,"ĠBad":6562,"Ġrival":6563,"Ġquite":6564,"ethod":6565,"akh":6566,"ĠBor":6567,"Ġ1938":6568,"Ġattract":6569,"Ġadvert":6570,"Ġdivers":6571,"ĠBrother":6572,"Ġwinners":6573,"ĠCab":6574,"osure":6575,"ĠBush":6576,"ĠDNA":6577,"ĠProdu":6578,"zen":6579,"ĠMedal":6580,"ĠHo":6581,"ĠNobel":6582,"ĠSym":6583,"Ġabol":6584,"andy":6585,"Ġotherwise":6586,"icate":6587,"vant":6588,"ĠGh":6589,"ĠAff":6590,"venth":6591,"aints":6592,"Ġexperiment":6593,"pet":6594,"ĠProgram":6595,"Ġtourn":6596,"Ġcas":6597,"umin":6598,"2002":6599,"rastructure":6600,"Ġdefense":6601,"Ġrecip":6602,"Ġsole":6603,"Ġsteel":6604,"ĠLawrence":6605,"come":6606,"Ġpoem":6607,"Ġretired":6608,"unc":6609,"Ġconsisting":6610,"inction":6611,"ĠNich":6612,"Ġexclus":6613,"Ġends":6614,"print":6615,"Ġ46":6616,"aya":6617,"Ġbusinesses":6618,"Ġperhaps":6619,"Ġcalls":6620,"02":6621,"Ġratio":6622,"ĠAuthor":6623,"Ġ1918":6624,"Ġattacked":6625,"ĠOp":6626,"ropical":6627,"ĠFamily":6628,"Many":6629,"ulty":6630,"ĠOntario":6631,"Ġbudget":6632,"orage":6633,"ĠVi":6634,"Ġneeds":6635,"uster":6636,"rator":6637,"08":6638,"fe":6639,"ĠConnect":6640,"Ġadjacent":6641,"Ġchain":6642,"07":6643,"2008":6644,"Ġuser":6645,"ĠSecurity":6646,"uous":6647,"Ġyour":6648,"ĠKentucky":6649,"Ġvs":6650,"ĠMilitary":6651,"Ġsatell":6652,"Ġsons":6653,"ĠAllen":6654,"Ġboy":6655,"Ġweather":6656,"dale":6657,"mont":6658,"Ġvocal":6659,"left":6660,"Ġpoetry":6661,"09":6662,"Ġdegrees":6663,"after":6664,"ĠConfeder":6665,"Ġnaval":6666,"tered":6667,"Ġtechnique":6668,"Ġsenior":6669,"Ġexpression":6670,"ĠForm":6671,"Ġ1937":6672,"ĠWolf":6673,"Ġplot":6674,"ĠLim":6675,"ĠLow":6676,"ecution":6677,"Ġmunicipalities":6678,"ĠPot":6679,"ĠPC":6680,"ĠToday":6681,"Ġchampionship":6682,"Ġ(),":6683,"Ġ99":6684,"Ġfellow":6685,"ĠBalt":6686,"ĠHit":6687,"Ġwides":6688,"Ġnick":6689,"urd":6690,"anned":6691,"1999":6692,"ellect":6693,"cts":6694,"Ġinters":6695,"Ġmulti":6696,"ĠPit":6697,"merce":6698,"Ġboundary":6699,"Ġlat":6700,"ĠLuther":6701,"ĠInterstate":6702,"Ġuniversities":6703,"ĠTar":6704,"ĠSquare":6705,"hedul":6706,"Ġdepict":6707,"inth":6708,"Ġcandidates":6709,"ĠGirl":6710,"Ġjuris":6711,"Ġinfluential":6712,"Ġcosts":6713,"Ġpiano":6714,"cop":6715,"Ġadvance":6716,"uscript":6717,"olas":6718,"Ġban":6719,"Ġsemi":6720,"ĠOlympics":6721,"ĠTemple":6722,"Ġsurvey":6723,"Ġsupporting":6724,"Ġsector":6725,"Art":6726,"Ġentitled":6727,"Ġbrain":6728,"ĠStudies":6729,"Aust":6730,"ĠMicro":6731,"Ġdropped":6732,"Ġleaves":6733,"ĠLabor":6734,"Ġguitarist":6735,"Ġsomew":6736,"MA":6737,"Ġinstitution":6738,"pread":6739,"Ġalleged":6740,"ĠSem":6741,"cles":6742,"2004":6743,"elle":6744,"cyclop":6745,"ĠMaryland":6746,"Ġtechnical":6747,"Ġweak":6748,"Ġspoken":6749,"ĠDomin":6750,"icut":6751,"ĠBat":6752,"ĠAustrian":6753,"iner":6754,"Ġmist":6755,"ĠSciences":6756,"ĠEth":6757,"Ġroughly":6758,"ĠSant":6759,"ordan":6760,"Ġinvolving":6761,"Ġextremely":6762,"West":6763,"Ġcourts":6764,"Ġdeclined":6765,"Ġassociation":6766,"ĠHamilton":6767,"Ġabsor":6768,"Ġcouple":6769,"Ġprepar":6770,"Ġlawyer":6771,"ez":6772,"Ġreact":6773,"Ġfram":6774,"Ġonto":6775,"ĠDick":6776,"Ġlyr":6777,"ogy":6778,"itan":6779,"ĠSix":6780,"Ġyouth":6781,"oster":6782,"iants":6783,"Ġfranch":6784,"Ġtherm":6785,"Ġnom":6786,"ĠChris":6787,"ĠDisc":6788,"gium":6789,"adron":6790,"Ġenemy":6791,"ĠSimon":6792,"Ġoppon":6793,"mad":6794,"Ġsup":6795,"Ġoperate":6796,"Ġconcluded":6797,"IV":6798,"Ġarticles":6799,"ache":6800,"overe":6801,"Ġwing":6802,"Ġ75":6803,"Ġvent":6804,"enses":6805,"regon":6806,"abama":6807,"Ġintelligence":6808,"Ġimprove":6809,"ĠTechnology":6810,"Ġisol":6811,"yles":6812,"ĠMayor":6813,"Ġrecognition":6814,"Ġcomed":6815,"ĠWhit":6816,"Ġrow":6817,"eland":6818,"Ġcrisis":6819,"Ġtribes":6820,"ĠAlb":6821,"Ġelectronic":6822,"Ġpractices":6823,"Ġestablishment":6824,"Ġdesigns":6825,"ĠMountains":6826,"Ġtur":6827,"Ġplane":6828,"ĠRose":6829,"Ġsimpl":6830,"aks":6831,"elly":6832,"Ġcommunication":6833,"Will":6834,"El":6835,"Ġrivers":6836,"ĠCrown":6837,"Ġshortly":6838,"Ġshall":6839,"Ġauthors":6840,"Ġbought":6841,"Ġtexts":6842,"ĠDanish":6843,"Ġsufficient":6844,"Ġseasons":6845,"ĠVar":6846,"ĠPruss":6847,"ĠNapole":6848,"Ġvisual":6849,"ĠCape":6850,"othing":6851,"ĠBible":6852,"irty":6853,"Ġfashion":6854,"Ġpreced":6855,"ĠMike":6856,"Ġfans":6857,"Ġpul":6858,"ĠBishop":6859,"Ġsevere":6860,"called":6861,"aga":6862,"ĠSon":6863,"Ġchampion":6864,"ĠDur":6865,"ĠOttoman":6866,"onto":6867,"ĠHamp":6868,"acc":6869,"Ġcoastal":6870,"load":6871,"anton":6872,"ĠLive":6873,"Ġlimits":6874,"ĠLi":6875,"ĠStatistical":6876,"Ġbrothers":6877,"ĠStock":6878,"Char":6879,"ĠBrig":6880,"Ġdocuments":6881,"ĠFalls":6882,"Ġearned":6883,"Ġ1914":6884,"wich":6885,"ĠNazi":6886,"Ġchallen":6887,"Ġguns":6888,"Ġtransportation":6889,"Ġdefend":6890,"Ġperforming":6891,"Ġoffices":6892,"Rel":6893,"Ġsuccessfully":6894,"ĠWat":6895,"rapy":6896,"ĠHong":6897,"Ġwidespread":6898,"Ġnominated":6899,"Ġalcoh":6900,"angel":6901,"Ġtreaty":6902,"Ġarchae":6903,"iege":6904,"Ġplanet":6905,"ĠÅ":6906,"engers":6907,"Ġunderstanding":6908,"Ed":6909,"pective":6910,"appe":6911,"ĠForeign":6912,"antasy":6913,"ĠChamber":6914,"illery":6915,"2009":6916,"Ġfile":6917,"ĠHeb":6918,"ĠDakota":6919,"ĠHans":6920,"Ġprotected":6921,"ori":6922,"PS":6923,"Christ":6924,"Ġsort":6925,"hard":6926,"Ġaspects":6927,"Ġuseful":6928,"ĠMiller":6929,"erald":6930,"Ġcert":6931,"Ġgreatly":6932,"agen":6933,"ĠGord":6934,"ipe":6935,"ĠRepresentatives":6936,"Ġexperienced":6937,"ĠPalace":6938,"esh":6939,"Ġmovements":6940,"ĠForces":6941,"Ġfra":6942,"Ġgar":6943,"Ġwhereas":6944,"Ġaccident":6945,"ĠAfghan":6946,"inking":6947,"puter":6948,"Ġlegend":6949,"Ġdepending":6950,"Ġlink":6951,"atically":6952,"ether":6953,"eler":6954,"amental":6955,"Ġspons":6956,"Ġpromoted":6957,"Ġ1929":6958,"Ġ1933":6959,"Ġschedul":6960,"ĠTony":6961,"ĠAdams":6962,"uties":6963,"Ġusers":6964,"estab":6965,"Ġrequest":6966,"Ġfloor":6967,"2020":6968,"ĠGulf":6969,"ĠSteve":6970,"songwriter":6971,"Ġexists":6972,"Ġseparated":6973,"ĠWy":6974,"ĠVis":6975,"onder":6976,"wealth":6977,"Ġfocused":6978,"Ġveget":6979,"Ġheard":6980,"Ġplanning":6981,"Ġscenes":6982,"asure":6983,"Ġsust":6984,"Ġbishop":6985,"Histor":6986,"Ġdoll":6987,"Ġcategory":6988,"phony":6989,"idden":6990,"1998":6991,"Ġrapidly":6992,"then":6993,"Ġ1935":6994,"1970":6995,"Ġstraight":6996,"aware":6997,"ĠIsraeli":6998,"ĠRoger":6999,"Ġweb":7000,"itzerland":7001,"Ġexternal":7002,"Ġemot":7003,"Ġille":7004,"ĠZh":7005,"Ġzone":7006,"unior":7007,"1997":7008,"inations":7009,"ilation":7010,"Ġdeploy":7011,"crib":7012,"rane":7013,"aimed":7014,"ancing":7015,"Ġwalls":7016,"Ġseems":7017,"ĠStory":7018,"Ġbow":7019,"ĠAlabama":7020,"ĠHead":7021,"scape":7022,"ĠErn":7023,"idi":7024,"owered":7025,"Ġstring":7026,"Ġvo":7027,"ĠOregon":7028,"ĠBeat":7029,"Ġpainting":7030,"ĠCommand":7031,"track":7032,"Ġreality":7033,"secut":7034,"Ġdetermine":7035,"rot":7036,"ĠMaster":7037,"Ġresemb":7038,"icide":7039,"Ġnothing":7040,"ĠEgyptian":7041,"iph":7042,"Ġadvent":7043,"Ġbeaut":7044,"ĠSupp":7045,"ĠWindows":7046,"Ġmeasures":7047,"icial":7048,"ĠDown":7049,"Ġassass":7050,"Ġpassenger":7051,"Ġzero":7052,"ĠNorman":7053,"Ġentry":7054,"Ġmedium":7055,"Ġprohib":7056,"Ġconsisted":7057,"ĠFront":7058,"World":7059,"Ġformally":7060,"Ġwaters":7061,"Ġpopulations":7062,"aved":7063,"Ġalph":7064,"lyn":7065,"ĠDyn":7066,"2011":7067,"level":7068,"iders":7069,"Ġstrongly":7070,"vious":7071,"seud":7072,"Ġincident":7073,"ĠFarm":7074,"ĠRen":7075,"Public":7076,"Ġ1919":7077,"ĠMoore":7078,"cular":7079,"bar":7080,"ĠMach":7081,"ĠChristianity":7082,"Ġ1910":7083,"Ġ55":7084,"Ġinform":7085,"Ġdebate":7086,"Ġ1917":7087,"Ġwarn":7088,"Ġskin":7089,"ĠDonald":7090,"emic":7091,"Ġpersons":7092,"Ġsoil":7093,"Vill":7094,"Ġconsiderable":7095,"Ġsan":7096,"Ġrent":7097,"ĠGard":7098,"Ġreserv":7099,"Ġlingu":7100,"Ġcriticism":7101,"Ġjurisd":7102,"ygen":7103,"ĠAlfred":7104,"Ġappropri":7105,"ĠIl":7106,"Most":7107,"Ġrich":7108,"Ġlinear":7109,"Ġholding":7110,"Ġtrou":7111,"oyd":7112,"ĠBusiness":7113,"nex":7114,"ĠBol":7115,"uz":7116,"Ġdoing":7117,"Ġnucle":7118,"soft":7119,"Ġtor":7120,"ĠMun":7121,"1995":7122,"ĠSax":7123,"ĠJefferson":7124,"ĠFried":7125,"uerto":7126,"Ġdistributed":7127,"upp":7128,"ĠChannel":7129,"ĠConvention":7130,"Ġinput":7131,"ĠNA":7132,"eek":7133,"Ġtaught":7134,"Ġcommittee":7135,"ĠConnecticut":7136,"GB":7137,"Ġcod":7138,"ĠDeath":7139,"usted":7140,"Ġpure":7141,"aft":7142,"ĠAlexand":7143,"Ġ1934":7144,"ĠLabour":7145,"And":7146,"Ġegg":7147,"ĠHell":7148,"isp":7149,"onian":7150,"ĠOfficial":7151,"ĠPersian":7152,"Ġaccounts":7153,"Ġvillages":7154,"usalem":7155,"ĠAdminist":7156,"Ġclubs":7157,"Å¡":7158,"Ġorbit":7159,"Ġdescend":7160,"Ġpeoples":7161,"ĠGrant":7162,"ĠByzantine":7163,"ĠIndones":7164,"rox":7165,"ĠKar":7166,"ĠLike":7167,"ridges":7168,"unicipal":7169,"ja":7170,"ourney":7171,"ĠDigital":7172,"anes":7173,"Ġfavour":7174,"abet":7175,"yst":7176,"Ġpit":7177,"Ġsuccessor":7178,"run":7179,"Ġaer":7180,"Ġfeed":7181,"ocratic":7182,"Ġadaptation":7183,"aki":7184,"Ġrecon":7185,"Ġconference":7186,"olph":7187,"Ġpremi":7188,"Fran":7189,"ĠRem":7190,"Ġreputation":7191,"ribute":7192,"Ġwinner":7193,"Ġinterests":7194,"ĠArkansas":7195,"jo":7196,"Ġcapture":7197,"Ġmouth":7198,"apes":7199,"ĠKennedy":7200,"Ġovers":7201,"Ġhistorians":7202,"Ġfounding":7203,"ĠCur":7204,"Ġunincorporated":7205,"1996":7206,"Ġphilosopher":7207,"aun":7208,"ugby":7209,"Ġaffect":7210,"Ġtheories":7211,"ĠSunday":7212,"antly":7213,"ĊĊĠĊ":7214,"ova":7215,"Ġimperial":7216,"Ġlot":7217,"Ġdrop":7218,"ĠBroadway":7219,"greg":7220,"idae":7221,"Ġyield":7222,"itarian":7223,"ĠSchools":7224,"250":7225,"ĠWell":7226,"ĠKarl":7227,"resents":7228,"Ġgeomet":7229,"ĠReview":7230,"ĠLt":7231,"iations":7232,"ĠAud":7233,"ĠUSA":7234,"Ġequation":7235,"ĠKl":7236,"Ġapart":7237,"Ġsympt":7238,"Ġmagnetic":7239,"Ġitems":7240,"\";":7241,"Ġcrop":7242,"going":7243,"ĠGene":7244,"Ġexplos":7245,"Ġtask":7246,"Ġrepresentation":7247,"ĠPeace":7248,"ĠTerritory":7249,"ailed":7250,"Bibliography":7251,"iser":7252,"ruck":7253,"Ġguard":7254,"Ġtrains":7255,"ĠIBM":7256,"Ġinher":7257,"ĠYears":7258,"cell":7259,"gebra":7260,"Ġselect":7261,"ĠHarvard":7262,"dess":7263,"Ġcapable":7264,"Ġagriculture":7265,"rav":7266,"ĠFinland":7267,"agle":7268,"Ġannoun":7269,"ĠRegional":7270,"adian":7271,"Ġcolony":7272,"Ġtraditions":7273,"ĠOnly":7274,"Ġhabit":7275,"orge":7276,"ĠHeritage":7277,"Ġsections":7278,"TS":7279,"Ġ1928":7280,"Ġgall":7281,"Ġassumed":7282,"Ġstreets":7283,"Ġmythology":7284,"ĠBrand":7285,"gement":7286,"Ġans":7287,"ĠMethod":7288,"ĠShort":7289,"eenth":7290,"Ġmanner":7291,"ctoral":7292,"Ġliberal":7293,"Ġfictional":7294,"Ġcycl":7295,"Ġstrike":7296,"ĠSprings":7297,"Ġgovernments":7298,"Ġceremony":7299,"Ġstores":7300,"ĠNFL":7301,"Ġcriminal":7302,"ĠGer":7303,"ĠDC":7304,"Å«":7305,"ĠTok":7306,"Ġeffectively":7307,"je":7308,"Ġlinked":7309,"Ġmerged":7310,"ĠThough":7311,"Ġshell":7312,"fare":7313,"Ġagent":7314,"2012":7315,"ronze":7316,"Ġmort":7317,"Ġteaching":7318,"Ġ1932":7319,"Ġsand":7320,"LA":7321,"Ãº":7322,"Ġvice":7323,"Ġaccused":7324,"ĠNetwork":7325,"ĠHawai":7326,"Ġspiritual":7327,"oking":7328,"Ġtrav":7329,"ancell":7330,"Townships":7331,"Ġincreases":7332,"Jan":7333,"emor":7334,"South":7335,"ersonal":7336,"Ġdriver":7337,"ĠWelsh":7338,"North":7339,"Ġjudge":7340,"ushed":7341,"ĠJohann":7342,"Ġ1890":7343,"Ġextent":7344,"ES":7345,"Ġideal":7346,"din":7347,"ĠAlan":7348,"ĠLin":7349,"otton":7350,"ules":7351,"iti":7352,"Ġrepresents":7353,"ĠSa":7354,"ented":7355,"Ġvalley":7356,"square":7357,"Ġcharacterized":7358,"weight":7359,"asters":7360,"Ġfrag":7361,"ĠUpper":7362,"Ġemployees":7363,"ĠHur":7364,"Ġnote":7365,"ĠTrail":7366,"Ġimag":7367,"ĠTaiwan":7368,"ĠMong":7369,"ĠBang":7370,"Ġanniversary":7371,"Econom":7372,"inisters":7373,"ĠWrit":7374,"urance":7375,"Ġdie":7376,"Ġgoes":7377,"olar":7378,"Ġprocessing":7379,"enz":7380,"Ġcatal":7381,"aining":7382,"Ġtheorem":7383,"Ġradiation":7384,"Europe":7385,"ellectual":7386,"ĠCanal":7387,"vens":7388,"Ġcovers":7389,"aux":7390,"ĠSuch":7391,"imens":7392,"Ġtesting":7393,"Ġfresh":7394,"Ġment":7395,"Ġvow":7396,"odge":7397,"ĠApple":7398,"Ġescape":7399,"ĠGarden":7400,"ĠProvince":7401,"Ġcontinuous":7402,"Ġmining":7403,"night":7404,"cow":7405,"ER":7406,"Ġgram":7407,"opl":7408,"Treat":7409,"ĠApoll":7410,"Ġrestored":7411,"Ġ1922":7412,"Ġdelay":7413,"1994":7414,"unications":7415,"vements":7416,"Ġhair":7417,"Ġago":7418,"Ġconcerns":7419,"Ġnoble":7420,"ĠIron":7421,"Ġarrested":7422,"Ġopinion":7423,"Ġexpedition":7424,"Following":7425,"ĠBurn":7426,"while":7427,"ĠJerusalem":7428,"ĠMargaret":7429,"Ġsell":7430,"Ġborders":7431,"Ġparish":7432,"cules":7433,"ĠConst":7434,"Ġadvoc":7435,"kh":7436,"Ġhumid":7437,"Ġcelebrated":7438,"chang":7439,"Ġpages":7440,"ĠVI":7441,"ĠAnglo":7442,"ĠSwiss":7443,"Ġcards":7444,"ĠJos":7445,"Ã¼r":7446,"who":7447,"ture":7448,"orus":7449,"Ġextension":7450,"Ġdiscovery":7451,"Ġindicate":7452,"Ġpassing":7453,"yo":7454,"Ġparks":7455,"Ġlyrics":7456,"En":7457,"Ġbriefly":7458,"eton":7459,"Ġextreme":7460,"Ġgenre":7461,"aptist":7462,"ĠBos":7463,"Ġhosts":7464,"oked":7465,"esc":7466,"ĠMit":7467,"ivered":7468,"Ġtransition":7469,"ĠAnderson":7470,"Climate":7471,"Ev":7472,"Ġdetails":7473,"cho":7474,"ĠBefore":7475,"Ġhapp":7476,"olly":7477,"lem":7478,"ĠProtestant":7479,"Ġreferences":7480,"ranean":7481,"uis":7482,"Ġexpect":7483,"Ġportrayed":7484,"rant":7485,"Ġattributed":7486,"Ġgrounds":7487,"outs":7488,"Ġcredited":7489,"Ġmineral":7490,"Ġaudio":7491,"Ġnormally":7492,"Ġdiagn":7493,"Leg":7494,"elson":7495,"rus":7496,"ĠHun":7497,"Government":7498,"atab":7499,"Ġstorm":7500,"Ġvector":7501,"ĠDVD":7502,"ĠFa":7503,"occ":7504,"Ġcrow":7505,"ĠThird":7506,"Ġdoctr":7507,"Ġspot":7508,"ĠJane":7509,"uv":7510,"ef":7511,"rell":7512,"Ġusage":7513,"Ġthick":7514,"render":7515,"Ġcited":7516,"Ġeffic":7517,"Ġpromote":7518,"Ġ400":7519,"Ġreceiving":7520,"Ġstarred":7521,"aza":7522,"erg":7523,"Ġstrate":7524,"ĠThrough":7525,"Ġ1880":7526,"Ġmanuscript":7527,"opped":7528,"ĠHeart":7529,"ĠAcc":7530,"ĠSound":7531,"Ġfunds":7532,"ĠTy":7533,"ĠBi":7534,"Ġprovinces":7535,"Ġstrategy":7536,"Ġ1912":7537,"Ġscientists":7538,"Ġvast":7539,"ĠHou":7540,"Ġstress":7541,"ĠTheod":7542,"Ġrear":7543,"ĠAnthony":7544,"orney":7545,"ĠJordan":7546,"ĠBatt":7547,"Ġmessage":7548,"Phil":7549,"ĠLyn":7550,"inding":7551,"ĠClinton":7552,"Ġreviews":7553,"Ġchose":7554,"Ġ1921":7555,"ĠLaure":7556,"Ġmodified":7557,"ĠPur":7558,"Ġwhy":7559,"ĠCommonwealth":7560,"ĠRoc":7561,"1993":7562,"Ġprinciples":7563,"SR":7564,"ĠNeb":7565,"Ġsatisf":7566,"ĠSwitzerland":7567,"Ġ1927":7568,"Ġannex":7569,"Ġachieve":7570,"ĠHindu":7571,"Ġexecuted":7572,"ĠMaur":7573,"Ġdisput":7574,"Ġuniverse":7575,"Ġperiods":7576,"Ġmassive":7577,"velt":7578,"Ġplate":7579,"ĠManchester":7580,"ĠDal":7581,"Ġdetect":7582,"ĠToronto":7583,"ĠPap":7584,"Ġbeat":7585,"Ġclassified":7586,"mith":7587,"Ġnickn":7588,"ĠDirector":7589,"inner":7590,"Ġstret":7591,"Ġnetworks":7592,"Ġgrav":7593,"Hz":7594,"Ġgenetic":7595,"ĠHop":7596,"Ġcomponent":7597,"ĠGermans":7598,"ĠTelevision":7599,"ĠPhys":7600,"ĠPhilippines":7601,"Ġtail":7602,"Ġmedicine":7603,"Ġlanding":7604,"otte":7605,"orrow":7606,"Ġ1931":7607,"Ġinnov":7608,"iful":7609,"Ġcriticized":7610,"Ġsomewhat":7611,"ivation":7612,"Ġ1924":7613,"Ġexisted":7614,"Ġmorning":7615,"Ġrebu":7616,"Ġtom":7617,"father":7618,"ĠJuan":7619,"Ġsingles":7620,"ĠReport":7621,"Ġfishing":7622,"Ġdivisions":7623,"ĠAh":7624,"Ġcalling":7625,"Ġbatter":7626,"dam":7627,"Ġvisible":7628,"ĠBelgium":7629,"Ġmathematics":7630,"Ġsituated":7631,"Ġsteam":7632,"Ġgoals":7633,"ĠÃī":7634,"AM":7635,"Ġfactory":7636,"Ġawards":7637,"Ġstating":7638,"igious":7639,"Ġresc":7640,"Ġviewed":7641,"Ġemerged":7642,"rizona":7643,"ĠTen":7644,"Ġcontroversy":7645,"Ġdominant":7646,"Ġhockey":7647,"Ġbattles":7648,"Ġdrawn":7649,"Ġpartnership":7650,"Ġ53":7651,"Ġinstalled":7652,"ĠBrian":7653,"ĠBernard":7654,"ĠDark":7655,"1992":7656,"Ġunus":7657,"ĠNaval":7658,"borough":7659,"Ġlect":7660,"icket":7661,"Ġcompris":7662,"Ġshowing":7663,"produ":7664,"bishop":7665,"Ġarrival":7666,"ĠBaseball":7667,"ĠLanc":7668,"ublin":7669,"agu":7670,"Ġtrading":7671,"Ġdelivered":7672,"CO":7673,"Ġmarkets":7674,"Ġstorage":7675,"ĠPuerto":7676,"prof":7677,"style":7678,"Ġattached":7679,"burn":7680,"Ġexception":7681,"ĠAdvent":7682,"Ġliquid":7683,"ĠWorks":7684,"1991":7685,"ĠRena":7686,"SP":7687,"ĠSel":7688,"theless":7689,"Ġterror":7690,"Ġadopt":7691,"Ġdating":7692,"ĠNon":7693,"Ġsurvived":7694,"ĠBuilding":7695,"south":7696,"iciency":7697,"ĠRussell":7698,"2013":7699,"Ġinstall":7700,"Ġroot":7701,"ĠRoy":7702,"ĠSerb":7703,"Ġlayer":7704,"raine":7705,"Ġaccompanied":7706,"iller":7707,"Ġtwelve":7708,"Ġ54":7709,"Ġtransform":7710,"ĠDream":7711,"Ġslaves":7712,"iÄ":7713,"Ġfal":7714,"osph":7715,"ĠKu":7716,"Ġcharacteristics":7717,"Ġempire":7718,"akespe":7719,"Cont":7720,"Ġri":7721,"Ġrefuge":7722,"Ġteacher":7723,"Ġhighway":7724,"ĠCommunist":7725,"Ġ1925":7726,"idel":7727,"atherine":7728,"Ġprotein":7729,"ET":7730,"ĠHitler":7731,"ĠPhilos":7732,"olds":7733,"Ġmand":7734,"Ġreturning":7735,"Ġeye":7736,"Ġdescription":7737,"Ġ1870":7738,"ĠLog":7739,"Ġgrade":7740,"avalry":7741,"Ġtrying":7742,"ĠHampshire":7743,"Ġstanding":7744,"Ġsubjects":7745,"Ġoccasionally":7746,"ythm":7747,"Ġclassic":7748,"Ġrepresenting":7749,"ĠÐ":7750,"Ġoverl":7751,"ĠChristians":7752,"ultan":7753,"Ġgradually":7754,"rack":7755,"Ġswim":7756,"Ġstrip":7757,"Ġinterpre":7758,"star":7759,"âĪĴ":7760,"otes":7761,"ĠArn":7762,"oons":7763,"Ġnovelist":7764,"Ġtact":7765,"Ġformula":7766,"Ġcommissioned":7767,"ĠBowl":7768,"ĠMerc":7769,"hess":7770,"ĠHarris":7771,"Ġcommitted":7772,"ĠWinter":7773,"ĠCook":7774,"low":7775,"Ġpicture":7776,"Ġminimum":7777,"aton":7778,"Ġassess":7779,"Ġtraditionally":7780,"Ġcastle":7781,"Ġlegislation":7782,"Ġfundamental":7783,"Ġoxygen":7784,"Ġmir":7785,"Ġtreated":7786,"Ġmountains":7787,"ictionary":7788,"Ġsed":7789,"Ġabsol":7790,"ww":7791,"Ġfilmed":7792,"ĠCP":7793,"ĠBenn":7794,"acre":7795,"Ġrandom":7796,"FC":7797,"Ġfil":7798,"Ġpray":7799,"ĠWhe":7800,"ĠBarn":7801,"ĠLiter":7802,"ĠIndependent":7803,"Ġracing":7804,"Ġrelation":7805,"utt":7806,"Ġeducational":7807,"Ġbacter":7808,"Ġdecor":7809,"ĠAdam":7810,"Ġconstruct":7811,"eless":7812,"Ġere":7813,"ipping":7814,"ĠCrit":7815,"Ġperfect":7816,"Ġindigenous":7817,"Ġreaching":7818,"Ġphysics":7819,"Ġworth":7820,"Ġlearned":7821,"Ġfear":7822,"ĠLast":7823,"udson":7824,"ymn":7825,"ĠStew":7826,"atters":7827,"Ġpassengers":7828,"Another":7829,"ĠGib":7830,"achel":7831,"Ġdepos":7832,"hr":7833,"Ġprepared":7834,"erted":7835,"2015":7836,"ĠInn":7837,"Ã¢":7838,"akespeare":7839,"atin":7840,"ĠCru":7841,"ige":7842,"Ġaware":7843,"Ġconcentration":7844,"ĠMedical":7845,"Ġmoral":7846,"ĠMes":7847,"Ġforming":7848,"Ġflows":7849,"Ġselection":7850,"Ġspaces":7851,"irt":7852,"Ġensure":7853,"ĠCass":7854,"ĠGi":7855,"Ġfoundation":7856,"Ġocean":7857,"Ġster":7858,"ĠBorough":7859,"ĠWho":7860,"ĠSilver":7861,"Ġtank":7862,"Ġexplained":7863,"language":7864,"ĠDue":7865,"Ġmac":7866,"bb":7867,"oral":7868,"Ġrecordings":7869,"iterranean":7870,"rating":7871,"ĠMinistry":7872,"Ġdivor":7873,"IT":7874,"Ġathlet":7875,"Ġ1923":7876,"pool":7877,"Ġstrict":7878,"arked":7879,"Ġgrant":7880,"osevelt":7881,"prison":7882,"Ġadding":7883,"Ġfly":7884,"Ġdismiss":7885,"Ġappearances":7886,"iley":7887,"Ġerror":7888,"Ġsupposed":7889,"bourne":7890,"Ġsovere":7891,"adow":7892,"Ġpatients":7893,"jamin":7894,"ĊĠĊĠĊ":7895,"cknow":7896,"Ġcontroversial":7897,"Ġdestruction":7898,"tery":7899,"ĠMas":7900,"ĠBart":7901,"roc":7902,"amps":7903,"Ġkil":7904,"Ġtall":7905,"ĠCemetery":7906,"ĠSyd":7907,"mus":7908,"ĠPortugal":7909,"Ġvel":7910,"Ġcharged":7911,"Ġcircuit":7912,"Ġbran":7913,"Ġgrown":7914,"ĠChristopher":7915,"ĠKal":7916,"ĠOnline":7917,"Ġclean":7918,"po":7919,"Ġbanks":7920,"ĠFall":7921,"rogen":7922,"Ġcryst":7923,"Ġinvestment":7924,"ĠSee":7925,"avel":7926,"Ġ1926":7927,"Ġstyles":7928,"pping":7929,"Ġmental":7930,"Ġsurviving":7931,"Ġfranchise":7932,"oa":7933,"Ġscored":7934,"Ġretained":7935,"Ġ94":7936,"Ġnavig":7937,"Ġmachines":7938,"ivate":7939,"ĠGordon":7940,"ante":7941,"Ġretire":7942,"Ġsolar":7943,"Villages":7944,"ĠSac":7945,"Commun":7946,"Ġpian":7947,"ĠBah":7948,"ĠRights":7949,"Ġaffairs":7950,"Ġwithdraw":7951,"Ġped":7952,"ĠLet":7953,"Ġ93":7954,"ĠKings":7955,"'m":7956,"bal":7957,"Ġbenefit":7958,"unnel":7959,"ĠOrange":7960,"ikh":7961,"ĠPrim":7962,"Ġcomputers":7963,"Ġmart":7964,"ĠArizona":7965,"Ġmode":7966,"ĠTurkey":7967,"William":7968,"die":7969,"iah":7970,"xual":7971,"zh":7972,"ĠLl":7973,"Ġsoul":7974,"ĠPear":7975,"ĠHand":7976,"chell":7977,"ĠDoctor":7978,"Ġmaps":7979,"Ġuns":7980,"Ġparticles":7981,"Ġruler":7982,"Ġtools":7983,"certain":7984,"ĠNever":7985,"Ġslave":7986,"Ġvisitors":7987,"Ġrelationships":7988,"Ġclassification":7989,"Ġwitness":7990,"enburg":7991,"Ġexcess":7992,"aked":7993,"Ġworship":7994,"Ġthousand":7995,"Ġsymptoms":7996,"Ġutil":7997,"Ġedited":7998,"Ġalleg":7999,"ossible":8000,"Ġcustom":8001,"Ġdominated":8002,"Ġentertainment":8003,"ĠBuff":8004,"Ġ*":8005,"Ġacknow":8006,"Ant":8007,"ĠBry":8008,"Ġengaged":8009,"Qu":8010,"ista":8011,"Ġpriest":8012,"Sw":8013,"Ġcable":8014,"asts":8015,"Ġdeleg":8016,"umph":8017,"ĠWhat":8018,"hatt":8019,"Ġflying":8020,"ĠEric":8021,"ĠEncyclop":8022,"itual":8023,"Ġcinem":8024,"Ġresidence":8025,"Ġfunding":8026,"don":8027,"endment":8028,"onom":8029,"ĠMaine":8030,"Ġ1916":8031,"Ġpartner":8032,"Ġregularly":8033,"ĠMarshall":8034,"Ġguest":8035,"Ġcorresponding":8036,"No":8037,"udes":8038,"Ġcharges":8039,"apse":8040,"Ġprogramme":8041,"Ġanimated":8042,"%),":8043,"1960":8044,"Ġiniti":8045,"ĠCarter":8046,"ophical":8047,"Ġretail":8048,"Ġelectrical":8049,"Ġroots":8050,"Ġboat":8051,"Ġpartly":8052,"1989":8053,"ctic":8054,"Ġannually":8055,"Ġcheck":8056,"ĠMorris":8057,"Ġtests":8058,"Ġstands":8059,"Ġvariable":8060,"ĠMess":8061,"Ġspeak":8062,"allas":8063,"Ġ56":8064,"Ġrepresentative":8065,"DA":8066,"ĠRun":8067,"mund":8068,"ss":8069,"ĠBou":8070,"Ġportra":8071,"ĠSenator":8072,"Ġtower":8073,"Ġprinted":8074,"Mil":8075,"ithuan":8076,"Ġfine":8077,"''":8078,"oli":8079,"ructions":8080,"Ġmeasured":8081,"Ġmathematic":8082,"ooth":8083,"Ġframe":8084,"aste":8085,"Japan":8086,"ĠThen":8087,"La":8088,"ĠSports":8089,"Ġassault":8090,"olia":8091,"Ġinterpretation":8092,"Ġprocl":8093,"Ġintent":8094,"roit":8095,"Ġsurrender":8096,"Ġsale":8097,"path":8098,"ĠHonor":8099,"ĠĠĊ":8100,"2014":8101,"Ġargument":8102,"ĠBruce":8103,"Ġcarrying":8104,"Ġopportunity":8105,"Ġhyper":8106,"jection":8107,"achers":8108,"ĠDefense":8109,"Ġcollected":8110,"Ġpredomin":8111,"Ġpartially":8112,"ĠNow":8113,"Ġ150":8114,"Ġahead":8115,"ĠBaron":8116,"IN":8117,"ĠTs":8118,"Ġgenerated":8119,"ĠTurkish":8120,"Ġcontest":8121,"ĠMoscow":8122,"Ġpractical":8123,"ĠWes":8124,"Ġyellow":8125,"sq":8126,"ĠStandard":8127,"ĠCentury":8128,"Ġcomposers":8129,"Ġsixth":8130,"hered":8131,"Ġhors":8132,"ifies":8133,"ĠRoosevelt":8134,"Ġinfrastructure":8135,"emen":8136,"emn":8137,"ĠMagn":8138,"ĠQuebec":8139,"ĠAz":8140,"Ġreally":8141,"Ġupd":8142,"ĠBuck":8143,"Ġsigns":8144,"Ġcraft":8145,"Ġprotest":8146,"rum":8147,"ovak":8148,"Ġhour":8149,"Ġlongest":8150,"Ġfan":8151,"ĠVerm":8152,"ĠLas":8153,"Ġtournament":8154,"ĠKim":8155,"Ġindustries":8156,"Ġorient":8157,"ĠMars":8158,"Ġcolonies":8159,"Ġtransmission":8160,"Ġinvolves":8161,"Ġexceed":8162,"ĠShakespeare":8163,"ĠManagement":8164,"Ġtrust":8165,"Of":8166,"Ġbehavi":8167,"Ġneither":8168,"ilit":8169,"Ġ(;":8170,"ĠGrove":8171,"Ġeyes":8172,"ĠKer":8173,"ĠExt":8174,"omorph":8175,"li":8176,"agh":8177,"Co":8178,"amics":8179,"ĠReal":8180,"ĠMoh":8181,"ĠFive":8182,"ificial":8183,"Ġcommemor":8184,"Ġcaptain":8185,"Ġconservative":8186,"Ġtemple":8187,"tym":8188,"She":8189,"Ġelementary":8190,"Ġrenew":8191,"Ġwritings":8192,"Ġmilit":8193,"Members":8194,"ĠTrust":8195,"Ġpassage":8196,"do":8197,"ĠSn":8198,"ĠGab":8199,"ĠAlaska":8200,"scale":8201,"Ġimprison":8202,"Ġfrequent":8203,"Ġencounter":8204,"ĠArmen":8205,"Music":8206,"Ġmembership":8207,"ĠHungarian":8208,"forcement":8209,"ĠNort":8210,"Ġboundaries":8211,"Ġparam":8212,"ĠHebrew":8213,"ĠKey":8214,"ĠMediterranean":8215,"Ġnit":8216,"Ġhundreds":8217,"Ġmurd":8218,"Ġlosing":8219,"Ġprompt":8220,"otype":8221,"Ġstable":8222,"ĠMarine":8223,"Ġeval":8224,"Ġwrites":8225,"ĠTro":8226,"onstruction":8227,"ancellor":8228,"ĠRidge":8229,"ĠHarrison":8230,"ĠHungary":8231,"ĠTower":8232,"Ġtry":8233,"Ġproof":8234,"Ġ1911":8235,"Ju":8236,"ĠInformation":8237,"ĠDemocrat":8238,"Ġgene":8239,"Ġgenus":8240,"ĠBh":8241,"Ġbottom":8242,"east":8243,"ĠStadium":8244,"Ġatmosphere":8245,"ersed":8246,"Ġshif":8247,"Ġpurchase":8248,"Ã«":8249,"stan":8250,"Ġbroken":8251,"Ġvalid":8252,"Ġconvention":8253,"Ġgods":8254,"ĠPrincess":8255,"aren":8256,"Ġunsu":8257,"ultane":8258,"ĠCathedral":8259,"ĠEconomic":8260,"Ġattracted":8261,"abled":8262,"alia":8263,"ishment":8264,"ĠFinnish":8265,"ĠVienna":8266,"Ġmoder":8267,"stic":8268,"Ġdispl":8269,"Ġinner":8270,"Ġalgorithm":8271,"RC":8272,"Ġalcohol":8273,"ophers":8274,"Ġenroll":8275,"Ġindex":8276,"Ġconstitu":8277,"ĠGran":8278,"clusion":8279,"ĠMedia":8280,"ĠBetween":8281,"Ġ1913":8282,";\"":8283,"iami":8284,"Ã¥":8285,"Ġswitch":8286,"Ġsleep":8287,"apping":8288,"ĠLam":8289,"Ġdamaged":8290,"oca":8291,"Ġtiss":8292,"ĠPle":8293,"ĠRu":8294,"Ġrose":8295,"ĠMand":8296,"Ġprisoners":8297,"icity":8298,"Ġsubstantial":8299,"ĠPatrick":8300,"Ġrebell":8301,"Ġhydrogen":8302,"ji":8303,"Ġod":8304,"Gu":8305,"ĠPublishing":8306,"OC":8307,"Ġessential":8308,"abilities":8309,"Ġfaced":8310,"inental":8311,"operation":8312,"ĠSydney":8313,"anga":8314,"Res":8315,"Ġ(,":8316,"Ġmatrix":8317,"ĠDead":8318,"ethe":8319,"Ġscheduled":8320,"Ġdies":8321,"ruption":8322,"Ġoccupation":8323,"Ġwine":8324,"aron":8325,"Ġexplicit":8326,"Ġ1915":8327,"Ġspoke":8328,"Sec":8329,"Ġreun":8330,"asant":8331,"Ġalgebra":8332,"Ġ92":8333,"Ġtruth":8334,"ĠMatthew":8335,"ĠNapoleon":8336,"Ġsubur":8337,"ĠAuthority":8338,"Roman":8339,"wig":8340,"Ġbes":8341,"Ġtrend":8342,"Ġcenters":8343,"Ġdiet":8344,"ĠPierre":8345,"ĠWarren":8346,"Ġsubmar":8347,"Ġplus":8348,"1988":8349,"Ġregime":8350,"bus":8351,"ĠStanley":8352,"hus":8353,"ĠAngl":8354,"ĠGuide":8355,"Ġlogic":8356,"Ġ57":8357,"ommod":8358,"Ġmobile":8359,"Ġarc":8360,"Ġevolved":8361,"Ġbusinessman":8362,"Ġ120":8363,"Ġinterior":8364,"ĠExpress":8365,"ĠAle":8366,"ĠFather":8367,"ĠGoth":8368,"ocation":8369,"Ġtells":8370,"Ġherself":8371,"Per":8372,"Ġincorpor":8373,"Ġpaintings":8374,"ĠAlban":8375,"ĠLiberal":8376,"ĠBed":8377,"Ġchanging":8378,"Ġassemb":8379,"Ġrequirements":8380,"Ġalign":8381,"but":8382,"atern":8383,"okes":8384,"ĠPra":8385,"ĠStaff":8386,"Ġsatellite":8387,"Ġprices":8388,"Ġhighways":8389,"ĠHudson":8390,"Ġimmigrants":8391,"June":8392,"Ġhistorically":8393,"ĠSab":8394,"ĠDublin":8395,"Ġbegun":8396,"cons":8397,"uma":8398,"ĠBillboard":8399,"speaking":8400,"1986":8401,"Ġunderstand":8402,"ĠAges":8403,"helm":8404,"Ġquantum":8405,"Ġjobs":8406,"Ġproduces":8407,"Ġresponsibility":8408,"Ġloyal":8409,"Ġpatterns":8410,"Pre":8411,"lock":8412,"pie":8413,"ormal":8414,"Ġexperiences":8415,"Ġcultures":8416,"Ġintellectual":8417,"ĠCost":8418,"Ġjustice":8419,"yard":8420,"omp":8421,"Ġproposal":8422,"uits":8423,"Ä«":8424,"MP":8425,"owell":8426,"ĠAgency":8427,"Ġdepicted":8428,"ĠLud":8429,"ĠComple":8430,"Ġphrase":8431,"Ġradical":8432,"Ġinvestigation":8433,"ĠSic":8434,"trans":8435,"1984":8436,"abil":8437,"essions":8438,"Ġvolumes":8439,"ampions":8440,"Ġpersonality":8441,"Ġlosses":8442,"ĠAncient":8443,"Ġrarely":8444,"Ġfaculty":8445,"Ġclim":8446,"ĠAlbum":8447,"ĠHouston":8448,"Ġenh":8449,"atus":8450,"Ġconcerned":8451,"inch":8452,"ĨĴ":8453,"Ġselling":8454,"lete":8455,"ĠBenjamin":8456,"bes":8457,"Ġdomain":8458,"orig":8459,"March":8460,"oslav":8461,"Ġresolution":8462,"unct":8463,"Ġwire":8464,"Ital":8465,"icas":8466,"ĠArabic":8467,"using":8468,"iop":8469,"sky":8470,"Ġvolunte":8471,"uct":8472,"illes":8473,"August":8474,"Ġsurf":8475,"ĠTrib":8476,"Ġconj":8477,"arriers":8478,"1985":8479,"ĠKhan":8480,"ĠQueens":8481,"ĠLev":8482,"etary":8483,"tenance":8484,"Ã©s":8485,"Ġmechanism":8486,"Ġ91":8487,"annels":8488,"Ġhardware":8489,"You":8490,"Ġquestions":8491,"Ġbear":8492,"Ġresidential":8493,"Ġwatch":8494,"alion":8495,"ĠOperation":8496,"Ġchairman":8497,"Ġowners":8498,"ĊĠĠĠĠĠĠĠĠ":8499,"igion":8500,"ĠPitts":8501,"Ġsecure":8502,"Ġencouraged":8503,"Ġcarrier":8504,"Ġstim":8505,"itals":8506,"Ġbed":8507,"Ġveter":8508,"ĠAdditionally":8509,"Ġ1905":8510,"rose":8511,"1987":8512,"Ġimplemented":8513,"Ġassistance":8514,"iking":8515,"Ġfled":8516,"Sources":8517,"ĠOrchestra":8518,"Ġsurrounded":8519,"Ġbranches":8520,"Ġdang":8521,"Ġflo":8522,"ĠStewart":8523,"Ġvision":8524,"gery":8525,"ĠAllied":8526,"oria":8527,"à¸":8528,"Ġhuge":8529,"Ġhired":8530,"Ġsuit":8531,"ĠChile":8532,"ĠPrem":8533,"Har":8534,"Ġweapon":8535,"amine":8536,"Ġpossibility":8537,"ĠTu":8538,"Ġactivist":8539,"box":8540,"Ġaccommod":8541,"ĠRud":8542,"2016":8543,"Ġcolour":8544,"Ġmedal":8545,"Ġcontributions":8546,"ML":8547,"Ġcann":8548,"Ġproducers":8549,"rett":8550,"Ġhal":8551,"ĠHotel":8552,"SS":8553,"Ġ85":8554,"ĠSi":8555,"Ġpropag":8556,"ĠCall":8557,"ogether":8558,"Ġeat":8559,"ĠBack":8560,"Ġfilled":8561,"isters":8562,"ĠAbd":8563,"Ġexpensive":8564,"ĠEuro":8565,"2017":8566,"ĠMcK":8567,"ĠIndians":8568,"race":8569,"Ġmanif":8570,"Ġconsult":8571,"December":8572,"ivated":8573,"Ġoriginated":8574,"ĠChildren":8575,"veland":8576,"ĠEver":8577,"ami":8578,"Ġconstitutional":8579,"Port":8580,"urday":8581,"Major":8582,"rin":8583,"ĠAC":8584,"Ġanything":8585,"Ġprobability":8586,"Ġstages":8587,"uda":8588,"Ġstopped":8589,"gom":8590,"ppen":8591,"Ġsettlements":8592,"Ġ1850":8593,"ĠSom":8594,"Ġminority":8595,"otal":8596,"ĠWright":8597,"ĠLower":8598,"Ġheads":8599,"Transportation":8600,"Ġholid":8601,"Ġorchestra":8602,"Ġcategories":8603,"Ã©t":8604,"ĠAntonio":8605,"Ġ1908":8606,"Ġsupporters":8607,"Ġphysician":8608,"ĠHere":8609,"ĠSeven":8610,"Ġteach":8611,"?\"":8612,"rage":8613,"Ġrecommended":8614,"Ġvessels":8615,"Treaties":8616,"lington":8617,"ĠYour":8618,"Ġbiggest":8619,"ĠRub":8620,"ĠBeck":8621,"ayer":8622,"Ġcamera":8623,"ĠPhoen":8624,"Ġtrail":8625,"Ġarranged":8626,"Ġaired":8627,"hol":8628,"iveness":8629,"ĠNatural":8630,"wright":8631,"Ġbird":8632,"Ġshore":8633,"Ġconcepts":8634,"ĠOnce":8635,"Ġcontra":8636,"Ġresign":8637,"Ġemergency":8638,"leans":8639,"ictions":8640,"Ġskills":8641,"Ġcovering":8642,"ĠBrothers":8643,"ishops":8644,"Ġaccompl":8645,"ĠBan":8646,"iva":8647,"Ġpoliticians":8648,"ĠDemocrats":8649,"Ġscheme":8650,"ĠConc":8651,"Ġoffering":8652,"Ġgoddess":8653,"Ġownership":8654,"Ġ1906":8655,"jan":8656,"ĠFlore":8657,"ingham":8658,"cht":8659,"ĠHorn":8660,"rac":8661,"ĠLis":8662,"oga":8663,"Ġpoems":8664,"acts":8665,"ĠRegion":8666,"Ġpercentage":8667,"acon":8668,"Ġshel":8669,"stances":8670,"Ġlasted":8671,"Ġagents":8672,"cribed":8673,"ĠLtd":8674,"ixon":8675,"ĠAfghanistan":8676,"eron":8677,"Ġmob":8678,"Ġflights":8679,"Ġdisorder":8680,"Ġparticipated":8681,"hattan":8682,"gate":8683,"Ġcanal":8684,"Ġindicated":8685,"ĠInstead":8686,"orous":8687,"Ġidentify":8688,"long":8689,"igg":8690,"Ġknew":8691,"Ġlists":8692,"ensed":8693,"However":8694,"gence":8695,"ĠCatal":8696,"Ġshut":8697,"Ġthemes":8698,"avery":8699,"Ġdisappe":8700,"ika":8701,"ĠCold":8702,"ometimes":8703,"ĠCart":8704,"Ġimmediate":8705,"osy":8706,"Ġbuy":8707,"ĠIsa":8708,"Ab":8709,"ĠPop":8710,"CD":8711,"ĠThompson":8712,"ĠMorgan":8713,"Ġritual":8714,"Ġinvited":8715,"Ġlowest":8716,"Ġpreserved":8717,"Ġexplan":8718,"Ġtourism":8719,"apore":8720,"Ġdrugs":8721,"Ġapply":8722,"Ġtouch":8723,"Ġru":8724,"oz":8725,"Ġmathematical":8726,"eing":8727,"Ġfired":8728,"ĠNick":8729,"Ġargues":8730,"ĠMicrosoft":8731,"Ġchrom":8732,"Ġ58":8733,"ĠBCE":8734,"January":8735,"Ġsinging":8736,"Ġefficient":8737,"rish":8738,"ĠOrganization":8739,"ĠLib":8740,"Ġsoldier":8741,"Ġreduction":8742,"ĠNelson":8743,"Ġfruit":8744,"ĠServices":8745,"gressive":8746,"brev":8747,"ĠPeninsula":8748,"Austral":8749,"folk":8750,"Ġsuperior":8751,"ĠCBS":8752,"Ġsingers":8753,"bridge":8754,"ĠTrade":8755,"Ġfalls":8756,"ĠNY":8757,"Ġcharter":8758,"Ġdialect":8759,"Ġalliance":8760,"ĠDetroit":8761,"neg":8762,"intend":8763,"ĠAli":8764,"ahn":8765,"formance":8766,"ĠLegisl":8767,"Ġangle":8768,"April":8769,"unes":8770,"Ġdoctor":8771,"ĠBurg":8772,"Ġdetailed":8773,"agues":8774,"Ġinfantry":8775,"employ":8776,"berry":8777,"Ġsyndrome":8778,"hum":8779,"ĠOw":8780,"lad":8781,"Ġ88":8782,"Ġmechanical":8783,"herent":8784,"Ġsignals":8785,"750":8786,"phy":8787,"Ġoblig":8788,"Ġexperimental":8789,"ĠCaes":8790,"ĠCra":8791,"Ġcommit":8792,"ĠSky":8793,"Ġunsuccess":8794,"Ġthing":8795,"Jew":8796,"Ġcopy":8797,"ĠLane":8798,"!\"":8799,"ĠMiami":8800,"ibbean":8801,"apolis":8802,"Ġmamm":8803,"Ġexperiments":8804,"1983":8805,"ĠUtah":8806,"Ġancestry":8807,"Ġgal":8808,"ĠVin":8809,"Ġrender":8810,"Ġpregn":8811,"Ġassembly":8812,"Ġexplo":8813,"Ġsimultane":8814,"ĠMcD":8815,"Ġinvented":8816,"1982":8817,"onymous":8818,"Ã¦":8819,"Ġrif":8820,"ĠMalays":8821,"Ġpolar":8822,"ĠEntertainment":8823,"Ġinspir":8824,"ĠOrleans":8825,"Ġcircle":8826,"ĠAffairs":8827,"ĠTrad":8828,"Ġ66":8829,"September":8830,"Ġexposure":8831,"Ġorigins":8832,"Ġkings":8833,"Ġraise":8834,"Ġsugar":8835,"Ġreplacement":8836,"ĠCollection":8837,"Ġbenefits":8838,"ĠBald":8839,"itime":8840,"Ġhunting":8841,"ĠNation":8842,"Ġ1860":8843,"rors":8844,"Ġdemol":8845,"Ġdenomin":8846,"Af":8847,"rency":8848,"Ġadmitted":8849,"Ġconfig":8850,"Ġwaves":8851,"ĠCer":8852,"ĠChem":8853,"Ġuniversal":8854,"ĠRobinson":8855,"July":8856,"Ġhang":8857,"Ġpatron":8858,"Ġfat":8859,"Cent":8860,"sch":8861,"elli":8862,"irect":8863,"1979":8864,"amese":8865,"ĠCleveland":8866,"ĠProfessor":8867,"Ġpreferred":8868,"ĠMagazine":8869,"ĠPhill":8870,"Ġthin":8871,"Ġgrades":8872,"raska":8873,"Ġexport":8874,"raham":8875,"Ġvariant":8876,"Ġheaded":8877,"Ġpublicly":8878,"oom":8879,"orders":8880,"brid":8881,"Ã´":8882,"Deaths":8883,"ĠBarry":8884,"aro":8885,"center":8886,"Ġneutral":8887,"boro":8888,"Ġwrest":8889,"ĠRan":8890,"ĠRomans":8891,"Ġamounts":8892,"ĠSS":8893,"Ġnewspapers":8894,"Ġbot":8895,"Ã£":8896,"October":8897,"hand":8898,"gomery":8899,"Ġduties":8900,"ĠCampbell":8901,"that":8902,"di":8903,"Ġprol":8904,"ĠRow":8905,"Ġvoting":8906,"Two":8907,"onds":8908,"ĠWarner":8909,"ĠConfederate":8910,"//":8911,"Ġhoriz":8912,"ĠRoberts":8913,"Ġneighbour":8914,"ĠCre":8915,"borne":8916,"Ġvolt":8917,"Ð°":8918,"aby":8919,"ĠMarx":8920,"Ġfighter":8921,"ĠKnight":8922,"Ġunf":8923,"Ġcharacteristic":8924,"Ġcongress":8925,"Med":8926,"Ġcrossing":8927,"Ġdistinction":8928,"rik":8929,"Ġcompounds":8930,"ĠBaptist":8931,"Ġchannels":8932,"ĠNBC":8933,"Ġclin":8934,"Ġabsence":8935,"ĠAthens":8936,"Ġstatue":8937,"Ġeducated":8938,"ateur":8939,"ĠHem":8940,"ĠAirlines":8941,"Ġfarmers":8942,"ching":8943,"Ġdated":8944,"2018":8945,"Ġneighboring":8946,"ĠKat":8947,"Ġbiological":8948,"ĠSquadron":8949,"Ġmemorial":8950,"Ġunderstood":8951,"Ġbom":8952,"ĠFederation":8953,"Ġchance":8954,"Ġmissions":8955,"Ġintegrated":8956,"Ġconventional":8957,"roe":8958,"ĠMi":8959,"idal":8960,"ĠPas":8961,"ĠLang":8962,"ĠNar":8963,"away":8964,"inters":8965,"eters":8966,"Ġresigned":8967,"Ġ1907":8968,"atabase":8969,"Ġkid":8970,"Ġessay":8971,"ĠâĪĴ":8972,"Ġinterested":8973,"ters":8974,"Ġfest":8975,"Ġhotel":8976,"Ġpersu":8977,"Ġforests":8978,"--":8979,"Ġcredit":8980,"300":8981,"Ġmatters":8982,"archers":8983,"Ġappropriate":8984,"ĠLanguage":8985,"ÃŃa":8986,"Ġgarden":8987,"ashed":8988,"hemat":8989,"Ġbringing":8990,"Bur":8991,"itis":8992,"ĠAgain":8993,"Ġinfin":8994,"Ġtennis":8995,"ĠCow":8996,"ĠAld":8997,"Ġtrip":8998,"Ġphotograph":8999,"ĠLeban":9000,"itations":9001,"Ġrub":9002,"ĠApollo":9003,"Ġbalance":9004,"ĠEvery":9005,"iology":9006,"Ġgather":9007,"Ġspeakers":9008,"Pres":9009,"Ġhamlet":9010,"coming":9011,"ĠABC":9012,"Ġagency":9013,"later":9014,"Ġdrew":9015,"ĠTele":9016,"ĠSaturday":9017,"Ġreforms":9018,"EE":9019,"agg":9020,"Ġlooking":9021,"Ġphysic":9022,"Car":9023,"ĠFriend":9024,"Ġheir":9025,"Inter":9026,"Ġdiscip":9027,"Ġresearchers":9028,"ĠMission":9029,"ĠMarie":9030,"omot":9031,"ails":9032,"ĠHend":9033,"1981":9034,"International":9035,"ĠMurray":9036,"ĠBuddhist":9037,"ĠDiego":9038,"inburgh":9039,"Ġdemonstrated":9040,"ĠAdmiral":9041,"ĠVolume":9042,"vo":9043,"Ġampl":9044,"ĠCooper":9045,"ibraries":9046,"Ġprecip":9047,"ĠImp":9048,"Ġfinding":9049,"ania":9050,"Ġnut":9051,"Orig":9052,"vol":9053,"vision":9054,"Ġcasual":9055,"Ġinaug":9056,"Ġcivilian":9057,"ĠCroat":9058,"Ġsupplies":9059,"ĠWayne":9060,"ĠDelaware":9061,"ardo":9062,"Ġphon":9063,"Ġconsumption":9064,"Ġspeaking":9065,"Ġvictims":9066,"ĠChron":9067,"pa":9068,"1975":9069,"ĠStr":9070,"ĠâĨĴ":9071,"acle":9072,"ĠRevolutionary":9073,"Ġdiverse":9074,"ĠGlobal":9075,"iki":9076,"rection":9077,"Ġdesire":9078,"Ġappeal":9079,"European":9080,"ĠComics":9081,"Ġcolleges":9082,"archy":9083,"Ġreducing":9084,"Ġdistinguished":9085,"Ġremove":9086,"Ġdispute":9087,"Ġshift":9088,"ĠAbbey":9089,"ĠManhattan":9090,"fish":9091,"Ġassistant":9092,"Ġdebt":9093,"Ġsalt":9094,"hammad":9095,"udden":9096,"ĠRand":9097,"Ġtheater":9098,"Ġoperator":9099,"feld":9100,"ĠAdministration":9101,"aire":9102,"sor":9103,"Ġstood":9104,"ĠOsc":9105,"Ġsit":9106,"ĠNewton":9107,"Ġinfluences":9108,"Ġtaxes":9109,"Russ":9110,"Ġpseud":9111,"Ġsample":9112,"Ġthreatened":9113,"Ġchildhood":9114,"quis":9115,"Ġpublishing":9116,"Par":9117,"erally":9118,"ĠParish":9119,"ĠFal":9120,"rous":9121,"Ġpredecess":9122,"ĠCulture":9123,"orer":9124,"OR":9125,"icism":9126,"leton":9127,"Bo":9128,"ĠJay":9129,"Ġtribe":9130,"ĠBrazilian":9131,"ĠFM":9132,"Ġconnections":9133,"lik":9134,"mill":9135,"Ġeasy":9136,"Over":9137,"osexual":9138,"Ġdecisions":9139,"Ġsacr":9140,"Ġrepresentatives":9141,"Ġcul":9142,"Ġfalse":9143,"Ġdiseases":9144,"Ġwrong":9145,"itic":9146,"ĠAnna":9147,"Ġsymbols":9148,"Ġcloud":9149,"roke":9150,"Ġ1901":9151,"DS":9152,"ando":9153,"ĠEug":9154,"Ġrational":9155,"ĠPeters":9156,"Ġacknowled":9157,"Ġexecution":9158,"rama":9159,"Ġsiege":9160,"Ġmeetings":9161,"Ġmultipl":9162,"Ġtanks":9163,"ĠBaker":9164,"Ġdiscussed":9165,"ĠFund":9166,"def":9167,"imore":9168,"Ġwheel":9169,"ĠRenaissance":9170,"ĠAM":9171,"Ġceremon":9172,"ĠCode":9173,"Ġbeliefs":9174,"ntil":9175,"Ġstadium":9176,"Ġapproval":9177,"ĠEc":9178,"Ġveloc":9179,"Ġwars":9180,"ĠScient":9181,"TP":9182,"Ġdual":9183,"Ġ1904":9184,"ĠBull":9185,"ĠNi":9186,"Ġmeat":9187,"ouses":9188,"ĠPatri":9189,"Ġagree":9190,"Ġcomparison":9191,"Ġdesigner":9192,"arant":9193,"Ġclock":9194,"Ġ1909":9195,"free":9196,"Ġdriving":9197,"TC":9198,"Ġsuicide":9199,"Ġsend":9200,"hensive":9201,"ĠNash":9202,"OM":9203,"Ġconscious":9204,"ĠWalker":9205,"Ġcrimes":9206,"umed":9207,"Ġrig":9208,"ĠĊĠ":9209,"ĠEngineering":9210,"power":9211,"Ġdriven":9212,"Ġconductor":9213,"Ġdenied":9214,"Ġlabour":9215,"abul":9216,"ĠRegiment":9217,"Ġshooting":9218,"Ġruling":9219,"Ġuncertain":9220,"iÄĩ":9221,"Int":9222,"Ġstruck":9223,"Ġconnecting":9224,"Ġheritage":9225,"Su":9226,"Ġindicates":9227,"ifican":9228,"ĠVice":9229,"ĠWeek":9230,"ĠNebraska":9231,"Ġproteins":9232,"Ġresort":9233,"Ġreleases":9234,"emale":9235,"1973":9236,"á»":9237,"ĠHab":9238,"ĠTa":9239,"Ġsongwriter":9240,"Ġidentical":9241,"uzz":9242,"ĠCaribbean":9243,"Ġcircumstances":9244,"Ġcous":9245,"Ġcommunications":9246,"ĠClay":9247,"ework":9248,"ecutive":9249,"Ġcoalition":9250,"rip":9251,"Ġduty":9252,"Ġvariation":9253,"ĠLocal":9254,"Ġunp":9255,"top":9256,"ificance":9257,"'re":9258,"Ġillegal":9259,"Ġpapers":9260,"itudes":9261,"Ġartillery":9262,"ĠPopul":9263,"Ġtemporary":9264,"ĠPsych":9265,"ĠBelgian":9266,"Ġapparently":9267,"ĠPlace":9268,"ĠMuslims":9269,"Ġtempor":9270,"ĠMarket":9271,"Ġlegislative":9272,"ĠWard":9273,"ĠKaz":9274,"ĠDog":9275,"Ġperceived":9276,"ĠAmb":9277,"Ġsounds":9278,"nergy":9279,"ĠRa":9280,"Ġinvolvement":9281,"ĠTherefore":9282,"ĠLen":9283,"Ġsession":9284,"iga":9285,"PC":9286,"ĠEnvironment":9287,"door":9288,"Ġnomination":9289,"Ġcontinuing":9290,"ulus":9291,"atra":9292,"ĠLov":9293,"ser":9294,"Ġearthqu":9295,"Ġjump":9296,"Ġgrass":9297,"Ġ59":9298,"1976":9299,"Ġemployment":9300,"Ġcosm":9301,"ĠSign":9302,"Ġcloser":9303,"ĠDave":9304,"othy":9305,"First":9306,"Ġmoves":9307,"Ġtrained":9308,"imensional":9309,"Ġtheat":9310,"Ġ1903":9311,"ĠLiving":9312,"ĠAqu":9313,"Ġmainland":9314,"Ġ87":9315,"Ġpainted":9316,"ĠBilly":9317,"ieth":9318,"Ġdub":9319,"ourse":9320,"ĠStudios":9321,"Ġlegislature":9322,"Ġunusual":9323,"Ġwet":9324,"Ġspin":9325,"2019":9326,"flu":9327,"Ġelsewhere":9328,"Ġ61":9329,"Ġdrawing":9330,"ĠSymphony":9331,"EA":9332,"ĠUniversal":9333,"ĠSet":9334,"1974":9335,"Ġconsecut":9336,"ĠEqu":9337,"Ġris":9338,"Ġterminal":9339,"ĠNicholas":9340,"ĠEdinburgh":9341,"1969":9342,"ĠSecret":9343,"ĠLithuan":9344,"Im":9345,"Ġpool":9346,"Ġdiscussion":9347,"issions":9348,"ĠTeam":9349,"ĠMontgomery":9350,"ortion":9351,"Ġdiver":9352,"ĠPlant":9353,"ĠJam":9354,"Ġsave":9355,"Ġcavalry":9356,"ĠTru":9357,"ĠTurner":9358,"Ġhill":9359,"ĠKit":9360,"ĠFreedom":9361,"ĠFil":9362,"ĠArist":9363,"Ġdrum":9364,"ludes":9365,"Ġderiv":9366,"Ġinstruction":9367,"ĠLieutenant":9368,"Gl":9369,"tha":9370,"CS":9371,"Ġcogn":9372,"Ġlun":9373,"1977":9374,"ishers":9375,"ĠTerm":9376,"Ġcoverage":9377,"Economy":9378,"Ġtribut":9379,"Television":9380,"Ġpitch":9381,"Ġjourney":9382,"body":9383,"Ġelevation":9384,"Ġwaste":9385,"ĠElectric":9386,"Ġsuitable":9387,"Ġchamber":9388,"ĠOur":9389,"Ġ().":9390,"Ġshares":9391,"Ã¨re":9392,"Ġpraised":9393,"riel":9394,"These":9395,"ften":9396,"Ġ62":9397,"ulating":9398,"edding":9399,"ĠSpirit":9400,"University":9401,"minster":9402,"Ġcabinet":9403,"Ġdoor":9404,"Former":9405,"Ġgirls":9406,"Ġbright":9407,"Ġdepth":9408,"Ġexactly":9409,"Ġtube":9410,"1972":9411,"1968":9412,"ĠNev":9413,"ĠFleet":9414,"ĠMuhammad":9415,"Ġrising":9416,"ĠSingapore":9417,"hent":9418,"Ġvul":9419,"ĠNord":9420,"Ġdirectors":9421,"Ġsecretary":9422,"Ġmaintenance":9423,"Ġfluid":9424,"Ġfit":9425,"ĠHeights":9426,"ĠNH":9427,"ĠEss":9428,"Ġexhibition":9429,"Ġstrugg":9430,"Ġmatches":9431,"world":9432,"1978":9433,"Best":9434,"idency":9435,"fire":9436,"inates":9437,"à¤":9438,"Ġouter":9439,"Ġadults":9440,"Ġabbrev":9441,"Ġcoup":9442,"wall":9443,"Ġ1902":9444,"Ġvariations":9445,"ĠConstantin":9446,"Ġrevenue":9447,"chest":9448,"Air":9449,"ĠThor":9450,"iments":9451,"Ġlandscape":9452,"Writ":9453,"Ġfoss":9454,"Ġremember":9455,"ĠHarbor":9456,"enc":9457,"Ġranks":9458,"celand":9459,"Ġconven":9460,"Ġchoose":9461,"Ġdrums":9462,"aly":9463,"ĠMadison":9464,"Ġchapter":9465,"ypes":9466,"ĠHein":9467,"tymology":9468,"Ġtons":9469,"dr":9470,"Ġpopulated":9471,"Ġion":9472,"Ġpap":9473,"Ġpublisher":9474,"Ġimplementation":9475,"Ġsurvive":9476,"Ġempt":9477,"Ġfinds":9478,"Ġexplain":9479,"ĠBarbara":9480,"Em":9481,"Ġoffensive":9482,"Ġ68":9483,"Ġestablishing":9484,"ĠConservative":9485,"Ġsegment":9486,"Ġexposed":9487,"Ġessentially":9488,"ipher":9489,"Ġdoctrine":9490,"andal":9491,"Ġdefence":9492,"ĠMult":9493,"making":9494,"erk":9495,"ĠSaf":9496,"ontin":9497,"ĠSig":9498,"anny":9499,"Ġsuccession":9500,"Ġimpossible":9501,"ĠTan":9502,"ĠWa":9503,"Ġcolors":9504,"pent":9505,"ĠDra":9506,"ĠSud":9507,"ĠCare":9508,"Ġgoverned":9509,"Ġcollapse":9510,"foot":9511,"master":9512,"iffer":9513,"1950":9514,"Ġoption":9515,"Ġ89":9516,"ĠNBA":9517,"Ġanalog":9518,"alysis":9519,"ĠCry":9520,"ivan":9521,"Ġpoets":9522,"Ġparticipate":9523,"ĠFrid":9524,"Ġdiplomatic":9525,"Ġentrance":9526,"Ġgang":9527,"ĠAlice":9528,"Mon":9529,"IM":9530,"ĠPel":9531,"illo":9532,"ĠTib":9533,"ĠEU":9534,"Ġreturns":9535,"onomy":9536,"Ġhypothesis":9537,"Bar":9538,"ski":9539,"ĠThose":9540,"front":9541,"Ġplayoff":9542,"Ġreferring":9543,"tes":9544,"Ġhence":9545,"Ġclearly":9546,"Despite":9547,"Fl":9548,"icing":9549,"Ġrhythm":9550,"ĠOm":9551,"ĠMcG":9552,"ĠBranch":9553,"ĠMaced":9554,"Ġtone":9555,"Ġmanufacturers":9556,"aughters":9557,"Ġblues":9558,"ĠJimmy":9559,"div":9560,"ĠReserve":9561,"ĠPa":9562,"ĠRest":9563,"ĠNik":9564,"Ġfaster":9565,"Ġ2022":9566,"Î±":9567,"Ġviolent":9568,"ĠIndependence":9569,"ĠÄ":9570,"Ġcattle":9571,"ĠPed":9572,"ĠRain":9573,"othe":9574,"ĠUnlike":9575,"Ġwounded":9576,"Dav":9577,"ĠStevens":9578,"ĠPrincip":9579,"estone":9580,"Ġstatistics":9581,"igs":9582,"Ġtox":9583,"Ġillness":9584,"Ġconcerts":9585,"olo":9586,"Ġsafe":9587,"Ġsteps":9588,"ĠSupport":9589,"bach":9590,"ĠVermont":9591,"Ġtelephone":9592,"break":9593,"BI":9594,"DR":9595,"Ġmal":9596,"ĠDallas":9597,"Ġsubt":9598,"Ġjurisdiction":9599,"sm":9600,"Ġshr":9601,"type":9602,"1971":9603,"Ġvolcan":9604,"ĠJulian":9605,"iture":9606,"ĠNiger":9607,"Ġhorses":9608,"Ġdress":9609,"Ġfarming":9610,"ĠMond":9611,"Ġwins":9612,"Ġflour":9613,"Ġda":9614,"ĠKelly":9615,"Ġroof":9616,"ĠAbraham":9617,"Ġportions":9618,"Ġstruggle":9619,"Ġassign":9620,"Ġserial":9621,"ĠGallery":9622,"Ġcontinental":9623,"established":9624,"asm":9625,"Ġchalleng":9626,"Ġenjoyed":9627,"Ġprovincial":9628,"grade":9629,"ĊĠĠĠ":9630,"Ġtherapy":9631,"Ġmyster":9632,"elta":9633,"Ġcoins":9634,"Ġslavery":9635,"NS":9636,"Ġinse":9637,"Ġrestricted":9638,"November":9639,"Ã£o":9640,"ĠNature":9641,"ĠJohnny":9642,"ĠDom":9643,"Ġresponded":9644,"Sever":9645,"itus":9646,"ĠSid":9647,"Ġstrategic":9648,"ls":9649,"rost":9650,"Ġwooden":9651,"ĠSlav":9652,"Ġseeking":9653,"Ġtool":9654,"ĠSin":9655,"Ġeditions":9656,"Ġlocally":9657,"ĠAlliance":9658,"ĠTang":9659,"Ġburned":9660,"Rep":9661,"host":9662,"via":9663,"ierra":9664,"ĠFlight":9665,"mediate":9666,"ĠTel":9667,"ĠRick":9668,"Ġnegotiations":9669,"assador":9670,"Ġmild":9671,"alph":9672,"ĠFood":9673,"Ġcamps":9674,"Ġconsecutive":9675,"Ġwarfare":9676,"ĠObs":9677,"ective":9678,"://":9679,"ĠCatherine":9680,"enberg":9681,"Ġrecept":9682,"etry":9683,"Ġeverything":9684,"ifer":9685,"Ġhonour":9686,"Ġinjury":9687,"Ġcrowd":9688,"ĠRap":9689,"Ġagencies":9690,"Ġintersection":9691,"cha":9692,"Ġ1898":9693,"ĠCole":9694,"Ġevening":9695,"1967":9696,"ushing":9697,"Ġweekly":9698,"Ġcorporate":9699,"olics":9700,"Ġadvice":9701,"Ġhits":9702,"Ġdefine":9703,"ĠJenn":9704,"ĠCuba":9705,"Ġbrown":9706,"zing":9707,"ĠArgentina":9708,"icip":9709,"Ġretreat":9710,"Ġtourist":9711,"Ġabsolute":9712,"ĠCarm":9713,"Ġmonaster":9714,"Ġtribute":9715,"Ġsight":9716,"Ġunlike":9717,"arest":9718,"February":9719,"net":9720,"ampl":9721,"rock":9722,"Ġallies":9723,"keley":9724,"Ġcharts":9725,"ĠDaily":9726,"auc":9727,"Ġmissile":9728,"Modern":9729,"ilian":9730,"strong":9731,"avia":9732,"Ġabst":9733,"Ð¾":9734,"ristol":9735,"Ġprince":9736,"Ġdict":9737,"icop":9738,"ĠKÃ¶":9739,"Ġmarine":9740,"City":9741,"Ġaccord":9742,"Ġartistic":9743,"Ġorganic":9744,"Politics":9745,"rity":9746,"ĠMort":9747,"ĠWilhelm":9748,"ĠDynasty":9749,"Ġmovies":9750,"ĠOtto":9751,"DF":9752,"Ġcompr":9753,"Ġdescribing":9754,"Ġteen":9755,"ĠClare":9756,"ĠAndre":9757,"lie":9758,"emed":9759,"lectric":9760,"Ġsentence":9761,"Ġerected":9762,"ĠGreater":9763,"Ġmonument":9764,"Ġoperational":9765,"ĠModel":9766,"ĠMind":9767,"ĠSultan":9768,"Ġvaries":9769,"Ġfiled":9770,"Ġlas":9771,"ĠHarold":9772,"ĠLore":9773,"ĠBour":9774,"chi":9775,"Ġrevival":9776,"formerly":9777,"ĠSyria":9778,"tic":9779,"ugoslav":9780,"Ġsymmet":9781,"ĠMichel":9782,"Ġseventh":9783,"Ġ72":9784,"Ġclothing":9785,"Ġ63":9786,"Ġromantic":9787,"stad":9788,"she":9789,"ĠSmall":9790,"izer":9791,"Ġlegit":9792,"ĠMovement":9793,"Ġfinite":9794,".'":9795,"Ġmainstream":9796,"Ġdrummer":9797,"ailand":9798,"Ġincl":9799,"Ġgross":9800,"Ġdepends":9801,"Ġreplacing":9802,"Ġcompens":9803,"Ġmounted":9804,"ĠGregory":9805,"Ġsupports":9806,"Ġbacking":9807,"ĠCollins":9808,"ĠAustin":9809,"Ġtape":9810,"ersion":9811,"oning":9812,"Ġcopper":9813,"Ġconsolid":9814,"Ġcompletion":9815,"ĠLutheran":9816,"Ġrelief":9817,"aho":9818,"Ã©n":9819,"Ġmine":9820,"Ġchallenge":9821,"ĠEdition":9822,"ĠLate":9823,"ĠBoys":9824,"Ġquad":9825,"ĠTol":9826,"ĠMap":9827,"Ġelder":9828,"ospel":9829,"bound":9830,"Ġfur":9831,"Ġbanned":9832,"ocial":9833,"High":9834,"Ġgraduate":9835,"Ġsudden":9836,"istant":9837,"Ġclaiming":9838,"ĠDesign":9839,"Ġfacilit":9840,"Ġunless":9841,"Ġhub":9842,"orf":9843,"Ġdefensive":9844,"group":9845,"Ġaf":9846,"ĠUpon":9847,"Ġdidn":9848,"Ġaimed":9849,"Ġconversion":9850,"Ġpartial":9851,"Ġairline":9852,"Ġqueen":9853,"Ġarmies":9854,"lan":9855,"dimensional":9856,"ĠRichmond":9857,"ĠKy":9858,"ingly":9859,"ĠSche":9860,"á¹":9861,"ĠJosÃ©":9862,"Ġgetting":9863,"Ġ101":9864,"Ġretirement":9865,"ĠProp":9866,"Ġscientist":9867,"Ġdiameter":9868,"Ġspacecraft":9869,"enez":9870,"Ġreflected":9871,"Ġfiles":9872,"Ġfuneral":9873,"Ġdangerous":9874,"friend":9875,"Ġmanufacturer":9876,"Ġmo":9877,"ĠFriedrich":9878,"Part":9879,"ĠBox":9880,"harm":9881,"rele":9882,"Ġboats":9883,"Ġnoun":9884,"gi":9885,"Ġtub":9886,"Ġlakes":9887,"ĠBav":9888,"ĠStu":9889,"Ġrestaurants":9890,"Ġstead":9891,"Ġcourses":9892,"ĠJonathan":9893,"ĠGuy":9894,"ref":9895,"ĠRef":9896,"Ġaccl":9897,"ĠCommerce":9898,"Ġhappened":9899,"Ġturb":9900,"Ġblocks":9901,"Ġdescendants":9902,"orious":9903,"Ġpublications":9904,"Sim":9905,"ĠTokyo":9906,"ĠComb":9907,"ĠEncyclopedia":9908,"Ġpianist":9909,"Ġtort":9910,"urrently":9911,"Ġcompre":9912,"Ġabund":9913,"Ġfurn":9914,"Ġlicense":9915,"ĠNav":9916,"Later":9917,"Ġbeach":9918,"Ġsuffering":9919,"Ġpermitted":9920,"Ġnoise":9921,"Ġtheolog":9922,"olve":9923,"uras":9924,"ocese":9925,"Ġmolecules":9926,"Ġcaught":9927,"ĠFel":9928,"Ġseconds":9929,"Star":9930,"ĠHerbert":9931,"ĠGary":9932,"ĠRio":9933,"ĠPittsburgh":9934,"Ġinstrumental":9935,"Ġbiography":9936,"ĠColonel":9937,"Ġinterface":9938,"Ġsignificance":9939,"ĠMaxim":9940,"Ġfib":9941,"Rad":9942,"Ġartificial":9943,"Ġranges":9944,"Nor":9945,"acles":9946,"ĠMean":9947,"Ġintegral":9948,"Ġincom":9949,"Ġcomedian":9950,"Ġfewer":9951,"ĠGDP":9952,"Ġplain":9953,"Ġturning":9954,"King":9955,"Ġ1896":9956,"iblical":9957,"East":9958,"Ġcoun":9959,"cca":9960,"Ġhier":9961,"ĠExp":9962,"ĠAgric":9963,"ĠHugh":9964,"Ġwealthy":9965,"ĠClassical":9966,"avian":9967,"Ġanyone":9968,"Ġappearing":9969,"Ġcollaboration":9970,"Ġexclusively":9971,"Ġdisplayed":9972,"App":9973,"Ġministers":9974,"asks":9975,"ĠControl":9976,"Ġelectricity":9977,"Black":9978,"Jewish":9979,"uclear":9980,"Ġconsistent":9981,"ĠIndonesia":9982,"ĠSull":9983,"ĠDictionary":9984,"rod":9985,"Ġ1895":9986,"Ġevil":9987,"Ġmathematician":9988,"bel":9989,"1945":9990,"teenth":9991,"Ġ78":9992,"Sch":9993,"Ġvariables":9994,"ĠPil":9995,"Ġwider":9996,"Ġconcerning":9997,"Ġvic":9998,"Under":9999,"otten":10000,"ĠAmaz":10001,"Ġboys":10002,"ulu":10003,"ibn":10004,"My":10005,"ĠNorfolk":10006,"Christian":10007,"ED":10008,"sburg":10009,"ĠFinal":10010,"Ġvoltage":10011,"Ġunderground":10012,"ĠRomania":10013,"ĠSystems":10014,"1966":10015,"400":10016,"eric":10017,"Ġscreenwriter":10018,"ĠOpera":10019,"inea":10020,"Ġpy":10021,"Ġ86":10022,"ĠRing":10023,"Ġguarant":10024,"ĠPictures":10025,"ĠMitchell":10026,"rowing":10027,"Ġ600":10028,"Ġpalace":10029,"Ġconnects":10030,"ensively":10031,"Ġdream":10032,"Ġreportedly":10033,"Ġusual":10034,"Ġske":10035,"Bir":10036,"ĠCelt":10037,"1965":10038,"ĠMrs":10039,"Ġ1840":10040,"Ġtransmit":10041,"ĠMonte":10042,"Ġphenomenon":10043,"Ac":10044,"aude":10045,"Ġchlor":10046,"lude":10047,"ĠTheater":10048,"Ġprox":10049,"ĠVII":10050,"Ġcollections":10051,"Ġslowly":10052,"ĊĠĠĠĠ":10053,"Ġwindow":10054,"ĠGrey":10055,"Ġeconomics":10056,"ĠVeg":10057,"aired":10058,"Ġstayed":10059,"Bet":10060,"ĠMack":10061,"ĠBaltimore":10062,"uisine":10063,"ĠGust":10064,"verseas":10065,"Ġshopping":10066,"Ġentering":10067,"Ġmines":10068,"was":10069,"ĠConstantinople":10070,"encing":10071,"Ġconfront":10072,"UK":10073,"Canadian":10074,"ĠOS":10075,"Ġturns":10076,"Ġmixture":10077,"ester":10078,"Met":10079,"Ġ82":10080,"ĠRecord":10081,"ĠHerman":10082,"ĠInfantry":10083,"Ġencl":10084,"Ġnarrative":10085,"ĠLock":10086,"Ġhip":10087,"ocene":10088,"Ġlegacy":10089,"ĠJerry":10090,"Ãł":10091,"Ġundert":10092,"Ġeggs":10093,"Ġrebellion":10094,"ĠRico":10095,"ĠOliver":10096,"Ġcompete":10097,"Ġshock":10098,"ĠIndustrial":10099,"ĠBabyl":10100,"Ġ67":10101,"ĠDays":10102,"ĠCommander":10103,"hop":10104,"Ġ1830":10105,"iliated":10106,"ĠHolland":10107,"Ġdependent":10108,"Ġtell":10109,"ĠLiver":10110,"dinand":10111,"Ġcotton":10112,"1964":10113,"ĠCher":10114,"Ġarbit":10115,"Ġpossession":10116,"Ġready":10117,"ĠData":10118,"ĠOffic":10119,"ĠNorm":10120,"outheastern":10121,"Ġmissing":10122,"Ġpreval":10123,"roid":10124,"Ġorb":10125,"ĠĊĠĊĠĊĠĊĠĊĠĊĠĊĠĊ":10126,"ĠPent":10127,"cester":10128,"Ġconservation":10129,"ĠLakes":10130,"Ġtraveled":10131,"omon":10132,"Ġrecovered":10133,"ĠCapital":10134,"AP":10135,"itter":10136,"Ġgro":10137,"Ġpip":10138,"Ġpri":10139,"compass":10140,"ĠPont":10141,"Ġvelocity":10142,"Arch":10143,"Ġrecru":10144,"ĠUrban":10145,"Ġisolated":10146,"Ġadvis":10147,"Ġlogo":10148,"Ġcoat":10149,"Ġdistribut":10150,"Ġstatistical":10151,"billion":10152,"ĠSalv":10153,"ĠCaesar":10154,"Ġordinary":10155,"ĠGa":10156,"Ġasc":10157,"Cal":10158,"wald":10159,"Ġstored":10160,"Ġstructural":10161,"ĠAtlanta":10162,"ĠGraham":10163,"Ġdiscrim":10164,"Ġpatent":10165,"Me":10166,"eria":10167,"Ġ1889":10168,"Ġautob":10169,"Ġcanon":10170,"owned":10171,"Ġoptim":10172,"winning":10173,"ĠGilbert":10174,"Ġparticle":10175,"adi":10176,"pring":10177,"onomous":10178,"Ġpref":10179,"Post":10180,"Ġprocedure":10181,"Ġremainder":10182,"Ġteachers":10183,"Ġunemploy":10184,"Several":10185,"arus":10186,"ĠYugoslav":10187,"Ġdistinctive":10188,"ĠAra":10189,"uter":10190,"Ġgate":10191,"rium":10192,"Ġequipped":10193,"Ġremoval":10194,"Ġanthrop":10195,"Ġrating":10196,"Ġdrag":10197,"ĠAS":10198,"Ġ84":10199,"Ġvertical":10200,"Ġparliamentary":10201,"ĠRivers":10202,"Ġceased":10203,"reement":10204,"Ġtheor":10205,"Ġphosph":10206,"oded":10207,"uum":10208,"Ġmanufactured":10209,"ĠMotor":10210,"maker":10211,"ĠGate":10212,"nut":10213,"ĠComputer":10214,"ĠColomb":10215,"Ġ250":10216,"ĠMason":10217,"Ġflex":10218,"ĠEmer":10219,"Ġ77":10220,"Ġfunctional":10221,"Ġ76":10222,"Ġmarks":10223,"Bel":10224,"modern":10225,"ĠSite":10226,"ĠHas":10227,"Ġcatch":10228,"Ġlov":10229,"Ġ1899":10230,"Ġmagnitude":10231,"Ġexercise":10232,"Ġalphabet":10233,"season":10234,"Ġmorph":10235,"ĠLan":10236,"Ġkeeping":10237,"Ġprosper":10238,"ĠCrow":10239,"Her":10240,"ĠFitz":10241,"ĠIsaac":10242,"Ġ1000":10243,"Ġsocieties":10244,"Ġcrash":10245,"ĠParker":10246,"Ġdecrease":10247,"ĠFurthermore":10248,"ĠLloyd":10249,"mo":10250,"pert":10251,"eping":10252,"ĠWithin":10253,"Ġthinking":10254,"ĠPhoenix":10255,"Ġdemocracy":10256,"ĠFact":10257,"Ġ1800":10258,"gra":10259,"opal":10260,"Ġninet":10261,"ĠFac":10262,"ĠYan":10263,"ĠWoman":10264,"Ġtow":10265,"Ġcodes":10266,"oding":10267,"Ġemphasis":10268,"Ġcontribution":10269,"Ġreactions":10270,"Ġoptical":10271,"namese":10272,"Ġrecognised":10273,"ĠGriff":10274,"Ġmarketing":10275,"eston":10276,"Ġshop":10277,"Ġcompat":10278,"Ġinstructions":10279,"Ġ69":10280,"fiction":10281,"eto":10282,"ĠWor":10283,"ĠDefence":10284,"inating":10285,"Ġrevised":10286,"Sub":10287,"esis":10288,"ĠOscar":10289,"Ġapproaches":10290,"boy":10291,"ĠConcer":10292,"Ġcurrency":10293,"Ġinterpreted":10294,"Rober":10295,"Ġsoci":10296,"ĠPrussia":10297,"pres":10298,"1963":10299,"Ġdevelopments":10300,"omas":10301,"Ġconvin":10302,"Ġthereby":10303,"graduate":10304,"ĠMeg":10305,"ĠPage":10306,"ocent":10307,"Ġprinting":10308,"ĠLeo":10309,"ĠMaj":10310,"Ġchemistry":10311,".),":10312,"oro":10313,"Ġmerely":10314,"Ġdisag":10315,"ĠAlph":10316,"boards":10317,"TE":10318,"ĠAround":10319,"aman":10320,"ĠFlorence":10321,"ti":10322,"orient":10323,"hu":10324,"hour":10325,"Ġalter":10326,"Ġports":10327,"Ġplural":10328,"Ġmilk":10329,"ÃŃn":10330,"Ste":10331,"Ġrecre":10332,"Ġdeliber":10333,"ĠHind":10334,"ĠNear":10335,"ĠNASA":10336,"aders":10337,"Ġhope":10338,"Ġplaywright":10339,"ĠWalt":10340,"Ġlie":10341,"ĠBlues":10342,"Ġcondemn":10343,"Ġefficiency":10344,"olith":10345,"Ġhem":10346,"urer":10347,"ĠCommons":10348,"Ġelabor":10349,"Ġoccasions":10350,"ĠJoan":10351,"ĠSnow":10352,"Ġrecommend":10353,"Ġbehalf":10354,"Ġarrangement":10355,"ĠIceland":10356,"irates":10357,"aco":10358,"Ġ1871":10359,"Disc":10360,"Ġbrig":10361,"Ġanch":10362,"Ġmonitor":10363,"Ġgiant":10364,"Ġfalling":10365,"ĠPolitical":10366,"Ġperspective":10367,"Ġrestrictions":10368,"agnetic":10369,"ĠAlt":10370,"Ġhybrid":10371,"Ġbronze":10372,"mingham":10373,"Ġnecessarily":10374,"Ġmail":10375,"Ġphilosophers":10376,"Ġinspiration":10377,"obb":10378,"esian":10379,"ĠMedicine":10380,"sequently":10381,"GA":10382,"Ġconcrete":10383,"stown":10384,"Ġspending":10385,"Ġbombing":10386,"Ġranging":10387,"Ġdeter":10388,"ĠNorthwest":10389,"Ġseparation":10390,"ĠChester":10391,"Us":10392,"Ġ110":10393,"Ġtorn":10394,"Ġ1893":10395,"ĠMother":10396,"ĠKevin":10397,"Ġstarts":10398,"Ġbreeding":10399,"iast":10400,"Ġguide":10401,"Lou":10402,"Ġreferend":10403,"Ġsulf":10404,"Ġrooms":10405,"Ġpatri":10406,"Ġwings":10407,"Ġrenov":10408,"Ġtrials":10409,"Ġvide":10410,"ĠHom":10411,"Ġoxid":10412,"Ġconvicted":10413,"ĠCrus":10414,"Hen":10415,"anner":10416,"oard":10417,"ĠDelta":10418,"Ġ1892":10419,"unswick":10420,"Ġcousin":10421,"Reg":10422,"Ġinteraction":10423,"ni":10424,"Ġsolutions":10425,"Pol":10426,"Ġrum":10427,"ennial":10428,"Ġcathedral":10429,"ĠKle":10430,"Ã§ois":10431,"Personal":10432,"alin":10433,"ĠFrances":10434,"asp":10435,"Ġenforcement":10436,"Ġorganisation":10437,"Ġacquis":10438,"anni":10439,"Ġinitiated":10440,"ĠEP":10441,"ilst":10442,"ensor":10443,"LC":10444,"ĠRhod":10445,"ĠFern":10446,"Life":10447,"iffs":10448,"Ġaccurate":10449,"aism":10450,"Ġpairs":10451,"owski":10452,"Ġbases":10453,"ĠWW":10454,"Ġ1894":10455,"Ġsket":10456,"ĠVenice":10457,"ĠMuch":10458,"Ġabuse":10459,"Class":10460,"Ġhun":10461,"Ġcoinc":10462,"Ġpries":10463,"Ġcoin":10464,"Ġdonated":10465,"thouse":10466,"Ġ1887":10467,"Ġstem":10468,"vi":10469,"ĠZone":10470,"ĠEston":10471,"eway":10472,"apped":10473,"Ġpioneer":10474,"ĠWallace":10475,"ĠMall":10476,"Ġparad":10477,"Ġpromin":10478,"Ġstatements":10479,"Ġ1888":10480,"Ġborrow":10481,"Ġswit":10482,"Ġmaintains":10483,"Ġ1848":10484,"Ġextend":10485,"ĠShel":10486,"Ġdevoted":10487,"Ġparticipation":10488,"ĠCharlotte":10489,"Ġexpand":10490,"Ġscatter":10491,"ĠBird":10492,"ĠLenn":10493,"Ġrugby":10494,"Ġmarch":10495,"Ġdramatic":10496,"Ġconquest":10497,"ĠBeatles":10498,"entieth":10499,"ĠThailand":10500,"Ġrocket":10501,"Ġpatient":10502,"lon":10503,"Ġongoing":10504,"ĠLiberty":10505,"Ġenthus":10506,"Ġloop":10507,"ĠActor":10508,"Ġsoundtrack":10509,"AD":10510,"hill":10511,"ĠEnergy":10512,"Ġspr":10513,"Ġafterwards":10514,"Ġanaly":10515,"Ġproportion":10516,"LS":10517,"ĠPrior":10518,"ĠRus":10519,"ĠExpl":10520,"Rich":10521,"Ġfantasy":10522,"owed":10523,"ĠPerry":10524,"umberland":10525,"],":10526,"Ġpenal":10527,"Ġclar":10528,"Ass":10529,"ĠFull":10530,"ĠSeattle":10531,"Ġreprodu":10532,"ĠCharlie":10533,"Ġprove":10534,"1940":10535,"Ġdeparture":10536,"Ġpictures":10537,"Ġopportunities":10538,"Ġseemed":10539,"ulsion":10540,"Ġreserve":10541,"ĠVideo":10542,"ags":10543,"Ġequations":10544,"CDP":10545,"asa":10546,"Ġreven":10547,"ĠCoal":10548,"acht":10549,"ĠPut":10550,"igrated":10551,"Ġcompact":10552,"dy":10553,"ynom":10554,"ĠTrinity":10555,"ĠProte":10556,"Ġwearing":10557,"ubb":10558,"Ġprofession":10559,"ĠNevada":10560,"Ġdepartments":10561,"Ġthirty":10562,"quer":10563,"atorial":10564,"ĠEvans":10565,"ĠHawaii":10566,"Ġju":10567,"ĠOri":10568,"oan":10569,"Ġid":10570,"ĠLad":10571,"Ġcrops":10572,"uable":10573,"ĠSoutheast":10574,"Ġpoison":10575,"Ġsimultaneously":10576,"imm":10577,"iler":10578,"ĠProm":10579,"Ġcommanded":10580,"Ġ81":10581,"Ġdifficulty":10582,"ĠMelbourne":10583,"ĠGrammy":10584,"Ġcrossed":10585,"ĠBerkeley":10586,"ĠRogers":10587,"ĠExecutive":10588,"Ġhills":10589,"Ġsurgery":10590,"odium":10591,"Ġregulations":10592,"ĠLiverpool":10593,"CP":10594,"Sports":10595,"cott":10596,"Ġpump":10597,"Ġrulers":10598,"ĠPerformance":10599,"Ġtied":10600,"Ġmemb":10601,"Ġcoff":10602,"Ġcartoon":10603,"imir":10604,"ĠTrek":10605,"uction":10606,"ĠBoeing":10607,"Military":10608,"Ġmit":10609,"isations":10610,"Ġnotion":10611,"Ġneur":10612,"enezuel":10613,"Ðµ":10614,"Ġrestoration":10615,"first":10616,"1962":10617,"ĠSurvey":10618,"achelor":10619,"Ġfinish":10620,"Ġdesert":10621,"ĠTestament":10622,"bi":10623,"ĠSaud":10624,"Ġles":10625,"Old":10626,"Ġ71":10627,"Ġshops":10628,"ĠDean":10629,"ĠLion":10630,"Ġgay":10631,"ĠMethodist":10632,"Ġlaure":10633,"uchy":10634,"Ġvariants":10635,"rh":10636,"Ġmerger":10637,"ĠMontana":10638,"Ġmerchant":10639,"Ġchron":10640,"Ġestimates":10641,"ĠWestminster":10642,"Ġtissue":10643,"arting":10644,"azines":10645,"Ġ1861":10646,"white":10647,"Ġdistinguish":10648,"overed":10649,"Ġstrengthen":10650,"Ġcyl":10651,"Events":10652,"mile":10653,"ĠBeg":10654,"GBT":10655,"aeus":10656,"Ġhearing":10657,"ayette":10658,"Ġexile":10659,"Ġ1885":10660,"Ġencompass":10661,"Ġaccum":10662,"Ġgone":10663,"ĠIan":10664,"ĠJava":10665,"Ġtechnologies":10666,"ĠMilan":10667,"Ġatomic":10668,"Ġfollowers":10669,"Ġelectrons":10670,"Ġclergy":10671,"eta":10672,"Ġamongst":10673,"oirs":10674,"Ġtoler":10675,"Ġgolf":10676,"fa":10677,"Ġadvertising":10678,"James":10679,"oni":10680,"Ġgraduated":10681,"Ġdestination":10682,"ĠRic":10683,"Ġargue":10684,"ĠÏ":10685,"ĠLie":10686,"Ġdollars":10687,"owder":10688,"Ġsustain":10689,"Ġknock":10690,"obby":10691,"Ġprovision":10692,"Ġcontrols":10693,"ĠArnold":10694,"Ġcustomers":10695,"Ġmanip":10696,"ĠBrunswick":10697,"Ġstability":10698,"Ġspecified":10699,"ĠPremier":10700,"ĠUkraine":10701,"Ġneck":10702,"roscop":10703,"Ġdiscontin":10704,"care":10705,"GM":10706,"Ġ83":10707,"Ġparticipants":10708,"Ġsurve":10709,"Ġmolecular":10710,"forced":10711,"ĠBuddhism":10712,"Ġobst":10713,"Ġinjured":10714,"Ġbordered":10715,"Ġ1897":10716,"Ġvarieties":10717,"Crit":10718,"Ġscen":10719,"'ve":10720,"ĠPul":10721,"Ġtropical":10722,"Ġchronic":10723,"Ã¶r":10724,"Ġsubsidi":10725,"ĠAnglican":10726,"Ġbinary":10727,"Ġsyll":10728,"Ġcargo":10729,"ĠâĢĺ":10730,"redited":10731,"Ġkilomet":10732,"ĠVIII":10733,"Ġpredict":10734,"ĠCEO":10735,"Ġcomics":10736,"Ġconsumer":10737,"only":10738,"ĠEld":10739,"ibilities":10740,"Ġdisapp":10741,"Ġ73":10742,"ĠBeng":10743,"ĠReich":10744,"overy":10745,"Ġprey":10746,"Ġconcentrated":10747,"Ġforb":10748,"ĠMans":10749,"Ġjet":10750,"Ġflav":10751,"ĠMontreal":10752,"Ġaqu":10753,"ĠBristol":10754,"Ġshorter":10755,"Ġpup":10756,"Ġcompound":10757,"Ġimprovements":10758,"Ġdialects":10759,"ĠDirect":10760,"Ġpunk":10761,"Ġshield":10762,"ĠBlood":10763,"Ġconflicts":10764,"ĠHerm":10765,"Ġtransit":10766,"Ġ{":10767,"site":10768,"Ġexpert":10769,"ĠBened":10770,"ĠEthiop":10771,"uy":10772,"ĠTam":10773,"Ġreverse":10774,"Ġ1881":10775,"ampton":10776,"ĠGlen":10777,"oba":10778,"ĠIce":10779,"Ġnaming":10780,"MI":10781,"Ġdisk":10782,"Ġrevolutionary":10783,"AA":10784,"quir":10785,"arson":10786,"ĠRepublicans":10787,"cut":10788,"Ġinhib":10789,"aments":10790,"Ġphilosophical":10791,"Ġlifetime":10792,"ĠMunicipal":10793,"Ġrecalled":10794,"Ġballots":10795,"har":10796,"Ġorchest":10797,"writers":10798,"Ġgent":10799,"hester":10800,"inology":10801,"Ġexcav":10802,"Ġski":10803,"ĠAy":10804,"ĠMS":10805,"Ġconclusion":10806,"ĠTibet":10807,"bow":10808,"gel":10809,"Ġmigration":10810,"ĠRonald":10811,"Ġprotests":10812,"Ġvarying":10813,"Ġexha":10814,"ĠConn":10815,"Ġsimilarly":10816,"Ġworn":10817,"people":10818,"achment":10819,"orted":10820,"Ġgraphics":10821,"Ġrebuilt":10822,"Ġverb":10823,"stead":10824,"istent":10825,"Ġdisaster":10826,"Ġfilming":10827,"ĠRomanian":10828,"Ġeru":10829,"disc":10830,"Ġtargets":10831,"ĠJacques":10832,"Ġreceives":10833,"Ġpsychology":10834,"Ġfold":10835,"Ġfamiliar":10836,"ocket":10837,"two":10838,"ĠExper":10839,"nia":10840,"Ð¸":10841,"eded":10842,"Ġrequiring":10843,"George":10844,"ĠRolling":10845,"ĠFerdinand":10846,"largest":10847,"onal":10848,"ulum":10849,"orne":10850,"Ġestimate":10851,"RS":10852,"Ġdemands":10853,"Ġ1891":10854,"stand":10855,"math":10856,"ĠBuffalo":10857,"County":10858,"ĠEis":10859,"Ġ1884":10860,"rys":10861,"Ġkeyboard":10862,"Ġfab":10863,"orkshire":10864,"govern":10865,"ricane":10866,"ĠVictorian":10867,"Ġopponent":10868,"Ġlanded":10869,"ĠAthen":10870,"ĠVincent":10871,"ĠSoul":10872,"Ġelectoral":10873,"ĠDa":10874,"ublished":10875,"ĠMills":10876,"ĠIb":10877,"Ġsequences":10878,"Ġdivine":10879,"Ġties":10880,"uri":10881,"Ġthermal":10882,"Ġarchitectural":10883,"What":10884,"eo":10885,"ĠCase":10886,"ĠCatholics":10887,"ĠBulgar":10888,"gun":10889,"ĠEvent":10890,"sea":10891,"ÃĹ":10892,"odyn":10893,"Ġhorn":10894,"grim":10895,"ĠNeg":10896,"ugh":10897,"Ãª":10898,"Ġobservations":10899,"Ġphysicist":10900,"ĠRyan":10901,"Ġremote":10902,"ĠShah":10903,"Ġtrig":10904,"Ġ1886":10905,"Ġvessel":10906,"Ġappointment":10907,"Ġgeometry":10908,"pine":10909,"ĠKath":10910,"ussion":10911,"Ġaviation":10912,"1930":10913,"weet":10914,"ĠNevertheless":10915,"gment":10916,"Ġbehaviour":10917,"Mc":10918,"Ġchess":10919,"Because":10920,"ĠGlobe":10921,"Ġdaughters":10922,"ĠSierra":10923,"Ġspecialized":10924,"Ġintention":10925,"Ġdelivery":10926,"Paul":10927,"ĠMario":10928,"Ġpolynom":10929,"Ġlose":10930,"Ġ1882":10931,"case":10932,"Ġbridges":10933,"enton":10934,"umer":10935,"Ġterritorial":10936,"Ġmagic":10937,"Ġfestivals":10938,"ensis":10939,"ĠMetro":10940,"Ġecc":10941,"isting":10942,"ĠCurt":10943,"Ġphone":10944,"eor":10945,"1961":10946,"Cons":10947,"iox":10948,"ĠBirmingham":10949,"ĠTransit":10950,"Ġsituations":10951,"Ġoccasion":10952,"Ġextensively":10953,"ĠMoroc":10954,"Ġindependently":10955,"ĠCarlos":10956,"ilty":10957,"ĠStuart":10958,"itially":10959,"ĠEdmund":10960,"Ġinfection":10961,"Ġcelebration":10962,"Ġatoms":10963,"Ġcurve":10964,"ĠBros":10965,"irms":10966,"Ġeasier":10967,"Ġjunction":10968,"ĠVietnamese":10969,"Ġattempting":10970,"Ġconson":10971,"Ġrotation":10972,"Ġopponents":10973,"heric":10974,"person":10975,"Ġnest":10976,"ĠCharter":10977,"Ġmeasurement":10978,"Ġcongreg":10979,"Ġpsychological":10980,"Gall":10981,"ophone":10982,"ĠHope":10983,"ogan":10984,"ĠAer":10985,"sterdam":10986,"Ġcampaigns":10987,"ĠBrigade":10988,"ĠBert":10989,"icus":10990,"Ġrespective":10991,"ĠTerry":10992,"Ġradar":10993,"omical":10994,"ĠKra":10995,"Ġsciences":10996,"Ġintervention":10997,"geon":10998,"ogle":10999,"Ġfert":11000,"occup":11001,"ĠAR":11002,"north":11003,"ĠEt":11004,"Ġhear":11005,"ĠLett":11006,"dule":11007,"Ġaxis":11008,"byter":11009,"dal":11010,"ĠArc":11011,"thel":11012,"sa":11013,"Ġdecay":11014,"Ġ),":11015,"Ġexcell":11016,"ovakia":11017,"ĠHil":11018,"ĠButler":11019,"Japanese":11020,"Ġmurdered":11021,"Ġcuisine":11022,"ĠLost":11023,"ĠIranian":11024,"ĠHenri":11025,"ĠJama":11026,"ints":11027,"ĠKo":11028,"Ġrevol":11029,"ĠKirk":11030,"Ġsubstit":11031,"Ġconvinced":11032,"Ġnotice":11033,"ioch":11034,"iability":11035,"annon":11036,"1959":11037,"ĠNa":11038,"aneous":11039,"Ġunsuccessful":11040,"Ġreferendum":11041,"owing":11042,"cm":11043,"asi":11044,"ĠSarah":11045,"ĠOcc":11046,"Ġsumm":11047,"Ġextends":11048,"ĠJudaism":11049,"Ġpull":11050,"Ġenemies":11051,"ĠPhilosophy":11052,"ĠMend":11053,"ĠHamm":11054,"Ġmechanics":11055,"Ġsessions":11056,"Ġdocumented":11057,"Ġspectr":11058,"Ang":11059,"ĠAP":11060,"ĠWing":11061,"ĠEnt":11062,"Before":11063,"Ġpronounced":11064,"Ġcash":11065,"Ġdeemed":11066,"eras":11067,"Ġwel":11068,"ĠRalph":11069,"ĠHad":11070,"Ġuncle":11071,"anium":11072,"Ġ74":11073,"Ġrect":11074,"ĠIP":11075,"Ġplastic":11076,"Ġcasualties":11077,"ĠFI":11078,"Ġinvolve":11079,"Ġcollaps":11080,"empl":11081,"ĠLux":11082,"ĠUkrain":11083,"Ġspectrum":11084,"ĠLebanon":11085,"Media":11086,"ĠYorkshire":11087,"Ġacted":11088,"Ġ<":11089,"Ġrid":11090,"ĠFif":11091,"%).":11092,"ĠHob":11093,"ĠTob":11094,"ahl":11095,"Ġpromotion":11096,"Ġhorizont":11097,"ĠRon":11098,"Ġconspir":11099,"Ġorganisms":11100,"Living":11101,"Ġrice":11102,"Ġnerv":11103,"Ġbid":11104,"ĠChang":11105,"written":11106,"ĠArchbishop":11107,"Ġdifficulties":11108,"ĠLarry":11109,"Spe":11110,"Ġdisorders":11111,"\":":11112,"Ġsubsc":11113,"Ġmerc":11114,"Ġfulf":11115,"Ġconsequence":11116,"Back":11117,"Ġjoining":11118,"ayan":11119,"lived":11120,"onna":11121,"ĠHunt":11122,"ĠVic":11123,"Ġsky":11124,"Ġdissolved":11125,"1939":11126,"word":11127,"axy":11128,"made":11129,"Ġtel":11130,"eness":11131,"Ġmaintaining":11132,"Ġsubstance":11133,"Ġdeployed":11134,"Ġadministered":11135,"Î¿":11136,"Ġsurn":11137,"Ġorth":11138,"Ġcreative":11139,"neur":11140,"Ġbreaking":11141,"Ġwalking":11142,"chron":11143,"ĠLiterature":11144,"EP":11145,"Ġcanc":11146,"Communities":11147,"ĠMembers":11148,"Ġalternate":11149,"Charles":11150,"ĠStre":11151,"ĠMonroe":11152,"Ġinjuries":11153,"ĠRaymond":11154,"Ġdatabase":11155,"ĠChampionships":11156,"eli":11157,"etta":11158,"Ġ1867":11159,"found":11160,"ĠPA":11161,"Ġgrain":11162,"essed":11163,"Ġbacteria":11164,"Ġvulner":11165,"Ġlib":11166,"ĠAnim":11167,"Ġ800":11168,"Ġdemanded":11169,"ĠKam":11170,"ĠTheory":11171,"Ġframework":11172,"Ġanswer":11173,"ĠKnow":11174,"ĠFriday":11175,"Ġpermission":11176,"Ġdrink":11177,"ĠWildlife":11178,"Ġeleven":11179,"ephew":11180,"irie":11181,"Ġaccessible":11182,"new":11183,"ennium":11184,"legraph":11185,"Ġinsurance":11186,"ĠSteel":11187,"Ġacceler":11188,"ĠPortland":11189,"profit":11190,"Ġeighth":11191,"iden":11192,"ĠRou":11193,"ĠWol":11194,"ĠPalestine":11195,"Ġ79":11196,"Ġengineers":11197,"through":11198,"ĠFab":11199,"Ġremark":11200,"ĠIntelligence":11201,"Ġrecovery":11202,"Ġannounce":11203,"ĠFranco":11204,"Ġworst":11205,"Works":11206,"iangle":11207,"Ġshipping":11208,"Ġabolished":11209,"ĠSoph":11210,"ĠAx":11211,"comp":11212,"zi":11213,"ĠHughes":11214,"cific":11215,"estyle":11216,"omed":11217,"eger":11218,"ĠReform":11219,"Cap":11220,"yc":11221,"Ġbin":11222,"Ġsecular":11223,"Ġassets":11224,"ytic":11225,"Ġrescue":11226,"oqu":11227,"ĠPrinceton":11228,"Ġexplanation":11229,"Ġloan":11230,"Ġprecipitation":11231,"sub":11232,"Ġimmigration":11233,"Ġinhabited":11234,"ancer":11235,"ĠTrump":11236,"Ġvirtual":11237,"Ġarguments":11238,"ĠHav":11239,"Ġdismissed":11240,"Ġpointed":11241,"erts":11242,"umps":11243,"ido":11244,"ĠPlat":11245,"ĠSullivan":11246,"Ġchair":11247,"Ġtunnel":11248,"Ġwinters":11249,"Ġnotation":11250,"ĠSoft":11251,"ĠNag":11252,"ĠOil":11253,"Ġtheoretical":11254,"high":11255,"Ġthereafter":11256,"shaped":11257,"Ġvisiting":11258,"Ġoperators":11259,"Ġsuspended":11260,"Ġholiday":11261,"Ġsummers":11262,"ĠContinental":11263,"ĠMalaysia":11264,"'d":11265,"ĠAthlet":11266,"acco":11267,"Ġreaches":11268,"ĠBey":11269,"ĠLiv":11270,"Ġhandle":11271,"ĠPalestinian":11272,"Robert":11273,"ĠBerg":11274,"ĠBrun":11275,"Ġmarry":11276,"awk":11277,"Ġ1873":11278,"Ġseeing":11279,"Ġprize":11280,"ĠFisher":11281,"phal":11282,"ĠHelen":11283,"Ġpremiered":11284,"Ġinherited":11285,"ĠMcL":11286,"ĠRang":11287,"appy":11288,"Ġ1872":11289,"Ġgenerate":11290,"ĠObama":11291,"ĠHunter":11292,"Ġprivile":11293,"speed":11294,"ĠVenezuel":11295,"Ġstudying":11296,"ĠLeonard":11297,"ĠPy":11298,"Ġaddressed":11299,"ithms":11300,"ĠWag":11301,"Ġrocks":11302,"common":11303,"Ġmoderate":11304,"Ġsees":11305,"ĠHes":11306,"ourt":11307,"Ġtu":11308,"ĠCant":11309,"ĠJazz":11310,"holm":11311,"ĠCarn":11312,"auge":11313,"Ġoral":11314,"Ġbone":11315,"Ġvaried":11316,"ĠISO":11317,"ouver":11318,"Ġsupplied":11319,"Ġenact":11320,"Ġ1876":11321,"esty":11322,"ĠGlas":11323,"ĠRepresentative":11324,"Ġearthquake":11325,"Ġempty":11326,"Ġdemocratic":11327,"ĠNat":11328,"ĠConstantine":11329,"ĠGothic":11330,"ĠArchitect":11331,"iche":11332,"ĠMalt":11333,"ountain":11334,"elfare":11335,"Pal":11336,"Ġpilots":11337,"vy":11338,"ĠGuinea":11339,"Ġcompetitive":11340,"orms":11341,"Ġdisplays":11342,"chers":11343,"ĠView":11344,"ĠStein":11345,"ĠActress":11346,"ugg":11347,"Ġaffair":11348,"approx":11349,"Ġindeed":11350,"ĠAndy":11351,"Ġobjective":11352,"Ġliv":11353,"ĠDoc":11354,"Ġcoe":11355,"Ġclosest":11356,"Legacy":11357,"Ġpreserve":11358,"Ġmeters":11359,"Ġ1865":11360,"ui":11361,"enda":11362,"Ġpredominantly":11363,"ateral":11364,"casting":11365,"zed":11366,"Ġinfer":11367,"ĠSalt":11368,"Ġarray":11369,"Ġcommented":11370,"Ġadjust":11371,"Ġlibraries":11372,"Ġ1879":11373,"ĠAmericas":11374,"Ġdemolished":11375,"Men":11376,"oda":11377,"Ġtransp":11378,"usc":11379,"ĠGor":11380,"Ġcorruption":11381,"ĠExamples":11382,"Ġovert":11383,"onso":11384,"Ġgenes":11385,"ĠErnest":11386,"Ġmonarchy":11387,"Ġhelicop":11388,"ATO":11389,"HS":11390,"ĠCultural":11391,"Ġfinance":11392,"Ġindicating":11393,"Ġclosing":11394,"intendo":11395,"Care":11396,"Ġcoc":11397,"Ġwilling":11398,"Ġ1883":11399,"instein":11400,"ĠSri":11401,"Ġdesired":11402,"1958":11403,"ĠSpart":11404,"Ġvit":11405,"Ġlooked":11406,"arin":11407,"Ġsubmarine":11408,"Ġdiversity":11409,"zig":11410,"ĠRAF":11411,"ĠInvest":11412,"Ġben":11413,"ĠLag":11414,"ĠHomer":11415,"ĠRaj":11416,"agger":11417,"Ġgolden":11418,"irth":11419,"andin":11420,"reck":11421,"Ġrelevant":11422,"Ġhorror":11423,"ĠIraqi":11424,"Ġrepeatedly":11425,"ĠPun":11426,"Ġcompilation":11427,"Ġobservation":11428,"ĠAlexandria":11429,"mun":11430,"ĠMA":11431,"Ġverse":11432,"ĠLP":11433,"ĠRobin":11434,"ĠTransportation":11435,"Ġrelocated":11436,"Ġlegs":11437,"earing":11438,"ĠArmed":11439,"lation":11440,"Ġtheology":11441,"ĠBrooklyn":11442,"Ġcarriers":11443,"oline":11444,"ĠNixon":11445,"Ġevac":11446,"France":11447,"ĠPack":11448,"Ġfemin":11449,"Ġconquered":11450,"ĠUnit":11451,"Ġlocomot":11452,"Ġfarms":11453,"Ġcinema":11454,"Ġpermit":11455,"ĠPeru":11456,"Ġnam":11457,"Ġamateur":11458,"Ġpunishment":11459,"ĠJunior":11460,"Ġsmooth":11461,"oids":11462,"Ġreception":11463,"ucks":11464,"Ġinventor":11465,"Political":11466,"ĠGun":11467,"Ġrepair":11468,"Ġtouring":11469,"ĠLank":11470,"ĠClaud":11471,"Ġmoon":11472,"gow":11473,"ĠPicture":11474,"Ġnickname":11475,"ĠGray":11476,"Ġdischar":11477,"ĠGaul":11478,"ĠTransport":11479,"Ġfacing":11480,"Ġnominations":11481,"rupted":11482,"Ġ1864":11483,"sters":11484,"about":11485,"ĠTreas":11486,"ĠSocialist":11487,"elin":11488,"Ġliver":11489,"Ġeighteen":11490,"ĠJudge":11491,"ĠBaldwin":11492,"arr":11493,"Ġcitizen":11494,"Ġforth":11495,"yright":11496,"Ġhaz":11497,"Ġflower":11498,"Ġrequested":11499,"Ġabroad":11500,"athered":11501,"Ġoct":11502,"oriented":11503,"anthrop":11504,"Ġhole":11505,"Ġreligions":11506,"ĠBasil":11507,"ĠPearl":11508,"ĠVo":11509,"Ġbits":11510,"Ġmetals":11511,"Ġbull":11512,"Ġdepression":11513,"Ġcomprom":11514,"800":11515,"terior":11516,"UN":11517,"ĠReagan":11518,"ĠCad":11519,"Ġunderlying":11520,"Ġdecreased":11521,"Ġmentions":11522,"natural":11523,"ĠMember":11524,"ĠRange":11525,"San":11526,"Ġdeclar":11527,"Red":11528,"Ġoverw":11529,"1957":11530,"ĠMinor":11531,"ologically":11532,"uez":11533,"Ġranking":11534,"ĠNova":11535,"Ġsynthes":11536,"Ġsecured":11537,"iscopal":11538,"Ġfill":11539,"Ġobvious":11540,"1956":11541,"Ġbishops":11542,"ĠAmsterdam":11543,"Ġpotentially":11544,"ĠMann":11545,"ĠRhine":11546,"Ġconvert":11547,"Ġquantities":11548,"Ġ1868":11549,"Ġtot":11550,"ĠSimilarly":11551,"Ġbirthday":11552,"Second":11553,"ourg":11554,"David":11555,"ĠPic":11556,"urst":11557,"Ġbeautiful":11558,"ĠLem":11559,"Ġprevented":11560,"Ġemotional":11561,"ĠRi":11562,"Ġinducted":11563,"ilib":11564,"ĠMaurice":11565,"ĠBud":11566,"ifier":11567,"aws":11568,"Ġsamples":11569,"Ġgam":11570,"oyage":11571,"ĠArchive":11572,"Act":11573,"ashi":11574,"ĠMadrid":11575,"agonist":11576,"Ġentity":11577,"Ġ1863":11578,"Ġoutbreak":11579,"Ġwarri":11580,"Ġhat":11581,"Ġrestaurant":11582,"arts":11583,"Ġoptions":11584,"histor":11585,"ĠShan":11586,"rena":11587,"Ġcounterpart":11588,"lain":11589,"ĠHann":11590,"Ġsequel":11591,"ĠJulius":11592,"Ġsynthesis":11593,"umm":11594,"Ġ1862":11595,"Ġcivilians":11596,"ĠPhot":11597,"oustic":11598,"Ġprogressive":11599,"ĠIvan":11600,"rill":11601,"ĠÃĹ":11602,"Ġfunded":11603,"Ġflowers":11604,"Ġhomosexual":11605,"Ã©l":11606,"auer":11607,"Ġvirtually":11608,"ĠSomers":11609,"Ġaffili":11610,"ĠMoz":11611,"ĠRab":11612,"ĠType":11613,"Ġmuscle":11614,"Ġbay":11615,"ĠBomb":11616,"Ġintense":11617,"Ġclimb":11618,"ĠShip":11619,"Ġanimation":11620,"ĠMyster":11621,"Ġswimming":11622,"ĠFra":11623,"held":11624,"Ġsav":11625,"ĠYellow":11626,"Ġmagazines":11627,"ĠArticle":11628,"ĠPerse":11629,"ignt":11630,"Ġpushed":11631,"Ġclient":11632,"Ġtested":11633,"ĠDesert":11634,"oting":11635,"marks":11636,"Ġaltitude":11637,"ĠMathemat":11638,"levard":11639,"Ġmuseums":11640,"1920":11641,"Ġdrivers":11642,"600":11643,"ĠDeep":11644,"Ġexhibit":11645,"Ġpand":11646,"Ġglac":11647,"Ġfasc":11648,"DC":11649,"igo":11650,"ĠFr":11651,"Ġproductions":11652,"ĠColumbus":11653,"Ġmeets":11654,"Ġburial":11655,"Ġarchaeological":11656,"Ġjudges":11657,"ĠPant":11658,"Ġnaturally":11659,"Ġsending":11660,"TO":11661,"Ġfeeling":11662,"Ġdogs":11663,"ĠCeltic":11664,"Ġtransformation":11665,"ĠBohem":11666,"ĠDance":11667,"Ġrac":11668,"ĠLucas":11669,"Ġpowered":11670,"ĠPad":11671,"Ġpresidency":11672,"Ġblind":11673,"Ġvictim":11674,"lide":11675,"fr":11676,"film":11677,"ĠLear":11678,"hn":11679,"Ġdrinking":11680,"Ġdevast":11681,"Ġgets":11682,"Ġoccurring":11683,"ĠLancaster":11684,"ĠJoy":11685,"Ġrabb":11686,"Ġmarg":11687,"Ġsin":11688,"Ġguilty":11689,"Ġoverseas":11690,"atri":11691,"ĠUlt":11692,"etics":11693,"Ġseed":11694,"Ġconstra":11695,"Ġactivists":11696,"Ġtwin":11697,"minute":11698,"ifice":11699,"iper":11700,"Bus":11701,"leys":11702,"yler":11703,"irk":11704,"Ġintegration":11705,"Ġfix":11706,"ĠDub":11707,"Ġyards":11708,"Ġdialogue":11709,"gus":11710,"Ġgenerations":11711,"Ġeducator":11712,"Ġflew":11713,"Ġcrypt":11714,"Land":11715,"post":11716,"Ð½":11717,"ĠWells":11718,"ĠSicily":11719,"ĠSpringfield":11720,"Ġinformed":11721,"Ġbrick":11722,"ĠGermanic":11723,"ĠSteven":11724,"Ġcomputing":11725,"1955":11726,"ĠBattalion":11727,"ĠSaints":11728,"icking":11729,"ĠAntioch":11730,"ĠGÃ¶":11731,"arms":11732,"Ġwinds":11733,"Ġcomprises":11734,"oric":11735,"Ġwithdrew":11736,"Ġcommunist":11737,"Ġ1869":11738,"ivic":11739,"Ġlayers":11740,"Ġprofit":11741,"Ġserver":11742,"ĠArabia":11743,"Ġhoused":11744,"Ġexplicitly":11745,"Ġsphere":11746,"Ġhelping":11747,"Ġconfiguration":11748,"ĠNine":11749,"Ġprocedures":11750,"ovo":11751,"unication":11752,"Ġmartial":11753,"itative":11754,"Ġsubmitted":11755,"hips":11756,"mented":11757,"itol":11758,"ĠPine":11759,"Ġenabled":11760,"Ġrows":11761,"named":11762,"ĠGreeks":11763,"ĠHold":11764,"Ġisot":11765,"Ġconsiderably":11766,"amount":11767,"Ġtemporarily":11768,"Ġrecreation":11769,"ĠLoc":11770,"Ġmissiles":11771,"Ġinflation":11772,"Ġmammals":11773,"Ġtight":11774,"ĠSaudi":11775,"core":11776,"ĠHaz":11777,"ellar":11778,"Ġeveryone":11779,"ĠTon":11780,"Ġpenet":11781,"Ġpromoting":11782,"Ġdivorce":11783,"Ġrecognize":11784,"ulations":11785,"Ġupgrad":11786,"ĠIns":11787,"Ġscope":11788,"cock":11789,"BO":11790,"1900":11791,"Ġacres":11792,"Ġrequirement":11793,"Ġaudiences":11794,"ĠAber":11795,"Ġsacred":11796,"ĠShaw":11797,"Non":11798,"hall":11799,"ymph":11800,"Ġpartners":11801,"Ġseverely":11802,"Ġcreates":11803,"Ġpromised":11804,"Ġ('":11805,"ĠPin":11806,"Ġcoron":11807,"ĠSyn":11808,"iston":11809,"ĠGw":11810,"aha":11811,"Ġreaders":11812,"ĠChancellor":11813,"hyd":11814,"prising":11815,"eyer":11816,"tar":11817,"otus":11818,"Ber":11819,"tole":11820,"Ag":11821,"Out":11822,"Ġdisputed":11823,"Ġauthent":11824,"ĠCommunications":11825,"ĠChapel":11826,"ĠEagle":11827,"aukee":11828,"Ġobsc":11829,"Ġbroadcasting":11830,"Ġbonds":11831,"Ġsurviv":11832,"Ġpanel":11833,"Ġarist":11834,"orian":11835,"ĠGet":11836,"Ġphotographs":11837,"oux":11838,"ĠDJ":11839,"Ġtopic":11840,"Ġgrammar":11841,"ĠBond":11842,"Ġbasin":11843,"Ġweekend":11844,"isan":11845,"Ġsentenced":11846,"Musical":11847,"ĠSusan":11848,"actic":11849,"lit":11850,"Ġprofile":11851,"ĠQuest":11852,"ĠAT":11853,"ĠDiam":11854,"Ġinterchange":11855,"Ġantiqu":11856,"ĠKan":11857,"ĠYouth":11858,"ĠHarvey":11859,"ĠMagic":11860,"Ġkinds":11861,"ĠEdwards":11862,"ĠDennis":11863,"Ġprest":11864,"Ġmessages":11865,"Ġfairly":11866,"Ġbread":11867,"Ġgradu":11868,"icular":11869,"Ġresource":11870,"Ġpeninsula":11871,"ĠVlad":11872,"Ġ1878":11873,"ĠXV":11874,"ĠCrime":11875,"Ġpredecessor":11876,"Ġabb":11877,"Ġyoungest":11878,"ĠDrive":11879,"Ġunemployment":11880,"Ġcompeting":11881,"Ġpreparation":11882,"ĠVern":11883,"Ġcooper":11884,"Ġapproached":11885,"olithic":11886,"ewise":11887,"ardens":11888,"Ġcomplexity":11889,"rene":11890,"irts":11891,"eca":11892,"ĠConserv":11893,"'ll":11894,"ĠIsab":11895,"Ġpetition":11896,"Ġjunior":11897,"Ġsche":11898,"Ġhoped":11899,"ĠIC":11900,"Ġendors":11901,"Ġproclaimed":11902,"Ġalien":11903,"Ġtourists":11904,"Ġcomprehensive":11905,"Ġfighters":11906,"MC":11907,"Ġquantity":11908,"Oper":11909,"repre":11910,"ansk":11911,"Ġescaped":11912,"igrant":11913,"unciation":11914,"Ġacknowledged":11915,"Ġtransformed":11916,"ĠAmendment":11917,"Ġcentres":11918,"anim":11919,"ĠSpen":11920,"osc":11921,"Ġca":11922,"Ġvowel":11923,"Fictional":11924,"uh":11925,"ĠCabinet":11926,"inte":11927,"ĠNATO":11928,"ĠLuis":11929,"Ġvenue":11930,"atar":11931,"ĠNep":11932,"aca":11933,"ooking":11934,"nal":11935,"powered":11936,"ĠSection":11937,"Ġ\"[":11938,"quest":11939,"Ġcrosses":11940,"Ġorg":11941,"ĠFormer":11942,"Ġ102":11943,"ĠAviation":11944,"ĠPolicy":11945,"Ġimposed":11946,"Ġorganised":11947,"piece":11948,"ignty":11949,"mod":11950,"Ġimprisoned":11951,"lections":11952,"Ġstrings":11953,"Ġhidden":11954,"ĠAlong":11955,"Ġraising":11956,"Ġdramat":11957,"Ġhabitat":11958,"Ġfitted":11959,"oker":11960,"Ġexclusive":11961,"Ġassassination":11962,"Ġing":11963,"Ġinvention":11964,"Ġprotocol":11965,"ĠPowell":11966,"ĠBenedict":11967,"reated":11968,"Ġbicy":11969,"pur":11970,"ĠCS":11971,"ĠPoly":11972,"lined":11973,"ener":11974,"Ġextending":11975,"chess":11976,"Fore":11977,"Ġfault":11978,"Ġseized":11979,"Ġsharp":11980,"ĠComedy":11981,"Ġmas":11982,"Awards":11983,"edge":11984,"ĠPresbyter":11985,"Ġbattery":11986,"Ġcow":11987,"Ġsoutheastern":11988,"ĠAF":11989,"Ġacids":11990,"page":11991,"Ġdefines":11992,"ĠArmstrong":11993,"Ġcancelled":11994,"Ġvital":11995,"Ġunex":11996,"Ġattractions":11997,"ĠHaven":11998,"Ġalive":11999,"Ġcentered":12000,"warf":12001,"Ġabstract":12002,"ĠTun":12003,"ancouver":12004,"selling":12005,"var":12006,"ÅĤaw":12007,"Ġminimal":12008,"ĠJun":12009,"ressive":12010,"Ġrevolt":12011,"Ġ1874":12012,"ĠBeth":12013,"Ġdeposits":12014,"Ġenters":12015,"Ġsweet":12016,"Ġattribut":12017,"Ġattorney":12018,"phan":12019,"Ġcontrad":12020,"Ġcontribute":12021,"Ġinvaded":12022,"Ġbuses":12023,"ieu":12024,"Ġpharm":12025,"125":12026,"Comp":12027,"RT":12028,"Ġ115":12029,"rawn":12030,"Ġ1812":12031,"ners":12032,"oday":12033,"Ġtopics":12034,"Ġbankrupt":12035,"Ġdesignation":12036,"ĠTit":12037,"ĠAugustus":12038,"Ġsilent":12039,"Ġmechanisms":12040,"amation":12041,"ĠFranz":12042,"rary":12043,"uin":12044,"Äį":12045,"Ġexplains":12046,"ĠNintendo":12047,"Ġspelling":12048,"Ġlicensed":12049,"ependent":12050,"fecture":12051,"Ġcooperation":12052,"Ġrefugees":12053,"itely":12054,"azi":12055,"Ġcutting":12056,"role":12057,"Ġterrain":12058,"Ġschedule":12059,"Äĥ":12060,"ĠBach":12061,"ĠVel":12062,"Ġspend":12063,"Ġconfused":12064,"ĠUkrainian":12065,"Ġbinding":12066,"ĠMust":12067,"restrial":12068,"irteen":12069,"Ġnortheastern":12070,"inos":12071,"Ġfusion":12072,"ĠMead":12073,"Ġgrid":12074,"ĠAltern":12075,"ĠRace":12076,"Ġmetab":12077,"sis":12078,"aran":12079,"edar":12080,"sted":12081,"ĠNam":12082,"rano":12083,"Ġgoverning":12084,"ĠQing":12085,"Hung":12086,"gements":12087,"Ġtoll":12088,"ods":12089,"Ġ1866":12090,"eda":12091,"Ġdrain":12092,"ĠPalm":12093,"ĠOriginally":12094,"Ġfilter":12095,"plete":12096,"elected":12097,"pin":12098,"Ġlaboratory":12099,"Ġprototype":12100,"ĠDragon":12101,"1954":12102,"ĠLamb":12103,"Ġchampions":12104,"ĠBulgaria":12105,"went":12106,"Ġbuff":12107,"ĠWald":12108,"ĠLeop":12109,"ĠBog":12110,"ĠDale":12111,"Ġhandling":12112,"Ġeldest":12113,"RI":12114,"ĠFuj":12115,"Ġwhilst":12116,"2021":12117,"Ġelite":12118,"Ġcommentary":12119,"VID":12120,"1942":12121,"Ġrounds":12122,"Ġconsequences":12123,"Ġbapt":12124,"his":12125,"nik":12126,"Ġfran":12127,"So":12128,"count":12129,"ĠWonder":12130,"Ġibn":12131,"ĠEsc":12132,"Ġdimensions":12133,"Ġrecipient":12134,"Ġsubsidiary":12135,"Ġafford":12136,"Ġnephew":12137,"Ġantib":12138,"Ġcollective":12139,"Ġsupplement":12140,"ĠGreatest":12141,"Green":12142,"asma":12143,"ĠUC":12144,"ĠEssex":12145,"Ġrealized":12146,"Ġdynamic":12147,"mother":12148,"emy":12149,"ĠJosh":12150,"Ġmargin":12151,"ĠLomb":12152,"ĠKa":12153,"rington":12154,"asketball":12155,"Ġfame":12156,"ĠAnat":12157,"ĠJason":12158,"Thomas":12159,"Ġtip":12160,"Ġgrandfather":12161,"ĠSide":12162,"igher":12163,"onda":12164,"1953":12165,"ĠDenver":12166,"ĠIdaho":12167,"ĠStudy":12168,"Ġactresses":12169,"urated":12170,"Ġscores":12171,"ĠIsle":12172,"Ġtet":12173,"Ġinternet":12174,"Ġpret":12175,"hal":12176,"Ġpriests":12177,"Ã°":12178,"ĠLex":12179,"Mich":12180,"Ġjury":12181,"Ġsquad":12182,"Ġarose":12183,"Ġwedding":12184,"empor":12185,"unicipality":12186,"Ġtomb":12187,"Ġdestro":12188,"1949":12189,"Ġburning":12190,"ĠRy":12191,"urring":12192,"Ġprosec":12193,"ĠLac":12194,"Ġsuggesting":12195,"Ġanarch":12196,"Ġdeck":12197,"ĠLords":12198,"State":12199,"Ġnamely":12200,"ĠStill":12201,"etheless":12202,"ĠBath":12203,"Ġdelayed":12204,"Ġtraveling":12205,"cal":12206,"ĠChand":12207,"rams":12208,"Ġtermed":12209,"ĠMercury":12210,"Ġlung":12211,"ĠTig":12212,"ĠSr":12213,"market":12214,"Year":12215,"Ġtravelled":12216,"LP":12217,"oka":12218,"ĠAlger":12219,"ospitals":12220,"ĠGon":12221,"aping":12222,"Ġindirect":12223,"Ġconfusion":12224,"Ġplatforms":12225,"Ġsurfaces":12226,"Ġhonorary":12227,"Ġvacuum":12228,"Mal":12229,"ĠLess":12230,"Ġinteractions":12231,"Ġstronger":12232,"Italian":12233,"Ġpope":12234,"Ġcharity":12235,"ĠOthers":12236,"NT":12237,"Ġsoccer":12238,"Ġ1875":12239,"laration":12240,"Ġgravity":12241,"Ġadoption":12242,"angelical":12243,"1918":12244,"ĠOrd":12245,"Ġdiox":12246,"Ġgrave":12247,"Ġdimin":12248,"iw":12249,"Battle":12250,"Ġextinct":12251,"ĠMeanwhile":12252,"ĠReed":12253,"Ġperm":12254,"Ġengage":12255,"Dist":12256,"Ġepic":12257,"str":12258,"Ġanten":12259,"Ġbelt":12260,"ĠMunich":12261,"ĠGrad":12262,"Ġequally":12263,"ambers":12264,"Ġaltered":12265,"ĠEight":12266,"1946":12267,"Ġspeeds":12268,"Ġexchang":12269,"ĠMilton":12270,"lett":12271,"ĠProtection":12272,"Up":12273,"alling":12274,"They":12275,"1941":12276,"Ġinitiative":12277,"Ġsmallest":12278,"Ġderives":12279,"Ġ1854":12280,"Ġwore":12281,"Ġforcing":12282,"ĠScandin":12283,"ĠFaith":12284,"ysical":12285,"ilia":12286,"Ġnobility":12287,"Ġprayer":12288,"lu":12289,"ĠHat":12290,"Ġmanage":12291,"ĠBoulevard":12292,"ĠHeaven":12293,"Ġsaint":12294,"ĠSerge":12295,"Ġerrors":12296,"whe":12297,"ĠRuth":12298,"More":12299,"ĠDerby":12300,"Like":12301,"ĠWhere":12302,"Ġapartment":12303,"Ġvaluable":12304,"1948":12305,"Ġcalculated":12306,"1944":12307,"Ġbeauty":12308,"Ġacquisition":12309,"furt":12310,"ashes":12311,"uto":12312,"Ġencountered":12313,"Ġreserves":12314,"Ġgly":12315,"Ġexpanding":12316,"Ġrepublic":12317,"ĠFourth":12318,"Career":12319,"ÑĢ":12320,"ĠSut":12321,"ĠMarion":12322,"ĠScots":12323,"Ġbelieves":12324,"Grand":12325,"Ġregulation":12326,"ported":12327,"Ġregister":12328,"ĠAnti":12329,"Ġfrequencies":12330,"Ġbulk":12331,"Ġsculpture":12332,"ĠBrew":12333,"ĠTheodore":12334,"ĠNorse":12335,"ĠHorse":12336,"non":12337,"ete":12338,"Ġconsensus":12339,"ographers":12340,"rien":12341,"Ġpersonally":12342,"Ġclinical":12343,"ĠWoods":12344,"eling":12345,"asia":12346,"ĠNeil":12347,"ĠRout":12348,"áº":12349,"Ġbars":12350,"ĠBear":12351,"terbury":12352,"Ġrestore":12353,"Stud":12354,"Ġtheatrical":12355,"cussion":12356,"ĠBloom":12357,"vironments":12358,"pic":12359,"ĠGabriel":12360,"ilibrium":12361,"Gold":12362,"London":12363,"Ġaest":12364,"ĠPast":12365,"atty":12366,"castle":12367,"ĠCav":12368,"Ġcolumns":12369,"rust":12370,"Ġtasks":12371,"istence":12372,"jacent":12373,"ĠYam":12374,"ĠGirls":12375,"ĠRush":12376,"ĠParks":12377,"Ġsword":12378,"Ġwindows":12379,"Ġzones":12380,"lades":12381,"Between":12382,"ricks":12383,"Ġlegally":12384,"ĠQueensland":12385,"Ġfiber":12386,"ĠGot":12387,"Ġstabil":12388,"ĠYale":12389,"Ġvacc":12390,"Ġabolition":12391,"Ġcontracts":12392,"Ġsuburb":12393,"ĠGuild":12394,"Ġpredicted":12395,"Ġregardless":12396,"Ġbears":12397,"Ġrelating":12398,"Ġgenres":12399,"1952":12400,"yll":12401,"Ġrib":12402,"Ġow":12403,"unny":12404,"omo":12405,"ĠRight":12406,"ĠMachine":12407,"Ġrainfall":12408,"ĠAristot":12409,"Ġconsort":12410,"Etymology":12411,"ĠMut":12412,"izers":12413,"Ġconsidering":12414,"Ġ1857":12415,"Ġgathered":12416,"Ġkit":12417,"Ġskill":12418,"ovanni":12419,"War":12420,"emble":12421,"ĠTraining":12422,"rolled":12423,"Ġsponsored":12424,"ĠSor":12425,"ĠCyr":12426,"sl":12427,"ĠCuban":12428,"Ġinland":12429,"Local":12430,"Ġtoured":12431,"ĠKeith":12432,"Ġdoubt":12433,"ellers":12434,"atched":12435,"inces":12436,"Ġtravels":12437,"Ġsovereign":12438,"Ġgap":12439,"Ġcustoms":12440,"Ġreorgan":12441,"Ġoutdoor":12442,"Ġannexed":12443,"Net":12444,"Ġreceiver":12445,"Ġ1877":12446,"OT":12447,"ĠSP":12448,"apor":12449,"Ġdecis":12450,"ivia":12451,"Ġhighlight":12452,"Ġdefended":12453,"Ġverte":12454,"Ġpursue":12455,"EG":12456,"gs":12457,"Ġdistant":12458,"Ġfoods":12459,"Ġmonthly":12460,"ĠAccess":12461,"ĠBot":12462,"uba":12463,"ĠOriginal":12464,"Ġsew":12465,"ĠSongs":12466,"official":12467,"ulates":12468,"Ġquart":12469,"ĠĠĠĠĠĠĠĠĠĠĠĠĠĠĠĠ":12470,"1947":12471,"MT":12472,"stal":12473,"Ġgift":12474,"veloped":12475,"Ġtun":12476,"ĠChen":12477,"thal":12478,"released":12479,"ĠGeoff":12480,"Ġaccuracy":12481,"ĠWyoming":12482,"Louis":12483,"Ġoverwhel":12484,"')":12485,"ĠWu":12486,"ĠPrix":12487,"ĠGardens":12488,"Ġbarrel":12489,"eu":12490,"Ġlieutenant":12491,"Ġeliminated":12492,"Organ":12493,"inery":12494,"although":12495,"Ġalumin":12496,"Ġenorm":12497,"ĠAppe":12498,"Ġinterviews":12499,"Ġflash":12500,"ĠClassic":12501,"ĠWatson":12502,"Ġsoph":12503,"ectors":12504,"enny":12505,"Ġsocialist":12506,"ĠGay":12507,"ĠGill":12508,"ĠVancouver":12509,"acked":12510,"1936":12511,"Ġconsent":12512,"Ġentities":12513,"Ġclosure":12514,"ĠTechnical":12515,"orp":12516,"oi":12517,"ĠGround":12518,"Ġreporting":12519,"Ġneighborhoods":12520,"Ġpenalty":12521,"Citations":12522,"Ġboom":12523,"Ġmeasurements":12524,"ĠThames":12525,"aku":12526,"upiter":12527,"Ġfraction":12528,"ĠRot":12529,"ĠWinn":12530,"ĠBrooks":12531,"Ġmarsh":12532,"ĠFiction":12533,"Ġattraction":12534,".).":12535,"Ġapproxim":12536,"ĠGoogle":12537,"Ġattending":12538,"Ġconfidence":12539,"Ġautumn":12540,"Ġfeud":12541,"Ġwish":12542,"Ġsingular":12543,"Ġrelat":12544,"Ġcounted":12545,"Ġabsorbed":12546,"ĠPtole":12547,"Ġhelps":12548,"occupied":12549,"odia":12550,"erb":12551,"Ġplacing":12552,"engths":12553,"Ġ1858":12554,"communications":12555,"bul":12556,"Î½":12557,"Ġmeth":12558,"Ġinternationally":12559,"ĠPom":12560,"ĠJar":12561,"Ġaboard":12562,"Ġassisted":12563,"Ġelectro":12564,"Ġ).":12565,"ogs":12566,"ovich":12567,"Ġspir":12568,"Henry":12569,"Ġphotography":12570,"Ġfallen":12571,"ĠFranÃ§ois":12572,"Ġlesser":12573,"Arts":12574,"ĠFellow":12575,"Ġunclear":12576,"Ġpig":12577,"Ġdiplomat":12578,"ĠPetersburg":12579,"agne":12580,"Ġillustrated":12581,"ĠDod":12582,"ĠBurton":12583,"ĠFish":12584,"Ġsick":12585,"Three":12586,"Ġproperly":12587,"Ġcommercially":12588,"game":12589,"ĠGrace":12590,"Ġliterally":12591,"Ġcameras":12592,"Ġphenomena":12593,"Ä±":12594,"pled":12595,"Ġelectrom":12596,"cat":12597,"Ġkin":12598,"osl":12599,"brook":12600,"Ġinfinite":12601,"Sal":12602,"pm":12603,"Ġcomfort":12604,"Ġspeaker":12605,"Ġarriving":12606,"Ġforg":12607,"Ġunity":12608,"Ġscandal":12609,"ĠIndex":12610,"Ġsharing":12611,"Ġpresents":12612,"Ġentertain":12613,"Top":12614,"Ġfiring":12615,"Ġnavigation":12616,"Ġfortress":12617,"Ġstops":12618,"Ġattitude":12619,"ĠCypr":12620,"ĠLetters":12621,"Ġhunt":12622,"lymouth":12623,"ĠOz":12624,"enson":12625,"ĠClimate":12626,"Ġmagnet":12627,"Ġbon":12628,"ĠSyl":12629,"Ġpermanently":12630,"Ġupdated":12631,"ÅĦ":12632,"Ġenvironments":12633,"bone":12634,"Ġcomments":12635,"Ġcirculation":12636,"AN":12637,"Mart":12638,"ĠStalin":12639,"ugs":12640,"Rock":12641,"isers":12642,"ĠHum":12643,"than":12644,"ĠMongol":12645,"Ġfabric":12646,"1951":12647,"Ġbore":12648,"ĠChurchill":12649,"Ġculmin":12650,"otion":12651,"Ġ105":12652,"ĠVegas":12653,"ĠBuch":12654,"child":12655,"Ġdeputy":12656,"Ġrecreational":12657,"original":12658,"haus":12659,"Ġbelonging":12660,"ĠCov":12661,"ĠBron":12662,"istle":12663,"Ġtorped":12664,"mn":12665,"Ġvoiced":12666,"ĠPhillips":12667,"Ġbath":12668,"ĠFinally":12669,"Def":12670,"Ġvenues":12671,"Ġposthum":12672,"Ġanthe":12673,"ĠBasin":12674,"ĠReligion":12675,"Ġnearest":12676,"Ġunw":12677,"Ġminute":12678,"Ġmanuscripts":12679,"Dan":12680,"Ġsevent":12681,"ongue":12682,"ĠHarper":12683,"ĠApost":12684,"ndon":12685,"Ġeating":12686,"Ġbreed":12687,"ĠAction":12688,"ĠHunting":12689,"Ġassociate":12690,"ĠSay":12691,"Ġperpet":12692,"gart":12693,"ĠGas":12694,"Ġmetres":12695,"Ġplanets":12696,"ĠCampus":12697,"ĠAttorney":12698,"ĠSeb":12699,"may":12700,"ĠVik":12701,"imity":12702,"ĠReturn":12703,"Ġabbreviated":12704,"Ġpandemic":12705,"lass":12706,"igation":12707,"Ġbeings":12708,"Ġmanufacture":12709,"osystem":12710,"ĠGlasgow":12711,"ĠCarroll":12712,"ĠManuel":12713,"Ġshifted":12714,"sole":12715,"Ġgardens":12716,"Ġmassacre":12717,"ĠBulg":12718,"ĠNHL":12719,"ĠHus":12720,"Ġportrait":12721,"icia":12722,"Ġamph":12723,"bing":12724,"Ġcorps":12725,"Rail":12726,"member":12727,"Ġingred":12728,"ĠÃĨ":12729,"Ġscoring":12730,"Canada":12731,"Ġsovereignty":12732,"Ġinteger":12733,"Ġoverth":12734,"Ġansw":12735,"ifferent":12736,"ĠNan":12737,"Ġ1859":12738,"writing":12739,"Ġimplies":12740,"Ġcomprising":12741,"ĠTed":12742,"ĠTrent":12743,"Ġanat":12744,"ĠLaboratory":12745,"Gallery":12746,"ĠDion":12747,"Ġrever":12748,"Ġintermediate":12749,"ymes":12750,"Ġanticip":12751,"Ġpayment":12752,"Ġferry":12753,"Ġmembrane":12754,"Ġmos":12755,"ĠStars":12756,"Ġdefinitions":12757,"Ġ118":12758,"Ġconsciousness":12759,"ĠMol":12760,"ĠStories":12761,"Ġbiology":12762,"White":12763,"ĠCinem":12764,"amo":12765,"ups":12766,"Ġidentification":12767,"ĠCardinal":12768,"Ġlatest":12769,"arded":12770,"ĠExchange":12771,"Ġhumanity":12772,"ĠKos":12773,"ĠCOVID":12774,"Ġintern":12775,"Tur":12776,"Ġmanifest":12777,"ding":12778,"iary":12779,"Ġmanual":12780,"Ġtrails":12781,"adic":12782,"ĠPyth":12783,"Ġchest":12784,"Ġble":12785,"ĠXX":12786,"ĠSpencer":12787,"Ġdanger":12788,"Ġrebels":12789,"ĠClement":12790,"Ġelig":12791,"ĠHopkins":12792,"Ġsaved":12793,"Ġsigning":12794,"vas":12795,"ĠLodge":12796,"ĠCircle":12797,"Que":12798,"eps":12799,"arriages":12800,"Ġrelatives":12801,"ĠDeclaration":12802,"Ġsurvival":12803,"Cast":12804,"Hon":12805,"woman":12806,"Ġgran":12807,"Ancient":12808,"rets":12809,"Ġcarries":12810,"ĠLor":12811,"Ġincidents":12812,"icken":12813,"criptions":12814,"Ġha":12815,"ĠCN":12816,"Ġpollution":12817,"ĠFriends":12818,"Ġ1820":12819,"Ġtranslations":12820,"Through":12821,"Ġcredits":12822,"Ġdimension":12823,"link":12824,"Ġapprec":12825,"Ġraw":12826,"Ġ700":12827,"Ġattendance":12828,"Ġtransmitted":12829,"ĠManch":12830,"ĠSudan":12831,"Don":12832,"ĠNass":12833,"Ġ103":12834,"ĠEddie":12835,"ĠCanterbury":12836,"ĠCraw":12837,"ĠRound":12838,"Sax":12839,"ĠPay":12840,"Ġcelebrate":12841,"Ġvirus":12842,"Ġchallenged":12843,"Let":12844,"ĠMarvel":12845,"Ġalgorithms":12846,"ĠPedro":12847,"Ġty":12848,"inee":12849,"usters":12850,"rieved":12851,"ĠSomerset":12852,"Ġheter":12853,"Ġcircular":12854,"Ġdubbed":12855,"ango":12856,"Ġdeeply":12857,"orum":12858,"ĠTree":12859,"ĠCond":12860,"ĠBass":12861,"Ġsculptor":12862,"ĠMPs":12863,"Ġsignature":12864,"anyon":12865,"Ġduration":12866,"Ġdealing":12867,"ĠEventually":12868,"Ġmonop":12869,"ĠPlains":12870,"four":12871,"Ġconce":12872,"rang":12873,"onomic":12874,"Ġfreed":12875,"Ġjudicial":12876,"ĠCampaign":12877,"Ġwavel":12878,"Ġcardinal":12879,"Ġfavorite":12880,"vet":12881,"Ġimprovement":12882,"Ġ1855":12883,"Ġlistings":12884,"Ġdiagram":12885,"ON":12886,"ĠReyn":12887,"ĠAdventures":12888,"ĠValent":12889,"izz":12890,"Ġbelonged":12891,"ĠBennett":12892,"Ġchallenges":12893,"imer":12894,"ailing":12895,"Ġhorizontal":12896,"Tour":12897,"rators":12898,"Ġsouthwestern":12899,"FM":12900,"Ġteeth":12901,"Ġcaps":12902,"ĠWagner":12903,"ĠKenneth":12904,"amer":12905,"Ġinsisted":12906,"Ġtenure":12907,"second":12908,"wid":12909,"Ġbypass":12910,"ĠLuxemb":12911,"Ġnavy":12912,"ĠMunicipality":12913,"Ġvideos":12914,"both":12915,"ho":12916,"Ġmini":12917,"Ġperformers":12918,"mid":12919,"ĠPoll":12920,"Ġartif":12921,"ĠPrice":12922,"Ġwarning":12923,"ĠStorm":12924,"ĠSerbia":12925,"Ġcub":12926,"ĠBee":12927,"ĠPrussian":12928,"Ġinteract":12929,"Ñģ":12930,"Ġcontinent":12931,"Ġ1856":12932,"ucc":12933,"Ġemployers":12934,"ĠKin":12935,"ĠDuchy":12936,"Ġvisits":12937,"ĠGeneva":12938,"kg":12939,"Ġfo":12940,"ĠUntil":12941,"ĠArchives":12942,"LB":12943,"Ġreson":12944,"Ġcompetitions":12945,"Ġquoted":12946,"ĠEuropeans":12947,"ĠCrim":12948,"ĠPick":12949,"ĠChapter":12950,"Ġrede":12951,"stock":12952,"Ġstyl":12953,"ĠPalmer":12954,"ĠCraig":12955,"Ġpsychiat":12956,"isons":12957,"Ġmillions":12958,"Ġseriously":12959,"Ġic":12960,"Ġciting":12961,"agles":12962,"1937":12963,"1933":12964,"ĠGuardian":12965,"Ġbones":12966,"ĠBaltic":12967,"ijing":12968,"Ġclot":12969,"ilogy":12970,"Ġcompositions":12971,"Ġlunar":12972,"Ġraids":12973,"ĠPlate":12974,"Sy":12975,"rone":12976,"Ġhur":12977,"ĠHamb":12978,"Ġrifle":12979,"Ġseeds":12980,"1938":12981,"hart":12982,"Ġlights":12983,"omatic":12984,"ĠNaples":12985,"Ġcere":12986,"ussels":12987,"Ġpitcher":12988,"entry":12989,"Ġmemor":12990,"Ġsolely":12991,"listed":12992,"Spanish":12993,"aris":12994,"Ġ104":12995,"rague":12996,"Ġfifteen":12997,"Ġfatal":12998,"1934":12999,"ĠGir":13000,"anto":13001,"Ġneuro":13002,"ĠMarcus":13003,"ĠBright":13004,"Ġimper":13005,"Ġpackage":13006,"ĠMovie":13007,"Ġdiscipline":13008,"Count":13009,"ĠThai":13010,"Ġacceptance":13011,"Ġproximity":13012,"Ġbeam":13013,"Municipal":13014,"orrect":13015,"forming":13016,"ĠDeputy":13017,"aning":13018,"ipper":13019,"Ġprevalent":13020,"Ġfreight":13021,"rup":13022,"Ġmutual":13023,"ĠAgreement":13024,"Irish":13025,"Ġreluct":13026,"Ġprovisions":13027,"Ġfossil":13028,"Ġanth":13029,"Ġrings":13030,"Ġcomprised":13031,"Ġdiscrimination":13032,"sur":13033,"chem":13034,"Ġassembled":13035,"waukee":13036,"Ġsizes":13037,"Ġraid":13038,"Ġimmun":13039,"ocaust":13040,"Ġsuburban":13041,"Ġtheologian":13042,"Ġstones":13043,"osity":13044,"Ġminerals":13045,"Ġcondemned":13046,"Ġintellig":13047,"Ġplates":13048,"Ġtruck":13049,"Ġsuspected":13050,"Ġmerchants":13051,"ochem":13052,"Ġexpelled":13053,"ĠStanford":13054,")\"":13055,"aque":13056,"ifts":13057,"Ġexamination":13058,"Ġprecise":13059,"How":13060,"ĠMusical":13061,"ĠBavaria":13062,"ĠSug":13063,".âĢĿ":13064,"yers":13065,"Ġsung":13066,"borg":13067,"ĠLuke":13068,"ĠOpp":13069,"insky":13070,"ĠConservation":13071,"Ġboxing":13072,"Ġdecide":13073,"Ġpremiere":13074,"Russian":13075,"inas":13076,"1935":13077,"ĠAny":13078,"ĠCameron":13079,"Ġonwards":13080,"Ġterminology":13081,"Ġdebuted":13082,"aic":13083,"Ġbeer":13084,"atever":13085,"regular":13086,"SCO":13087,"ĠKil":13088,"Ġlens":13089,"landers":13090,"ĠIntel":13091,"Ġcriteria":13092,"Ġradius":13093,"Ġprohibited":13094,"Ġgear":13095,"Ġrevived":13096,"Ġmonastery":13097,"this":13098,"ĠLegend":13099,"Ġpopulous":13100,"Ġtimber":13101,"Ġallegedly":13102,"ĠBes":13103,"ĠDest":13104,"Ġ1851":13105,"CAA":13106,"Ġfriendship":13107,"Ġproposals":13108,"1914":13109,"party":13110,"Ġpeaked":13111,"ĠMul":13112,"Ġtwentieth":13113,"Ġexplosion":13114,"Ġdioxide":13115,"Ġnorthwestern":13116,"built":13117,"Ġho":13118,"Ġaster":13119,"rament":13120,"Ġinterval":13121,"ĠSau":13122,"iri":13123,"Ġperception":13124,"ST":13125,"Ġdisputes":13126,"Ġcemetery":13127,"ĠClarke":13128,"Ġleaf":13129,"ĠLudwig":13130,"arians":13131,"ĠChel":13132,"ĠEnterprise":13133,"Ġly":13134,"usually":13135,"chel":13136,"ĠEdge":13137,"Ġmonarchs":13138,"Ġninth":13139,"ĠAppl":13140,"Ġexpon":13141,"notes":13142,"anskrit":13143,"ctive":13144,"Ġlaser":13145,"ĠFA":13146,"Ġthorough":13147,"Ġcompeted":13148,"Radio":13149,"Ġcoined":13150,"Ġentrepre":13151,"Ġcuts":13152,"EM":13153,"osphere":13154,"Ġfifty":13155,"Ġasking":13156,"cium":13157,"Ġash":13158,"Ġagreements":13159,"Ġorientation":13160,"Ãī":13161,"Ġencourage":13162,"yg":13163,"eterm":13164,"ĠBlake":13165,"Ġcomplicated":13166,"Video":13167,"bles":13168,"ĠGand":13169,"ĠCIA":13170,"elest":13171,"vised":13172,"oup":13173,"Ġexit":13174,"Ġchemist":13175,"ustion":13176,"ĠMoreover":13177,"Ġdirections":13178,"Ġbare":13179,"rade":13180,"Ġtalent":13181,"Ġprompted":13182,"Ġodd":13183,"Ġbaby":13184,"ĠTak":13185,"Ġsang":13186,"Ġbell":13187,"Ġweaken":13188,"Ġchapel":13189,"Ã©r":13190,"ilateral":13191,"Ġshaped":13192,"ridor":13193,"idential":13194,"Ġelevated":13195,"cule":13196,"Ġfindings":13197,"ĠArmenian":13198,"affe":13199,"Ġbombs":13200,"Ġfirms":13201,"Ġundergraduate":13202,"ĠScout":13203,"Ġtie":13204,"Ġ1837":13205,"ĠMurphy":13206,"ĠCinc":13207,"edo":13208,"Ġcapabilities":13209,"Ġdish":13210,"ĠColony":13211,"Ġarrive":13212,"ĠRav":13213,"Ġlabels":13214,"Add":13215,"ĠFantasy":13216,"ĠViol":13217,"plane":13218,"jective":13219,"Ġseparately":13220,"ĠMing":13221,"Ġpercussion":13222,"stage":13223,"ĠFBI":13224,"ĠVat":13225,"ĠJupiter":13226,"Ġquiet":13227,"atories":13228,"Ġaccommodate":13229,"sim":13230,"ourag":13231,"Ġosc":13232,"Ġfriendly":13233,"iji":13234,"Ġ112":13235,"Ġ1852":13236,"Ġoccasional":13237,"ĠAlbany":13238,"ĠEaster":13239,"Ġsummit":13240,"ĠRocky":13241,"mates":13242,"itated":13243,"ĠToy":13244,"ĠCanyon":13245,"ĠBobby":13246,"Ġblacks":13247,"airo":13248,"Ġautobiography":13249,"ĠSuff":13250,"Ġlawsuit":13251,"Ġventure":13252,"olen":13253,"roud":13254,"Ġorganisations":13255,".:":13256,"Ġholes":13257,"Ġclan":13258,"Ġcompiled":13259,"Ġfraud":13260,"ĠObserv":13261,"abl":13262,"Ġ1836":13263,"ĠChampion":13264,"ĠIndo":13265,"Ġauthorized":13266,"prises":13267,"iko":13268,"ĠRoth":13269,"ĠFuture":13270,"Ġsure":13271,"ĠDarwin":13272,"Ġwithdrawal":13273,"ĠMidd":13274,"1922":13275,"ĠCarth":13276,"Ġattacking":13277,"Ġsubset":13278,"Ġassert":13279,"Ġcompression":13280,"vanced":13281,"rokee":13282,"Ġask":13283,"Ġdistances":13284,"Ġexploration":13285,"Ġtactics":13286,"ÏĤ":13287,"Ġbearing":13288,"ĠFlag":13289,"ĠSyrian":13290,"Ġpoorly":13291,"aceae":13292,"ĠBeau":13293,"ĠFerr":13294,"Ġcorrespondence":13295,"Ġtob":13296,"Ġcertified":13297,"))":13298,"Ġneighbouring":13299,"Fort":13300,"manuel":13301,"1943":13302,"Ġexcellent":13303,"ĠCord":13304,"emann":13305,"wind":13306,"ĠOct":13307,"Ġprocessor":13308,"Ġsuburbs":13309,"Ġfaces":13310,"1929":13311,"ĠPerseus":13312,"Ġcommerce":13313,"ĠDepression":13314,"Ġscholarship":13315,"Ġtalks":13316,"Att":13317,"ĠAch":13318,"Ġmilitia":13319,"Ġlighting":13320,"ĠKur":13321,"ĠDiet":13322,"oland":13323,"ĠYugoslavia":13324,"Ġrenown":13325,"Ġabilities":13326,"ĠRhodes":13327,"Ġcorrel":13328,"Ġnerve":13329,"Arthur":13330,"ĠBrah":13331,"oque":13332,"isa":13333,"Ġcave":13334,"fan":13335,"arte":13336,"Ġgeographical":13337,"ĠPeng":13338,"Ġlock":13339,"Ġwidth":13340,"celona":13341,"Ġconjunction":13342,"ĠMonday":13343,"erness":13344,"ĠâĤ":13345,"Ġenhance":13346,"Sing":13347,"Os":13348,"Ġboost":13349,"Adjacent":13350,"Ġmomentum":13351,"ĠDominican":13352,"Ġremembered":13353,"alog":13354,"That":13355,"ben":13356,"ratic":13357,"Ġtension":13358,"elia":13359,"ĠPlymouth":13360,"ĠEnvironmental":13361,"hl":13362,"makers":13363,"ĠFinancial":13364,"Ġtends":13365,"Ġwelfare":13366,"ĠSA":13367,"ĠJur":13368,"Ġquar":13369,"Ġtornado":13370,"ĠEmmy":13371,"ĠChairman":13372,"Ġnurs":13373,"Ġtrump":13374,"NC":13375,"idad":13376,"Births":13377,"ighting":13378,"aze":13379,"Ġconfirm":13380,"ĠCongo":13381,"Ġnucleus":13382,"sized":13383,"ĠNext":13384,"ĠAntar":13385,"Ġthreats":13386,"ĠShortly":13387,"Ġ(+":13388,"ĠAnnual":13389,"Ġsensitive":13390,"Ġtransported":13391,"Ġactively":13392,"fast":13393,"ĠTroy":13394,"ĠSard":13395,"Ġkick":13396,"ĠHeath":13397,"Ġprepare":13398,"ĠCec":13399,"Ġtea":13400,"pus":13401,"naissance":13402,"Ġfocuses":13403,"ĠBanglades":13404,"ĠCort":13405,"ĠRice":13406,"Ġcoffee":13407,"Î¹":13408,"Ġstudios":13409,"likely":13410,"1932":13411,"ĠLegion":13412,"ĠOfficer":13413,"ĠBod":13414,"Ġadequ":13415,"Ġenable":13416,"ĠStudio":13417,"Ġreprint":13418,"Ġproven":13419,"Ġopposing":13420,"Frank":13421,"Ġepit":13422,"fly":13423,"Ġtale":13424,"Ġnitrogen":13425,"bird":13426,"ĠRut":13427,"Ġcontinuously":13428,"Ġautomatic":13429,"walk":13430,"Ġtemples":13431,"artered":13432,"ĠWorth":13433,"1931":13434,"Ġaffiliated":13435,"Ġcrucial":13436,"Ġlasting":13437,"Ġexplorer":13438,"ĠTerminal":13439,"Ġcancel":13440,"ĠFilip":13441,"Ġdancer":13442,"Ġ117":13443,"phis":13444,"Ġparas":13445,"Ġdrives":13446,"mentation":13447,"Ġautonomous":13448,"Ġfootage":13449,"iens":13450,"imp":13451,"enders":13452,"ampa":13453,"Ġlogical":13454,"city":13455,"Ġsegments":13456,"Great":13457,"Ġequilibrium":13458,"ĠStrat":13459,"Super":13460,"Ġdefeating":13461,"years":13462,"ĠGhost":13463,"imony":13464,"Richard":13465,"perors":13466,"uki":13467,"Scott":13468,"Ġticket":13469,"ĠTax":13470,"ĠCob":13471,"ĠBiography":13472,"Ġforty":13473,"Ġinherit":13474,"Ġallied":13475,"Ġsheet":13476,"ĠAndrÃ©":13477,"Ġhospitals":13478,"Ġoutcome":13479,"ĠSaturn":13480,"Ġsax":13481,"ĠDew":13482,"ĠShore":13483,"Ġdifferential":13484,"ĠGlou":13485,"Ġutility":13486,"number":13487,"ĠSoon":13488,"ĠErie":13489,"ĠJoint":13490,"Ġnineteenth":13491,"mate":13492,"quin":13493,"rians":13494,"Ġtriple":13495,"ĠLak":13496,"Ġrenewed":13497,"vation":13498,"quiry":13499,"Foot":13500,"dem":13501,"ĠAbu":13502,"ĠWindsor":13503,"Ġdust":13504,"Ġaccus":13505,"Ġadvocated":13506,"unch":13507,"estrian":13508,"Ġformats":13509,"ĠAllies":13510,"Ġcreator":13511,"ĠUniverse":13512,"ĠHarm":13513,";\"|":13514,"Ġunited":13515,"Ġsettings":13516,"ĠPresbyterian":13517,"ĠBeaut":13518,"Ġdiscontinued":13519,"Ġabsent":13520,"ĠHugo":13521,"ĠStatistics":13522,"Ġanx":13523,"ĠGustav":13524,"ĠNathan":13525,"ĠNumber":13526,"ĠUsing":13527,"ĠGiovanni":13528,"ĠCyprus":13529,"Ġupris":13530,"Ġoscill":13531,"Ġcopyright":13532,"IR":13533,"Ġpolitically":13534,"Ġcommitment":13535,"ĠCand":13536,"ĠDrag":13537,"ÑĤ":13538,"Ġputting":13539,"Ġfinger":13540,"Ġopens":13541,"Ġgymn":13542,"Ġsatir":13543,"Ġgallery":13544,"ĠArena":13545,"Ġcoordinates":13546,"Culture":13547,"Ġtum":13548,"rov":13549,"never":13550,"Ġreliable":13551,"ĠArchae":13552,"ĠFat":13553,"Ġresumed":13554,"Ġtours":13555,"ĠEve":13556,"oves":13557,"Ġarrangements":13558,"building":13559,"requ":13560,"Ġmissionary":13561,"Ġcitizenship":13562,"MHz":13563,"anche":13564,"Ġ1846":13565,"Ġaxi":13566,"fold":13567,"opot":13568,"ĠPlain":13569,"atoes":13570,"ĠSerbian":13571,"ĠColombia":13572,"ripp":13573,"apters":13574,"ĠScientific":13575,"Ret":13576,"Ġmills":13577,"isphere":13578,"Ġreward":13579,"Ġnewer":13580,"Ġfactories":13581,"ĠHolmes":13582,"Australian":13583,"Ġprivately":13584,"lore":13585,"ĠSie":13586,"1925":13587,"Ġdoors":13588,"bian":13589,"alism":13590,"Ġcock":13591,"Alex":13592,"holders":13593,"ĠImm":13594,"Ġastronaut":13595,"lee":13596,"Ġremoving":13597,"Ġresignation":13598,"ĠEugene":13599,"Ġintercept":13600,"Ġbreath":13601,"Ġextract":13602,"ĠCornwall":13603,"idance":13604,"Ġquot":13605,"election":13606,"roleum":13607,"Bu":13608,"connect":13609,"Ġcarb":13610,"inia":13611,"Ġseal":13612,"ĠPolitics":13613,"pit":13614,"1919":13615,"Ġgrey":13616,"1901":13617,"ĠPanama":13618,"bek":13619,"á¸":13620,"Ġurg":13621,"Ġacoustic":13622,"bank":13623,"inum":13624,"ĠEff":13625,"assy":13626,"Ġplayoffs":13627,"five":13628,"Ġ1849":13629,"ĠMarshal":13630,"Ġprefix":13631,"eno":13632,"bery":13633,"week":13634,"Ġvolunt":13635,"Ġtobacco":13636,"Ġawareness":13637,"700":13638,"Ġtriangle":13639,"ĠLimited":13640,"Ġpreservation":13641,"Ġicon":13642,"1927":13643,"Ġenlar":13644,"Ġjew":13645,"Ġswitched":13646,"Ġpush":13647,"ĠTogether":13648,"ĠKid":13649,"ounted":13650,"ĠVers":13651,"ĠIndies":13652,"ĠBergen":13653,"ĠOperations":13654,"enos":13655,"Ġwheat":13656,"Ġadvocate":13657,"Ġtelesc":13658,"ĠParad":13659,"Ġarguing":13660,"Ġlift":13661,"ĠJe":13662,"ptions":13663,"ĠGrande":13664,"ĠPhilippine":13665,"Ġlinguistic":13666,"ogene":13667,"achi":13668,"uros":13669,"ustrated":13670,"Ġje":13671,"Western":13672,"Ġride":13673,"Ġclay":13674,"Ġabandon":13675,"Ġtraded":13676,"Ġdece":13677,"Ġteachings":13678,"anne":13679,"innati":13680,"Ġpole":13681,"Ġpracticed":13682,"Ġmaritime":13683,"Ġcivilization":13684,"ĠMorocco":13685,"ĠMalay":13686,"ĠBalk":13687,"ĠWithout":13688,"Ġsisters":13689,"Ġorange":13690,"Ġevident":13691,"ificate":13692,"Ġapplies":13693,"Ġcomplement":13694,"Ġdys":13695,"ĠNancy":13696,"Ġseasonal":13697,"length":13698,"onnell":13699,"ĠLinux":13700,"Ġrely":13701,"Ġtributary":13702,"Ġharmon":13703,"ĠPink":13704,"ilda":13705,"ĠPrimary":13706,"Ġenormous":13707,"rine":13708,"Ġcolleagues":13709,"ĠCommissioner":13710,"Ġaw":13711,"Ġalk":13712,"Ġmetric":13713,"estock":13714,"ductor":13715,"Ġfee":13716,"Ġneighb":13717,"matic":13718,"lesiast":13719,"incess":13720,"ĠVas":13721,"Ġcertainly":13722,"Aut":13723,"typ":13724,"regation":13725,"ĠSussex":13726,"ÃŁ":13727,"alg":13728,"Ġbrew":13729,"Ġ1853":13730,"Ġproportional":13731,"Ġvegetation":13732,"mail":13733,"Ġconsistently":13734,"Ġphoto":13735,"ĠSolomon":13736,"www":13737,"Ġparameters":13738,"Sur":13739,"Ġpill":13740,"Ġgauge":13741,"Ġtables":13742,"ĠCroatia":13743,"1923":13744,"Among":13745,"Ġemerging":13746,"ĠGibson":13747,"Ġrealm":13748,"colm":13749,"Ġdetected":13750,"month":13751,"ĠEuc":13752,"Ġintroduce":13753,"munition":13754,"Ġgaining":13755,"iÃ³n":13756,"pher":13757,"rics":13758,"Ġfru":13759,"Ġpresentation":13760,"Ġfacto":13761,"Ġdigit":13762,"Columb":13763,"Ġunions":13764,"ĠClif":13765,"ĠKnights":13766,"IX":13767,"vor":13768,"ĠWas":13769,"Ïģ":13770,"Ġnose":13771,"ĠFace":13772,"ĠDol":13773,"Ġconsiders":13774,"African":13775,"Ġcongressional":13776,"Ġstake":13777,"opath":13778,"ĠKel":13779,"ĠShir":13780,"Ġsheep":13781,"Ġtries":13782,"ipel":13783,"Ġimported":13784,"Ġdeparted":13785,"Ġpicked":13786,"athon":13787,"Ġdens":13788,"ĠArctic":13789,"Ġcricket":13790,"urrection":13791,"1921":13792,"erville":13793,"Po":13794,"imo":13795,"ĠDuck":13796,"Water":13797,"ĠFun":13798,"ĠGolf":13799,"Ġmarking":13800,"Ġcognitive":13801,"ĠIX":13802,"ĠIng":13803,"Child":13804,"hibition":13805,"Ġgeographic":13806,"Ġsailed":13807,"Mont":13808,"alus":13809,"ĠFine":13810,"Ġprisoner":13811,"ESCO":13812,"Ġadventure":13813,"Ġautomobile":13814,"Ġautomatically":13815,"bled":13816,"Ġpupp":13817,"ĠTas":13818,"Ġphilanthrop":13819,"ĠCrick":13820,"Ġexceptions":13821,"Ġaccordance":13822,"unning":13823,"cycle":13824,"ĠVe":13825,"Ġaccomplished":13826,"jord":13827,"ĠTales":13828,"cap":13829,"pers":13830,"Ġstick":13831,"ĠSherman":13832,"Greek":13833,"ĠMoses":13834,"ĠBrussels":13835,"ĠAmazon":13836,"Ġdisappoint":13837,"umen":13838,"inned":13839,"ĠGang":13840,"Ġairports":13841,"ĠSony":13842,"ĠWang":13843,"Ġancestors":13844,"Do":13845,"ĠBund":13846,"ĠBeijing":13847,"ĠÃģ":13848,"Ġethn":13849,"Ġbroadcasts":13850,"Ġstere":13851,"rier":13852,"Ġphysically":13853,"Ġfeelings":13854,"ĠCreat":13855,"Ġmodes":13856,"ĠMilwaukee":13857,"Ġjournalists":13858,"Ġstreams":13859,"eens":13860,"ickets":13861,"ischer":13862,"ĠCruz":13863,"Ġsitting":13864,"atted":13865,"Ġcollapsed":13866,"ĠGerald":13867,"Ġengagement":13868,"Ġsurname":13869,"Ġtelling":13870,"Ġcriticised":13871,"Ġpronoun":13872,"ĠRabb":13873,"Ġsustained":13874,"Ġdisappeared":13875,"imental":13876,"ubble":13877,"ĠMyth":13878,"Social":13879,"normal":13880,"Ġsurprise":13881,"Bra":13882,"ĠCros":13883,"Ġexports":13884,"Ġapplic":13885,"ĠGospel":13886,"Ġfocusing":13887,"Ã©g":13888,"Ġturnout":13889,"ĠLaf":13890,"Ġtut":13891,"ĠGur":13892,"Ġelaborate":13893,"ĠBark":13894,"cliff":13895,"ĠAircraft":13896,"ĠCave":13897,"Ġscr":13898,"eneg":13899,"rophy":13900,"cker":13901,"ĠRoom":13902,"rez":13903,"omi":13904,"ĠGiants":13905,"Ġratings":13906,"iza":13907,"Ġstrikes":13908,"Ġpursued":13909,"Ġdetection":13910,"Ġsponsor":13911,"Ġdishes":13912,"ĠAL":13913,"Ġastronomer":13914,"Burials":13915,"Ġderivative":13916,"Mark":13917,"Ġreduces":13918,"Ġwidow":13919,"ĠâĶ":13920,"Ġcapability":13921,"Ã¶n":13922,"aurus":13923,"establish":13924,"ĠSport":13925,"Ġaggreg":13926,"ositions":13927,"ĠAlberta":13928,"Royal":13929,"Inf":13930,"Ġstriking":13931,"ĠContemporary":13932,"Little":13933,"erical":13934,"Ġaggressive":13935,"ĠLeopold":13936,"Mac":13937,"ĠAdolf":13938,"ĠTravel":13939,"loo":13940,"Ġaftermath":13941,"Ġwrestler":13942,"ĠIbn":13943,"Dec":13944,"ĠFoster":13945,"Ġhtt":13946,"Ġghost":13947,"Ġcategor":13948,"Ġgates":13949,"Ġcircles":13950,"Ġpainters":13951,"bet":13952,"ĠChart":13953,"exp":13954,"ĠIndustry":13955,"Ġorgans":13956,"government":13957,"Ġdeclaration":13958,"Ġaddresses":13959,"isdom":13960,"ĠKazakh":13961,"Ġ116":13962,"ĠOakland":13963,"Ġtract":13964,"Ġenrollment":13965,"ĠLithuania":13966,"Ġquarters":13967,"ĠComplex":13968,"Ġsau":13969,"ĠConrad":13970,"since":13971,"ĠQuarter":13972,"Ġmeasuring":13973,"Ġgenera":13974,"Ġbreaks":13975,"Indian":13976,"Pat":13977,"Ġstroke":13978,"Ġevolutionary":13979,"Ap":13980,"Four":13981,"verage":13982,"ĠDaw":13983,"Ġintensity":13984,"Ġinterf":13985,"Ġcontributing":13986,"iane":13987,"Ġviewers":13988,"Ġbeneath":13989,"Ġvulnerable":13990,"ophon":13991,"Ġdefeats":13992,"Ġphotographer":13993,"Ġtribal":13994,"ections":13995,"ĠHipp":13996,"ĠOttawa":13997,"mud":13998,"ĠBend":13999,"Ġreconst":14000,"Ġchromos":14001,"Ġ>":14002,"err":14003,"ĠWord":14004,"Ġgrants":14005,"Ġconceived":14006,"quet":14007,"hy":14008,"ĠGarc":14009,"Philos":14010,"ĠSah":14011,"ĠGam":14012,"Ġpulled":14013,"cest":14014,"1910":14015,"boat":14016,"books":14017,"ĠPav":14018,"Ġinformal":14019,"Family":14020,"ME":14021,"ĠLead":14022,"1928":14023,"Ġgrandson":14024,"ĠGael":14025,"Ġreserved":14026,"Ġguests":14027,"ĠBarcelona":14028,"Ġinfant":14029,"Ġflooding":14030,"Ġfinishing":14031,"ĠBelarus":14032,"Every":14033,"Ġstrictly":14034,"Ġimproving":14035,"Biography":14036,"illon":14037,"ĠKay":14038,"ĠGlenn":14039,"Ġirre":14040,"ĠDiamond":14041,"Ġear":14042,"Ġthanks":14043,"Ġfeeding":14044,"asha":14045,"uity":14046,"Ġdense":14047,"ĠCherokee":14048,"ĠScreen":14049,"Ġautonomy":14050,"Chinese":14051,"ht":14052,"Ġexperts":14053,"Ġcustomer":14054,"Ġdecorated":14055,"ĠMÃ©":14056,"ĠWarsaw":14057,"Ġsampl":14058,"Ġinstances":14059,"Ġhull":14060,"Ġepid":14061,"Ġcomparable":14062,"viously":14063,"ĠBulgarian":14064,"Ġtaste":14065,"uxili":14066,"ĠBroadcasting":14067,"ĠPopular":14068,"Ġ1838":14069,"Ġpolynomial":14070,"airy":14071,"ĠReserv":14072,"Big":14073,"Ġlux":14074,"Ġsteep":14075,"ĠAlpha":14076,"ĠHood":14077,"abad":14078,"Ġpropaganda":14079,"Br":14080,"agers":14081,"Ġamendment":14082,"ĠConstruction":14083,"Ġpregnancy":14084,"Ġanthem":14085,"Due":14086,"Ġmanga":14087,"ĠMTV":14088,"ordinary":14089,"Ġrelie":14090,"iscal":14091,"ĠInitially":14092,"atha":14093,"Swed":14094,"etus":14095,"rition":14096,"Ġbotan":14097,"Ġdiagnosis":14098,"arted":14099,"ĠGreene":14100,"ĠJohannes":14101,"ĠAgainst":14102,"PP":14103,"ĠBeh":14104,"Ġprogrammes":14105,"Ġignored":14106,"ĠCincinnati":14107,"Jose":14108,"ounding":14109,"onnie":14110,"auss":14111,"Ġdrove":14112,"ĠWebsite":14113,"Latin":14114,"ĠYe":14115,"ĠSalvador":14116,"isely":14117,"odore":14118,"Ġaccounting":14119,"ĠCzechosl":14120,"Law":14121,"Ġatom":14122,"Ġdisband":14123,"Ġtownships":14124,"Ġsodium":14125,"ĠHyd":14126,"ĠWool":14127,"just":14128,"ĠChall":14129,"Ġundergo":14130,"ĠPriv":14131,"itational":14132,"Ġfate":14133,"Ġconve":14134,"ĠHeinrich":14135,"IF":14136,"Ġdefining":14137,"ĠNashville":14138,"thlete":14139,"ĠIT":14140,"ĠBedford":14141,"ongs":14142,"ipients":14143,"ĠOwen":14144,"Vol":14145,"Ġinsects":14146,"caster":14147,"Ġnovelists":14148,"Ġsuspic":14149,"ĠKÃ¶ppen":14150,"Äĵ":14151,"irate":14152,"avan":14153,"Ġwaiting":14154,"uran":14155,"rays":14156,"ĠEdgar":14157,"Ġqualified":14158,"ĠHockey":14159,"Ġrapper":14160,"Note":14161,"uen":14162,"ĠIber":14163,"ĠJunction":14164,"rob":14165,"Ġdevelopers":14166,"Ġlacked":14167,"ĠPlayer":14168,"Ġ1815":14169,"ĠConcord":14170,"Mer":14171,"ĠVilla":14172,"urban":14173,"Ġassessment":14174,"ĠMÃ¼":14175,"Ġinterven":14176,"Ġmirror":14177,"Ġgases":14178,"ĠHanover":14179,"uke":14180,"atem":14181,"ĠMÄģ":14182,"ĠĊĊĠ":14183,"etti":14184,"Ġsenator":14185,"ĠPale":14186,"Ġvig":14187,"Ġparade":14188,"Mad":14189,"ternoon":14190,"ĠYang":14191,"ische":14192,"ĠLap":14193,"Ġsuffer":14194,"Ġelectronics":14195,"width":14196,"utter":14197,"Ġconserv":14198,"Ġplanes":14199,"otypes":14200,"1926":14201,"ubs":14202,"ĠScar":14203,"ĠBasketball":14204,"Ġboards":14205,"ĠScotia":14206,"Ġtendency":14207,"Ġcrystal":14208,"Tra":14209,"Ġfires":14210,"Ġeventual":14211,"ĠStudents":14212,"Ġinstallation":14213,"Ġvolunteers":14214,"ente":14215,"ĠStockholm":14216,"ĠSter":14217,"species":14218,"Ġcrowned":14219,"Ġmature":14220,"ĠOst":14221,"Ġtargeted":14222,"Ġresear":14223,"Ġavailability":14224,"opotam":14225,"sal":14226,"shore":14227,"ometer":14228,"aos":14229,"ellation":14230,"lia":14231,"ĠBuddha":14232,"ĠLuxembourg":14233,"story":14234,"ĠLGBT":14235,"ensing":14236,"list":14237,"isch":14238,"Ġdeals":14239,"ĠPrivate":14240,"Ġfastest":14241,"ĠPhysics":14242,"ĠLegislature":14243,"gae":14244,"uting":14245,"Ġreflecting":14246,"Ġabd":14247,"Ġpeer":14248,"Ġpassion":14249,"Ã³w":14250,"idian":14251,"ĠPrest":14252,"Ġparking":14253,"Ġkills":14254,"1912":14255,"Ġmetall":14256,"comes":14257,"Ġexplored":14258,
[...]
